Ġ t
Ġ a
i n
h e
Ġ s
r e
Ġ .
Ġ o
e r
Ġ ,
i t
Ġt he
i s
n d
a t
Ġ f
in g
e n
e s
Ġ m
Ġ w
Ġ c
Ġ b
o r
o n
o u
Ġo f
Ġa nd
a r
Ġ p
a n
a l
l y
Ġt h
Ġ d
l e
i c
Ġ '
Ġt o
e d
Ġ in
Ġ h
i l
o m
Ġ l
s t
Ġ n
Ġ it
Ġ e
Ġ is
c t
u t
e l
Ġm o
i on
en t
Ġ g
a s
o t
v e
Ġth at
v i
i m
r a
Ġb e
Ġ re
Ġs t
Ġ u
g h
u l
v er
c e
Ġf il
c h
e t
r o
T he
Ġfil m
Ġo n
Ġa n
it h
Ġa s
r i
Ġ y
o l
Ġw ith
a y
o w
k e
a d
vi e
Ġ -
Ġf or
es s
s e
o o
i r
Ġs u
Ġc om
i d
Ġw h
Ġy ou
Ġmo vie
er s
Ġit s
a m
Ġb ut
b le
Ġl i
Ġa l
u n
Ġ S
he r
a g
Ġc h
u m
il l
gh t
e m
. .
ou s
ou t
c k
u r
Ġin t
Ġe x
Ġs e
a k
l d
Ġth is
is t
i ve
at ion
an t
r om
R B
u re
al ly
q u
i re
Ġ he
p e
es t
ar t
I t
a st
i f
a in
Ġu n
Ġa b
Ġn ot
Ġ B
' t
Ġh a
Ġd o
Ġs h
Ġa t
Ġs c
Ġc on
Ġd e
el l
Ġw or
at e
Ġ C
or y
Ġ M
Ġ A
Ġn e
a p
it y
Ġ en
u st
u s
a ble
i g
Ġ j
ou gh
a ct
Ġs o
t h
Ġb y
oo d
f ul
Ġch ar
Ġ- -
Ġp ro
Ġa re
Ġh as
o p
Ġth an
Ġa ct
i ght
a nd
Ġab out
Ġ H
f f
Ġmo re
t er
Ġs om
ou ld
e re
Ġ I
u d
Ġli ke
Ġal l
Ġp l
Ġon e
Ġf e
s s
Ġf rom
or t
v en
in d
ar d
Ġ. ..
Ġ D
Ġha ve
ver y
i al
i e
p t
Ġ `
T h
Ġh is
Ġ W
Ġ r
Ġp re
Ġwh o
it t
a ck
Ġ le
Ġp er
Ġst ory
ire ct
h ing
Ġo r
on e
Ġ v
al l
Ġ k
p l
Ġ im
g e
e ct
on g
Ġo ut
Ġchar act
o g
a b
en ce
c es
Ġf un
Ġ P
a ke
i ous
Ġ R
Ġ F
p er
i es
o d
ic h
ic k
a re
R RB
Ġ G
L RB
im e
in e
Ġf l
Ġc l
Ġ L
f or
e ar
v es
ra m
m an
o s
Ġm an
r y
Ġmo st
n t
Ġu p
Ġs p
a u
re at
p p
er t
a c
Ġd irect
oo k
Ġint o
ic t
ar y
ed y
n y
Ġ T
Ġ J
Ġp o
ou r
Ġth r
Ġl o
Ġ qu
Ġwor k
Ġan y
nd er
Ġa d
Ġn o
n e
e p
Ġj ust
Ġa r
i le
Ġcom p
o re
Ġto o
m ent
is e
o y
Ġdo es
it e
ic al
c om
Ġ ent
m er
Ġsom e
u e
Ġu s
u ch
Ġg ood
Ġ The
ak es
Ġw e
ag e
at ing
as s
ar k
Ġw ill
Ġh um
Ġcom edy
Th is
Ġc an
Ġper for
Ġof f
Ġ' '
el f
w e
Ġfe el
re en
at ch
Ġo ver
Ġt r
ul t
i z
Ġcharact ers
Ġ N
is h
d e
t her
r it
l l
id e
en s
i p
ou nd
Ġm uch
Ġw ay
Ġperfor man
ert ain
Ġw he
Ġbe t
Ġ K
Ġe ven
Ġ if
Ġa m
ing ly
A n
Ġs l
w n
v ing
ul l
at ed
l ess
ic e
Ġt ime
t e
at ive
ad e
Ġ E
itt le
Ġthe ir
Ġfun ny
Ġe m
en se
Ġsu b
Ġe nd
Ġd is
Ġ` `
i ly
Ġyou r
u al
Ġwh at
Ġl ook
Ġf a
Ġd ram
in t
Ġw ell
re ss
pe ct
n ess
ing s
al e
W h
Ġl ittle
Ġ ri
an s
Ġon ly
Ġ ra
i ence
Ġsu r
Ġre al
Ġim p
an ce
Ġt e
Ġli f
ow n
o st
o se
Ġsom et
Ġm e
Ġm ake
Ġg o
le d
c c
v ent
Ġt w
Ġe very
.. .
Ġwh ich
Ġin s
Ġb l
o nd
ion s
ak ing
Ġsc reen
v el
Ġ vi
Ġg en
ol d
Ġg et
Ġdirect or
Ġb ad
Ġne ver
Ġd el
r u
p h
Ġthe m
Ġse em
Ġm ay
Ġbe en
s h
o c
at ic
Ġthe y
l ing
b er
Ġw ould
Ġs m
Ġre m
Ġd es
Ġm akes
Ġ very
Ġthr ough
Ġlo ve
r is
an g
il d
ate ly
Ġthe re
Ġ ro
re n
he d
am e
Ġlif e
Ġen ough
Ġw atch
Ġo ther
Ġw as
Ġs er
or s
g et
at er
Ġent ertain
ab ly
vi es
Ġpl ot
in k
Ġy ear
Ġse e
ver s
ig n
ĠC h
u ally
re d
v ed
ay s
Ġmo vies
Ġa g
t y
Ġb est
as h
Ġu nder
Ġp e
le as
Ġhe art
ur n
Ġcon t
Ġa ud
Ġre s
Ġf am
Ġdram a
Ġ 1
is m
ion al
in em
a ch
Ġe ff
Ġar t
t ing
ot h
Ġv is
ere st
ent s
Ġt ra
Ġp art
Ġc ould
o ck
at h
Ġc ast
Ġact ion
Ġ rom
i ke
i an
Ġb r
j ect
a w
a ut
Ġh ow
Ġm ade
s o
ri g
a ce
Ġsomet hing
Ġ her
Ġ :
ut e
i ble
Ġc inem
ell ing
Ġre ally
Ġh ard
i v
c ial
Ġsh ould
Ġint erest
The re
Ġo wn
ot her
im es
I f
Ġperforman ces
Ġm in
l es
ir st
Ġl ong
Ġhum or
Ġfilm m
in al
im p
he s
at ure
um ent
Ġo b
Ġg reat
Ġfilm s
Ġcharact er
Ġ O
ist ic
ation s
Ġman y
t en
ri pt
ow er
au se
Ġbet ter
o b
Ġwhe n
vie w
op le
ol ly
e nd
d u
Ġl au
ro w
re e
Ġthr ill
Ġsc ript
Ġa w
Ġwith out
Ġpe ople
Ġdo c
Ġat t
s c
i b
ce pt
Ġne w
Ġd own
n ing
I n
Ġst r
Ġsc en
Ġs pe
Ġk n
Ġf irst
um b
i gh
ar ly
Ġdoc ument
Ġ ?
Ġtw o
k s
j oy
at her
Ġt ri
om e
Ġsur p
Ġst ill
Ġin c
Ġe ver
mer ic
if ul
ful ly
Ġw o
Ġen joy
Ġem ot
Ġc le
Ġal so
u p
ow s
f ter
f t
Ġs ense
Ġre l
Ġre c
Ġc he
w ood
in s
Ġo ld
Ġk ind
l t
ict ure
ct ion
Ġt er
Ġim ag
Ġ ke
s y
Ġnot hing
Ġm om
Ġg ra
Ġg i
Ġc ol
Ġb oth
Ġb ig
Wh at
Ġs elf
ut es
Ġp icture
Ġm y
Ġex c
Ġaud ience
th ing
ou ght
n g
is s
Ġw ar
Ġth ose
Ġm ight
Ġlau gh
Ġb el
k y
c ause
a z
Ġl ess
Ġhum an
Ġchar m
Ġb ack
ĠA meric
c i
Ġwor th
Ġs et
Ġa p
Ġ view
Ġ ide
vi d
ou nt
olly wood
er n
c ed
Ġsu ch
Ġst y
Ġof ten
Ġf ind
Ġen g
ap t
Ġperforman ce
Ġp leas
Ġbe cause
it s
in ation
g g
A s
lt im
ar r
ant ic
Ġl ack
Ġcomp le
Ġbe ing
Ġbe aut
we en
u ff
f ic
or d
a v
Ġpo int
Ġhe re
Ġf ar
ro ss
ere d
at es
ast er
Ġt al
Ġseem s
Ġmin utes
Ġh ist
Ġentertain ing
Ġdocument ary
Ġt ale
Ġsurp ris
Ġne ed
Ġf re
Ġex per
Ġcon s
Ġa pp
on s
he re
Ġt urn
Ġs at
Ġpl ay
Ġp r
Ġfe w
Ġbet ween
we et
w ard
ne y
ic ally
ap p
Ġthrill er
Ġpre t
Ġp ower
Ġp ers
Ġg r
Ġc are
ĠH ollywood
Ġ ;
m ost
ie ce
ar n
Ġke ep
Ġg u
Ġg l
x t
ol og
Ġwor ld
Ġw ant
Ġs he
Ġl ot
B ut
Ġw ere
Ġth ink
Ġs k
Ġk id
Ġh im
Ġc reat
Ġact ing
ĠS t
y ing
t s
o k
O ne
Ġm us
Ġfilmm ak
Ġde p
Ġ 2
st er
rit er
n er
in ess
ar s
an e
\ /
Ġrom antic
Ġh or
Ġc o
Ġag ain
Ġa fter
ic s
i er
d d
c ess
as c
Ġwh ile
Ġu ltim
Ġse qu
Ġs in
Ġm ess
Ġfeel s
Ġe as
Ġan other
rig inal
re s
en ces
b e
Ġh igh
Ġeff ect
Ġal most
Ġa c
ure s
re am
og ue
it ion
ir l
i a
f ore
er ing
ell ig
at t
Ġqu ite
Ġfam ily
Ġcom es
Ġc a
Ġbeaut iful
Ġbe com
re ad
Ġt ake
Ġre f
Ġm ater
Ġle a
Ġits elf
Ġcom e
Ġc ra
Ġact ors
ĠS h
v in
ent ly
e w
e ad
d ict
ag es
Ġw om
Ġthe se
Ġse en
Ġs imp
Ġo riginal
Ġinterest ing
Ġint ellig
Ġex pl
Ġd ial
Ġc r
Ġ es
il s
ch ing
al f
Y ou
Ġth ings
Ġh ad
Ġgen er
Ġfor m
Ġb it
Ġap pe
pl ay
ous ly
ol l
il ity
i et
as on
a ir
Ġri ght
Ġr ather
Ġmom ents
Ġmater ial
Ġkn ow
Ġdial ogue
Ġbe fore
ĠAmeric an
ur d
u b
o ve
ir it
f ect
e x
Ġyou ng
Ġt ou
Ġsub ject
Ġf asc
Ġex t
Ġe l
Ã ©
y s
ire d
c on
an ge
N ot
Ġp ort
Ġmo d
Ġf r
Ġc ult
Ġ !
p ite
nd s
it her
em pt
Ġst ud
Ġsh ow
Ġre p
Ġr un
Ġp ain
Ġm em
Ġin d
Ġfl ick
Ġde c
Ġd ist
o f
irect or
if f
ic ul
i ar
c ing
Ġwork s
Ġth ing
Ġsu per
Ġs it
Ġpro du
Ġport ra
Ġpers on
Ġh our
Ġfasc in
Ġd et
Ġ Y
v ol
ri d
e c
Ġyear s
Ġy et
Ġwhe re
Ġwatch ing
Ġvis ual
Ġsm art
Ġscen es
Ġin st
Ġe le
Ġb u
Ġa ff
s p
is f
at ter
Ġun f
Ġultim ately
Ġse x
Ġp ass
Ġm aking
Ġdel i
Ġch ild
Ġc re
Ġan im
ĠS p
m s
ion ally
ain s
Wh ile
L ike
Ġth ought
Ġsin ce
Ġm ind
Ġle ast
Ġde ep
Ġd ra
Ġcomp elling
Ġbel ie
Ġ ir
Ġ ed
u es
m in
c y
al s
F or
Ġp h
Ġo ur
Ġfascin ating
Ġd ull
Ġd ark
Ġcinem a
Ġab s
t he
qu e
er a
am p
al ity
Ġwo nder
Ġt ry
Ġspe cial
Ġdirect ion
or n
ol id
m e
Ġst and
Ġp ut
Ġh alf
Ġg ive
Ġf ull
Ġd em
Ġcon f
Ġcl ass
Ġa cc
sh ip
o ot
o ol
k ing
im ent
ill i
il ar
id d
g y
el ess
as e
W ith
Ġthe n
Ġt it
Ġt akes
Ġst ra
Ġs ens
Ġs ay
Ġra re
Ġp iece
Ġon ce
Ġmus ic
Ġgi ves
Ġfe ature
Ġc ar
Ġ V
og ra
i el
are nt
ant ly
S t
Ġw r
Ġs weet
Ġp ol
Ġn arr
Ġmo ving
Ġli ght
Ġgo ing
Ġget s
Ġen er
Ġeff ort
Ġde f
Ġcle ver
us ing
u ck
s elf
it ive
in es
Ġw it
Ġter ri
Ġt imes
Ġpro ble
Ġm el
Ġf in
Ġexper ience
Ġd id
Ġc apt
ĠD e
vi ous
he n
Ġu nd
Ġsty le
Ġsh ort
Ġp sy
Ġm or
Ġfam il
Ġex p
Ġeng ag
Ġ1 9
t ed
r or
op p
Ġsu m
Ġsp irit
Ġpre dict
Ġm ed
Ġdel ight
Ġcom ic
Ġany thing
ĠB l
ur ing
on t
i x
al ing
U n
Ġsu re
Ġst art
Ġre t
Ġl ow
Ġhist ory
Ġex pect
Ġcon c
iz ed
il ly
el s
ast e
Ġwh y
Ġvi de
Ġth ree
Ġscreen play
Ġs ame
Ġs ad
Ġper fect
Ġlaugh s
Ġh on
Ġemot ional
Ġe vent
Ġe p
Ġad d
ĠS c
us h
t o
ss ible
ress ive
re t
it ies
ir d
id er
get her
ce ed
c ise
an k
Ġto gether
Ġsu cc
Ġstr ong
Ġser ious
Ġs w
Ġnarr ative
Ġm aster
Ġgen re
ure d
ul a
u g
st and
ro p
ri ght
ra ct
or k
o h
o ff
ment s
it ing
ist s
i o
e ver
Ġun s
Ġth ough
Ġsomet imes
Ġs ent
Ġpro b
Ġpre s
Ġp op
Ġle ad
Ġkid s
Ġe y
Ġcom m
Ġc ertain
Ġas s
Ġ 9
y p
r ic
od y
l er
itt en
ent ed
Ġtra g
Ġtr ans
Ġte en
Ġsat isf
Ġpsy ch
Ġoff ers
Ġl ast
Ġide a
Ġfilmmak ers
Ġf act
Ġentertain ment
Ġcomple te
Ġcinem atic
Ġaw ay
Ġact ually
ur al
od ram
m ing
it ed
if ic
g er
b ut
E ven
A l
Ġwho se
Ġser ies
Ġqu ir
Ġn ow
Ġm ar
Ġm ain
Ġin f
Ġha pp
Ġc red
Ġb ra
Ġatt empt
ru ct
or ing
or ies
o pe
m p
iff ere
e k
Ġwho le
Ġtit le
Ġs ound
Ġmod ern
Ġfre sh
Ġf all
Ġex er
Ġcl ic
Ġ Th
s on
ph y
ot s
ort un
o int
he t
er y
Ġwor st
Ġstud y
Ġs ou
Ġpl ace
Ġp rom
Ġo dd
Ġmel odram
Ġman ages
Ġins p
Ġins ight
Ġhe ad
Ġha nd
Ġgo es
Ġfa ir
Ġf ans
Ġexer cise
Ġent ire
Ġengag ing
Ġd one
Ġcom ing
ĠN ew
z y
w ays
vers ion
sp ense
or ge
m ise
m ed
iz ing
Ġwom en
Ġw in
Ġsu spense
Ġsimp ly
Ġs olid
Ġprob ably
Ġpre mise
Ġpol it
Ġo p
Ġm on
Ġle vel
Ġfamil iar
Ġfa ce
Ġenjoy able
Ġde v
Ġar ound
Ġam b
ust r
ult s
ud e
ro wn
ren ch
oo f
it ch
i ences
ent ion
com e
b r
an n
am s
a il
a id
Ġw riter
Ġvide o
Ġsm all
Ġsent iment
Ġrem ark
Ġre ason
Ġpredict able
Ġportra it
Ġp ar
Ġm atter
Ġint er
Ġhon est
Ġhe l
Ġfl aw
Ġfilmm aking
Ġdram atic
Ġchild ren
Ġany one
re ak
ot ic
o id
l ine
l ike
ict ion
ear s
d ay
c o
Ġtr ue
Ġt reat
Ġsurpris ingly
Ġsub t
Ġst ar
Ġs y
Ġpro f
Ġpart icul
Ġp at
Ġp ast
Ġne arly
Ġhor ror
Ġf ant
Ġd iffere
Ġcom ed
Ġc ou
ĠB e
ut ion
itt ing
if e
et t
es pite
b y
` `
Th ough
B e
0 0
Ġsucc ess
Ġsl ow
Ġs im
Ġpower ful
Ġob s
Ġo per
Ġm ust
Ġm ark
Ġint rig
Ġhe ro
Ġform ula
Ġfl at
Ġf ine
Ġener gy
Ġcomple x
Ġc am
Ġbecom es
Ġbe g
Ġb o
Ġal ways
Ġad vent
Ġad m
ĠS te
ĠL e
v is
us ed
t elling
in ed
i ed
el t
d irector
ation al
al k
Ġwor d
Ġs illy
Ġrom ance
Ġqu est
Ġproble m
Ġpret ty
Ġn or
Ġm is
Ġhel p
Ġfeel ing
Ġam using
Ġa ch
ĠR ob
ĠM r
w h
ur p
un g
th ough
se m
olog ical
ok es
o vie
o on
o ke
iz e
ich Ã©
h a
ci ally
ash ion
all ow
D espite
Ġwar m
Ġun i
Ġu r
Ġtry ing
Ġsum mer
Ġst uff
Ġsl ight
Ġs ch
Ġquir ky
Ġlook ing
Ġh ilar
Ġeffect s
Ġe v
Ġe qu
Ġcont ri
Ġcol le
Ġcl ichÃ©
Ġcharm ing
ĠF rench
ĠC l
Ġ ill
ut h
un ch
u ing
pl ic
pe cially
idd le
id ent
g es
en ing
ed ly
c hed
ap s
A nd
Ġvi ol
Ġv al
Ġt one
Ġse c
Ġs ign
Ġre ve
Ġr ich
Ġo cc
Ġm iss
Ġm a
Ġlook s
Ġdeep ly
Ġd i
ĠA ll
ut ter
u ine
t ime
rit ing
ri end
r on
oh n
o v
is hed
es e
ch n
c hes
are ly
ac ed
a ve
S h
Ġunder stand
Ġturn s
Ġsu pp
Ġst ri
Ġs ing
Ġme an
Ġm ag
Ġl ar
Ġes pecially
Ġel se
Ġeas y
Ġdes er
Ġde but
Ġd ay
Ġcult ure
Ġcon vin
Ġcon st
Ġcertain ly
Ġbeautiful ly
Ġaff ect
ĠR e
ĠJ ohn
ĠJ ack
Ġ z
y ond
vel op
ud d
u ri
re me
p ro
ore d
old s
l ish
it ation
g u
g th
g o
er v
ent ious
e f
a el
N o
Ġto p
Ġthe ater
Ġsu ff
Ġsit u
Ġs ort
Ġrec ent
Ġre st
Ġqu iet
Ġpl ays
Ġmo t
Ġlike ly
Ġli ve
Ġintellig ent
Ġg ri
Ġex cept
Ġc ut
Ġbr illi
Ġbelie ve
Ġab ove
ĠB ar
Ġ It
y n
un ny
u se
u nd
u ly
ot e
on y
i ra
ation ship
a i
Ġt ell
Ġrel ationship
Ġmy ster
Ġintellig ence
Ġide as
Ġhilar ious
Ġg irl
Ġevery thing
Ġb ook
Ġact or
ĠT V
ĠS e
Ġ version
read y
ra g
r ing
ou d
os ed
or able
l in
ire s
el ves
ber g
app oint
an ces
ag ed
It s
Ġtr uly
Ġstra ight
Ġst ories
Ġsou l
Ġri de
Ġpro ves
Ġpass ion
Ġoper a
Ġn ice
Ġm ix
Ġlea ve
Ġj our
Ġin vol
Ġgen uine
Ġg row
Ġevery one
Ġes c
Ġem b
Ġe ach
Ġdirect ed
Ġcomplete ly
Ġcam era
Ġc ent
Ġc ap
Ġc al
Ġb ro
Ġb as
Ġal ready
Ġal ong
us s
um p
u ge
s elves
ou b
or ough
ol es
min ute
less ly
itt y
is ing
im s
ich ael
d ing
com p
com m
arn est
an y
Ġwe ird
Ġtou ching
Ġstory telling
Ġsatisf ying
Ġs pect
Ġre ad
Ġqu ick
Ġpro ject
Ġpleas ure
Ġp ot
Ġob vious
Ġo pp
Ġn on
Ġli ves
Ġlack s
Ġl ine
Ġimp ro
Ġfilmmak er
Ġfant as
Ġf an
Ġend ing
Ġdis appoint
Ġdel ic
Ġde ad
Ġd umb
Ġcre ep
Ġbe yond
Ġb oring
Ġaud iences
Ġadvent ure
ĠC r
ĠA n
ĠA l
w ay
p or
ot t
m a
ib ly
i est
h y
g ed
ent y
ens ion
c ent
b out
J ust
A t
A ll
Ġun ex
Ġsh ows
Ġsequ el
Ġre g
Ġm iddle
Ġm en
Ġle ft
Ġinst ead
Ġhist or
Ġex ec
Ġe ither
Ġd ream
Ġcom b
Ġam ount
Ġagain st
Ġach ie
Ġa ir
ĠS ch
ĠD is
r t
p le
orough ly
on es
ol ute
o ssible
le y
le t
i ent
i en
et s
ent ial
c er
c ceed
b ing
ar p
ar m
am es
a pe
T oo
Al though
Ġwom an
Ġw ind
Ġw ild
Ġtri es
Ġthe at
Ġterri fic
Ġstr ange
Ġso cial
Ġsimp le
Ġsh ot
Ġsh ock
Ġsat ire
Ġs qu
Ġs n
Ġref res
Ġpo et
Ġparticul arly
Ġp arent
Ġmo od
Ġmelodram a
Ġhour s
Ġhim self
Ġh ope
Ġfa ils
Ġf ound
Ġext ra
Ġex am
Ġdes per
Ġdef in
Ġclass ic
Ġbl and
Ġa st
ĠRob ert
ĠD a
w r
ul g
sem ble
r ise
oll ow
ogra phy
n ce
le ct
k ed
is hing
ill ing
g r
em ber
ell ent
e y
ar ing
al t
ag s
W e
Un f
B y
Ġway s
Ġview ers
Ġun e
Ġthought ful
Ġst un
Ġso ap
Ġsec ond
Ġscen e
Ġprodu ction
Ġpret entious
Ġpo or
Ġocc as
Ġne ither
Ġmom ent
Ġmess age
Ġj oy
Ġin e
Ġimp ressive
Ġgra nd
Ġfun n
Ġfor get
Ġf our
Ġeas ily
Ġe mer
Ġdra g
Ġdiffere nt
Ġde velop
Ġd er
Ġd am
Ġcon cept
Ġche ap
Ġc old
Ġbecom e
ĠM ichael
ĠA r
Ġ Z
Ġ U
z z
w ise
up id
ross ing
ra ge
r ist
one y
olog y
oc ative
o x
le g
l and
iv al
it er
is es
ious ly
in ary
ick s
he l
ft ed
f ort
c ul
c l
b an
b all
av y
ac ing
E very
Ġwr itten
Ġwonder ful
Ġw a
Ġvis ion
Ġu g
Ġth in
Ġt ed
Ġsubt le
Ġsub st
Ġsu st
Ġsu cceed
Ġstand ard
Ġspect ac
Ġsee ing
Ġs le
Ġro le
Ġremark able
Ġreal ity
Ġperson al
Ġm et
Ġlo st
Ġlar ge
Ġj okes
Ġins ide
Ġimag ination
Ġimag es
Ġg ot
Ġf ight
Ġf ig
Ġexpl o
Ġent h
Ġde ath
Ġbr ing
Ġapp ro
Ġanim ation
Ġact ress
ĠS and
ĠM y
ĠH ar
ĠCh rist
Ġ ve
Ġ utter
Ġ X
Ġ 8
un k
ter n
t ra
ou se
ou ble
le nd
ite ly
it al
is od
ill er
e le
b ers
atch ing
ashion ed
app y
and s
D irector
Ġw riting
Ġun p
Ġtra d
Ġthem selves
Ġth oroughly
Ġte chn
Ġt ired
Ġso ph
Ġsequ ences
Ġscreen w
Ġrun ning
Ġrem ind
Ġrem ains
Ġrefres hing
Ġpsych ological
Ġpro v
Ġpo ss
Ġmyster y
Ġmor al
Ġlea ves
Ġintrig uing
Ġin n
Ġimp ossible
Ġhor ri
Ġfr ustr
Ġf ut
Ġf riend
Ġeng rossing
Ġclic hes
Ġcl ose
Ġbl ack
Ġb reat
Ġart ist
Ġa ut
ĠI I
ĠF r
ĠB rit
Ġ1 0
z e
y ear
us ion
ul ar
st r
sc ar
ress ion
p iece
olute ly
o es
n ter
m y
ive ly
it ious
iel berg
ie ces
i oc
i ally
het ic
here nt
h and
f l
ens ive
em ent
ear ing
as hing
ab ility
a ils
C h
Ġwr ong
Ġw el
Ġviol ence
Ġview er
Ġvi vid
Ġun c
Ġtw ist
Ġtr uth
Ġto ld
Ġt aste
Ġsurpris ing
Ġsur f
Ġst upid
Ġsl ap
Ġsentiment al
Ġpro vid
Ġpro cess
Ġmem orable
Ġjour ney
Ġj ob
Ġin vent
Ġin v
Ġimp ort
Ġhistor ical
Ġha ving
Ġh uge
Ġg orge
Ġfor g
Ġfin ally
Ġfair ly
Ġf ram
Ġf em
Ġey es
Ġext reme
Ġevent s
Ġep isod
Ġend s
Ġemot ionally
Ġdes pite
Ġdeli vers
Ġcr ime
Ġcont em
Ġcomed ies
Ġbrilli ant
Ġb al
Ġan g
Ġad apt
Ġa v
ĠM ar
ĠL ove
ĠI s
ĠG irl
ĠB ro
Ġ9 0
Ġ Q
v able
u c
s pect
ri ed
re w
re m
pp ed
or m
n ed
j or
is ed
il ty
iel d
id es
ib ility
i od
he art
h ood
g ing
f ashioned
er ous
ent le
at ural
at s
at ory
ast ic
ap h
a f
W hen
Th at
Ġwhe ther
Ġvi rt
Ġus ual
Ġus es
Ġuns ett
Ġunex pect
Ġug ly
Ġtrag edy
Ġtal ent
Ġt ar
Ġsk ill
Ġpolit ical
Ġper iod
Ġp urp
Ġp ure
Ġp ull
Ġother wise
Ġop en
Ġoff er
Ġle t
Ġl ist
Ġinsp ir
Ġinc l
Ġhe avy
Ġh y
Ġh op
Ġh it
Ġgi ven
Ġg ags
Ġfor ce
Ġfall s
Ġexc ellent
Ġex ist
Ġentire ly
Ġdep th
Ġdelight ful
Ġcomm un
Ġcol or
Ġcle ar
Ġch ange
Ġc ount
Ġc or
Ġc op
Ġc ond
Ġc ase
Ġbe h
Ġb oy
ĠY ork
ĠDis ney
Ġ er
urn s
u ous
sc reen
ru gg
r ant
pp ing
pe nd
oy ing
l ight
l i
ip ul
h op
en gth
en er
comm end
cess ary
be at
au ght
ath y
at est
an ch
H e
Ġunsett ling
Ġun b
Ġsp ark
Ġsing le
Ġsh arp
Ġsch ool
Ġsc i
Ġsc ary
Ġs our
Ġs ide
Ġro ll
Ġro ck
Ġre vel
Ġre commend
Ġpo st
Ġno vel
Ġne xt
Ġn one
Ġmost ly
Ġm ere
Ġm er
Ġl os
Ġl atest
Ġis s
Ġint im
Ġim m
Ġh ome
Ġg oof
Ġg one
Ġflaw s
Ġey e
Ġe arnest
Ġd ri
Ġd oub
Ġd ays
Ġcreep y
Ġcontri ved
Ġcons ider
Ġcon vent
Ġcol l
Ġc rit
Ġc art
Ġappe al
Ġanim ated
Ġad ults
Ġabs urd
Ġa ble
ĠW h
ĠW ar
ĠO scar
ĠM an
ĠG od
ĠA d
Ġ ess
w here
w ar
ut ed
us i
ud get
ro l
ri es
ress ing
ren ce
re nt
re al
qu ently
or ld
opp y
op h
om b
m ovie
ile d
f i
ent ially
en e
ele br
e e
ch y
b ly
ar ily
ad es
ac y
a x
a h
a ces
S ome
Not hing
M ore
Ġword s
Ġwel come
Ġv ar
Ġur ban
Ġtou ch
Ġthem es
Ġted ious
Ġtar get
Ġtal ented
Ġt est
Ġsy mp
Ġsust ain
Ġrem ake
Ġrelationship s
Ġre leas
Ġr out
Ġpo ssible
Ġparent s
Ġp ay
Ġp ack
Ġobs erv
Ġn ature
Ġmo ve
Ġmag ic
Ġma jor
Ġl iter
Ġimag ine
Ġget ting
Ġg entle
Ġfl ash
Ġfem ale
Ġfantas y
Ġfa v
Ġfa il
Ġf ollow
Ġex act
Ġen c
Ġd uring
Ġcapt ures
Ġc all
Ġbl ood
Ġb arely
Ġaw ful
Ġatt ention
Ġappro ach
Ġappe aling
Ġact ed
ĠS m
ĠM c
ĠB ig
Ġ2 00
Ġ ver
Ġ 3
vi de
ust er
t on
s w
ress ed
out h
os p
ok ing
o ss
k es
ip s
in ct
in ative
il os
il led
if fic
iffic ult
ic es
heart ed
g ra
en i
en ed
e al
b ody
att le
art s
ar re
ap an
an ks
am ent
ak en
T o
P l
H as
F e
E x
Ġvis ually
Ġu se
Ġth row
Ġsurp rise
Ġsty lish
Ġst rugg
Ġsome one
Ġsh oot
Ġres ult
Ġres on
Ġrare ly
Ġqu ality
Ġpr im
Ġpo ign
Ġpl enty
Ġover all
Ġopp ortun
Ġoccas ionally
Ġmed ioc
Ġman ipul
Ġm ild
Ġin de
Ġha nds
Ġgra ce
Ġgorge ous
Ġg ame
Ġfut ure
Ġf ul
Ġf inal
Ġf elt
Ġexam ination
Ġep ic
Ġele ments
Ġdet er
Ġdeli ver
Ġde ft
Ġd ifficult
Ġd est
Ġc uri
Ġc ur
Ġc elebr
Ġb us
Ġap art
Ġan t
Ġamb itious
Ġadapt ation
Ġac ross
Ġa im
ĠSte ven
ĠP h
ĠN i
ĠM art
ĠH e
ĠDa vid
yp ical
ver se
v ant
urd er
um ph
um ber
row d
re as
qu is
ph ic
p ar
ortun ately
ort s
ong s
om p
l ife
itt ed
id s
i or
d y
az z
av or
ate ur
are d
an ced
ab or
\ *
S o
Ġwork ing
Ġwor se
Ġwin ning
Ġwatch able
Ġw ise
Ġutter ly
Ġuni que
Ġund eni
Ġun t
Ġtri umph
Ġto ward
Ġsuper fic
Ġsc ore
Ġs ac
Ġre ward
Ġprov ocative
Ġprom ise
Ġpr ot
Ġpicture s
Ġp ub
Ġp ieces
Ġn ame
Ġmo ther
Ġmet aph
Ġlack ing
Ġkn ows
Ġkeep s
Ġiss ues
Ġha ck
Ġh om
Ġh old
Ġh ip
Ġfram e
Ġexec ution
Ġen semble
Ġemot ions
Ġdoub t
Ġdec ent
Ġd ry
Ġcreat ive
Ġcra fted
Ġcontem por
Ġcont in
Ġcom plic
Ġco ol
ĠclichÃ© s
Ġcast ing
Ġcare er
Ġc rowd
Ġbreat h
Ġb reak
Ġan n
ĠTh ing
ĠSp ielberg
ĠP l
ĠK iss
ĠJ apan
ĠI r
ĠH ol
ĠG reen
ĠF at
ĠA bout
wh at
ver al
v il
ur y
u ra
t able
rit ers
ow ers
ort ing
or th
or row
oo se
oo p
on str
o ver
o le
m on
m ist
ke y
iz es
ith ful
in ning
illi ams
id i
i ves
i ven
he m
en ess
c he
b ute
ast y
art h
ar l
am b
ac her
a ff
D e
A fter
Ġwarm th
Ġwant s
Ġw aste
Ġw ast
Ġunexpect ed
Ġun like
Ġto t
Ġthrough out
Ġt im
Ġsuperfic ial
Ġsu ck
Ġst ep
Ġsoph istic
Ġsome what
Ġsitu ations
Ġsex ual
Ġset s
Ġsens itive
Ġse veral
Ġro ad
Ġres pect
Ġre du
Ġquest ion
Ġput s
Ġpre vious
Ġplay ing
Ġpl ain
Ġph ilos
Ġperfect ly
Ġp ath
Ġp acing
Ġp ace
Ġon es
Ġneed s
Ġn atural
Ġmem ory
Ġmaster piece
Ġmar vel
Ġman ner
Ġli ked
Ġl im
Ġinc red
Ġimport ant
Ġg un
Ġf ast
Ġf are
Ġexact ly
Ġesc ap
Ġenth usi
Ġele g
Ġdis c
Ġdes ign
Ġdefin itely
Ġd ig
Ġconvin cing
Ġcontempor ary
Ġconc l
Ġcart oon
Ġc ru
Ġc ost
Ġb i
Ġam ateur
ĠT ime
ĠS ec
ĠO r
ĠI n
ĠH ome
ĠD an
ĠCh an
ĠAmeric a
Ġ200 2
Ġ ing
vis ion
ve y
v ice
ur phy
umb ers
u gg
sc ious
r ical
oo re
on ic
om et
o ice
nd ing
n ect
m osp
m ark
k ward
iv ity
ir c
ins p
ins ky
ing er
in o
il t
il m
ich ol
i um
hy th
f ying
et h
et er
end ed
e orge
de cess
ch ar
az ing
ating ly
at or
ang u
and er
ad d
act ion
ack s
a wn
R e
7 0
Ġworth y
Ġwe ak
Ġw itty
Ġw ish
Ġview ing
Ġunf unny
Ġune ven
Ġtri bute
Ġthan ks
Ġt ick
Ġsurpris es
Ġsupp osed
Ġsuccess ful
Ġst ruct
Ġsound s
Ġso ci
Ġslight ly
Ġsex y
Ġs ick
Ġs aw
Ġro om
Ġri d
Ġre d
Ġr hyth
Ġpurp ose
Ġprodu ct
Ġproble ms
Ġpre c
Ġp un
Ġp u
Ġmon ster
Ġm oney
Ġm id
Ġm atch
Ġlot s
Ġli ving
Ġlead s
Ġl oud
Ġl and
Ġint ent
Ġint ense
Ġinsight ful
Ġincl ud
Ġh ar
Ġgener ic
Ġfre quently
Ġf oot
Ġepisod e
Ġenc ou
Ġem pt
Ġem p
Ġdo g
Ġdeser ves
Ġder iv
Ġd en
Ġcult ural
Ġcreat es
Ġcre ate
Ġcou ple
Ġconvent ional
Ġconst ruct
Ġcons ist
Ġcom mer
Ġcinem at
Ġchar ism
Ġcal led
Ġc ross
Ġc amp
Ġbu ild
Ġbra in
Ġbr ings
Ġbeg ins
Ġb od
Ġb ar
Ġaw kward
Ġatt ract
Ġat mosp
Ġapp arent
Ġam ong
Ġag o
Ġac com
Ġabs olutely
Ġab ility
ĠW ed
ĠSand ler
ĠS ol
ĠM ovie
ĠM on
ĠG u
ĠG rant
ĠD am
ĠAll en
ĠA t
Ġ 5
y al
w o
vers al
us es
ur s
se qu
ra p
r ous
r ound
r al
pro v
oy s
ous y
ou p
ond z
od er
m ers
ist er
ires ome
ing u
in a
ic he
he nt
h aps
for m
f elt
ers on
en n
el lect
b o
ass ion
and on
and ering
all ing
all en
al y
S p
M uch
M ost
M an
Ġw ater
Ġus ually
Ġup on
Ġtw ists
Ġtreat ment
Ġthink ing
Ġter ms
Ġte xt
Ġt aking
Ġsurf ace
Ġsucceed s
Ġstart s
Ġst ren
Ġst ere
Ġspirit ual
Ġspectac le
Ġsophistic ated
Ġsk et
Ġsitu ation
Ġsh ame
Ġserious ly
Ġs itting
Ġrun s
Ġri ve
Ġri p
Ġreve als
Ġrep et
Ġquick ly
Ġprovid es
Ġpro p
Ġpre decess
Ġpoor ly
Ġpoint less
Ġpoet ry
Ġpl aces
Ġpain fully
Ġpain ful
Ġp os
Ġp ick
Ġover come
Ġother s
Ġor d
Ġne ar
Ġmin or
Ġmere ly
Ġmean ing
Ġme ans
Ġmanipul ative
Ġlove ly
Ġle ts
Ġl ength
Ġj u
Ġinvent ive
Ġinterest ed
Ġine pt
Ġind ie
Ġimp act
Ġhigh ly
Ġhard ly
Ġh am
Ġgu ys
Ġgu ess
Ġg ross
Ġg ang
Ġfunn ier
Ġful ly
Ġflick s
Ġflaw ed
Ġfind s
Ġfil l
Ġfig ure
Ġextra ord
Ġexc iting
Ġequ ally
Ġend earing
Ġed ge
Ġdo ing
Ġdev ast
Ġderiv ative
Ġdep ressing
Ġdem onstr
Ġd re
Ġd r
Ġd im
Ġd ate
Ġcreat ed
Ġconsider able
Ġconf l
Ġconc ern
Ġcomp any
Ġcommer cial
Ġcom fort
Ġcolor ful
Ġcolle ge
Ġcle arly
Ġcl um
Ġc ris
Ġc ore
Ġbelie vable
Ġbeh ind
Ġbeaut y
Ġb ur
Ġb attle
Ġav oid
Ġas pect
Ġar ri
Ġan sw
Ġamateur ish
Ġall ows
Ġal tern
Ġag es
Ġaffect ion
Ġachie ve
Ġaccom pl
Ġac cept
Ġabs or
ĠW ild
ĠSp y
ĠS n
ĠP ark
ĠM urphy
ĠM oore
ĠJack son
ĠI nd
ĠBrit ish
ĠB ull
Ġ 4
wh ile
vol ution
ver age
ust ry
um e
st ream
st ick
st ead
s ide
ru g
ro om
res ents
red ict
re ci
re aking
qu ent
prov oking
ott om
op s
on ishing
om en
om an
oder ber
oderber gh
o e
n ces
n a
mist ry
med i
led ge
le x
k n
k i
is hes
ir ty
in n
im al
if y
ie f
icul ous
h ow
gg est
ey ed
est ival
en cy
e in
d own
c al
b s
ate ver
arr ing
ar is
ant s
ang ing
anch ise
an cy
al an
ak s
ak ers
ag ue
ag on
ag ger
a ust
a ul
W atching
The y
Th ose
M ay
In stead
B oth
B l
A ny
A d
Ġworth while
Ġv ict
Ġus ed
Ġunt il
Ġun us
Ġun int
Ġun con
Ġtrag ic
Ġte le
Ġt ypical
Ġt iresome
Ġt ension
Ġt ear
Ġsur vi
Ġsuff ers
Ġsu ggest
Ġsty l
Ġstere ot
Ġst e
Ġst ars
Ġsp lend
Ġsh ots
Ġsh are
Ġsh allow
Ġset t
Ġse at
Ġse ason
Ġres p
Ġremark ably
Ġrec ord
Ġreal istic
Ġre ach
Ġpub l
Ġpres ent
Ġpoint s
Ġpleas e
Ġph ot
Ġp ul
Ġp ap
Ġopportun ity
Ġmovie go
Ġmot ion
Ġmod est
Ġmetaph or
Ġmedioc re
Ġmed itation
Ġmain t
Ġm ach
Ġl og
Ġl angu
Ġjust ice
Ġir re
Ġinvol ving
Ġinvol ved
Ġintim ate
Ġint ro
Ġint ellect
Ġhuman ity
Ġhow ever
Ġheart felt
Ġha un
Ġgr ound
Ġgoof y
Ġgl imp
Ġg if
Ġfr anchise
Ġfor ced
Ġfe ar
Ġf ol
Ġf ive
Ġexc it
Ġeffect ive
Ġe th
Ġdev oid
Ġdes c
Ġdelic ate
Ġde al
Ġcred it
Ġconcl usion
Ġcon v
Ġcinemat ography
Ġche mistry
Ġch allen
Ġc our
Ġbr ut
Ġbe ha
Ġbas ed
Ġb right
Ġb ore
Ġattempt s
Ġall ow
ĠW orld
ĠT om
ĠSh ow
ĠS w
ĠN ichol
ĠK ing
ĠG eorge
ĠF rid
ĠD rag
ĠD og
ĠD ay
ĠCr ush
ĠBull ock
ĠA m
Ġ2 0
Ġ era
z en
y le
y c
y an
wr itten
war ming
ver n
ut er
umb s
um ble
ulg ent
ul s
u x
u ct
te nd
ot ten
os ity
or ous
or ity
ood y
og et
oget her
off man
oc used
n ight
n es
m aking
m ade
l o
k in
k able
iven ess
it ative
ink s
ind ed
in y
ight s
iful ly
ident ity
ic le
i ved
hent ic
hand ed
h ilar
gg ed
g ood
g n
g l
f ield
er k
e per
ch ool
c ult
c orn
c ies
b el
b ed
az y
aw rence
as m
as hed
ar ity
ar ch
ar c
ar ant
ar a
an cing
all s
al ian
ak ed
ag g
ac ious
ab l
a ven
W riter
S te
O n
M r
M A
MA X
L e
Fe els
Be aut
Ġyour self
Ġy arn
Ġwe ight
Ġwast ed
Ġw ond
Ġvirt ually
Ġval ue
Ġv ill
Ġun re
Ġultim ate
Ġtri p
Ġtrans ce
Ġto day
Ġthrill s
Ġterri ble
Ġt ur
Ġt elling
Ġsur round
Ġstory line
Ġsp ook
Ġsome how
Ġso on
Ġslap stick
Ġsk in
Ġsince re
Ġshe er
Ġset ting
Ġser ved
Ġs pl
Ġs av
Ġs appy
Ġrout ine
Ġrive ting
Ġrid iculous
Ġreal ism
Ġra p
Ġra d
Ġquiet ly
Ġquest ions
Ġprot agon
Ġprof ess
Ġpro vide
Ġpre p
Ġpop corn
Ġpolit ics
Ġpleas ant
Ġpart y
Ġpap er
Ġp ract
Ġp it
Ġp ile
Ġoff ensive
Ġobs ess
Ġneed ed
Ġn umber
Ġn ight
Ġmiss ing
Ġmind less
Ġmelodram atic
Ġmain stream
Ġm urder
Ġm ist
Ġm es
Ġlo ss
Ġl ate
Ġl ab
Ġintrig ue
Ġins ult
Ġind ustry
Ġincred ibly
Ġin ex
Ġim medi
Ġheart b
Ġhe ll
Ġhapp en
Ġgu ilty
Ġgri pping
Ġgri ef
Ġgreat est
Ġgr oup
Ġgenuine ly
Ġgener al
Ġg ut
Ġg ay
Ġfriend ship
Ġformula ic
Ġfav or
Ġf ree
Ġf ore
Ġf ire
Ġf iction
Ġexpl or
Ġexcit ement
Ġevent ually
Ġempt y
Ġemer ges
Ġem ph
Ġdra w
Ġdis co
Ġdet ail
Ġdec ades
Ġde cept
Ġconfl ict
Ġcomp uter
Ġcommun ity
Ġche es
Ġcent ral
Ġcapt iv
Ġc yn
Ġc at
Ġc and
Ġbus iness
Ġb ottom
Ġb old
Ġar g
Ġapp reci
Ġang st
Ġal one
Ġal ive
Ġal ien
Ġaff air
Ġacc ess
Ġabsor bing
Ġa ge
ĠW illiams
ĠW est
ĠW e
ĠT r
ĠR ock
ĠP ol
ĠNi ro
ĠN e
ĠM s
ĠM or
ĠK e
ĠI MAX
ĠH ow
ĠDrag on
ĠD ick
ĠB rown
Ġ ly
Ġ ign
Ġ idi
Ġ ic
Ġ est
x ic
w riter
w ork
ver t
ur ther
up s
ud lin
u it
tra ck
te en
ri an
ree k
re st
rage ous
r um
oy ant
our s
other s
os ition
or ious
ogra p
ney ed
n ox
n am
m iss
m inded
m as
le by
l u
k ins
k en
it ude
it ional
it able
insp ired
in ing
im ag
il ities
il ing
il er
if ied
id ed
ick ing
ic ism
i que
hilar ating
hen s
he ad
gu ise
g irl
et y
et ic
er ry
er o
ed s
e en
dd en
c her
b l
ative ly
ather s
as es
arr ass
ans ki
al ism
ag al
ad y
ac hed
a ving
a ithful
a iled
W ell
S he
P ro
O ff
H ow
E n
D oes
C ont
C on
Ġwonder fully
Ġwill ing
Ġwild ly
Ġw alk
Ġvis cer
Ġvi br
Ġv oice
Ġuni versal
Ġtw ice
Ġtr ick
Ġtr ash
Ġtell s
Ġt aken
Ġstud io
Ġstri king
Ġstren gth
Ġstrange ly
Ġst ir
Ġst ay
Ġst age
Ġspe c
Ġsp orts
Ġsp ace
Ġsound track
Ġsm ile
Ġsl oppy
Ġsl ip
Ġsh ap
Ġser vice
Ġsequ ence
Ġsc ream
Ġs we
Ġs ides
Ġs aid
Ġro ot
Ġres ults
Ġrem ain
Ġreleas e
Ġreg ard
Ġrec yc
Ġre qu
Ġra w
Ġprof ound
Ġpro ceed
Ġpres ents
Ġpoign ant
Ġpo nder
Ġpers pect
Ġperfor mers
Ġparticul ar
Ġp unch
Ġodd ly
Ġob ject
Ġnot ice
Ġnice ly
Ġne cessary
Ġmix ed
Ġmild ly
Ġmes mer
Ġmem bers
Ġme as
Ġm at
Ġlo ad
Ġlarge ly
Ġl ame
Ġj oke
Ġir rit
Ġinto xic
Ġint ended
Ġinsp ired
Ġinc o
Ġimag inative
Ġhaun ting
Ġhapp ens
Ġhack neyed
Ġh yp
Ġh ot
Ġgu y
Ġgrow ing
Ġgener ally
Ġg e
Ġfrustr ating
Ġforget table
Ġfoot age
Ġfin ish
Ġfil led
Ġfail ure
Ġfa ith
Ġf right
Ġf it
Ġf ashion
Ġextreme ly
Ġextraord inary
Ġexplor ation
Ġexc use
Ġexc ess
Ġev il
Ġemph as
Ġemb ra
Ġel o
Ġed iting
Ġdis p
Ġdis aster
Ġdirector ial
Ġdeser ve
Ġdesc ri
Ġdes p
Ġd rug
Ġd azz
Ġcred its
Ġcra ck
Ġcount ry
Ġconv iction
Ġcont ra
Ġcons id
Ġcon nect
Ġcomplic ated
Ġcomp et
Ġcolle ction
Ġclic he
Ġcl os
Ġcl im
Ġch illing
Ġch ance
Ġc ell
Ġc ame
Ġbro ad
Ġbreath t
Ġbeha vi
Ġbal ance
Ġbad ly
Ġb og
Ġb an
Ġb all
Ġatmosp here
Ġappe ars
Ġann oying
Ġadm ira
Ġadd ition
Ġad oles
ĠW il
ĠT ra
ĠSt ory
ĠS oderbergh
ĠS at
ĠR un
ĠR og
ĠQ u
ĠO ne
ĠMart in
ĠLe e
ĠL a
ĠKe vin
ĠH er
ĠF ull
ĠF re
ĠE ng
ĠC ity
ĠC ar
ĠBl ade
ĠB ond
ĠB en
ĠA nd
Ġ identity
Ġ &
yp es
y pe
y am
yam alan
wr ought
we ight
w hel
v y
v ate
v al
ust in
un ct
udd led
ud ic
udic rous
te xt
stand ing
st ein
s es
s chool
ru ction
rop ri
ris on
ri de
redict able
re y
re ts
re hens
re et
ram a
ra y
r ate
r ang
pro du
pl istic
pl ain
ov ich
ors ese
or ks
oph ical
on na
omet hing
olid ay
ol ic
ogra ph
og n
o ices
n ers
n ature
nature d
min ed
ment ary
m b
ly ing
ltim ately
l ong
iz arre
it ions
ist ent
is p
irit ed
ir ing
ing ing
ig g
ific ial
if ting
ier ce
h ost
h icle
gr ound
get ic
g est
g ent
er able
ens ity
ens ions
ens ional
ene ath
em b
ell ow
el i
el d
e gr
e em
com fort
ch ant
c ol
bers hop
b ook
b ling
att ers
att ered
ast s
ashing ton
as p
ar ies
and ing
amp le
akes pe
ain e
ag er
ac ity
a im
Unf ortunately
U ltimately
P o
N ever
I s
H igh
G ood
C om
Ġw ry
Ġw ann
Ġvisual s
Ġvibr ant
Ġve hicle
Ġundeni ably
Ġun for
Ġtr ouble
Ġtime ly
Ġthem e
Ġter ror
Ġtele vision
Ġte nder
Ġtal king
Ġt ough
Ġsymp athy
Ġsuspense ful
Ġsur real
Ġsubst ance
Ġsubject s
Ġsu spect
Ġstrugg le
Ġstruct ure
Ġstandard s
Ġst ret
Ġst ale
Ġsplend id
Ġsp oof
Ġsp ir
Ġsour ce
Ġsmart er
Ġsh am
Ġsc ience
Ġs ave
Ġresp ons
Ġrepet itive
Ġrem ember
Ġrel ent
Ġrefreshing ly
Ġref ere
Ġread ing
Ġpubl ic
Ġprom ising
Ġpro per
Ġpr ice
Ġpot ential
Ġposs ibly
Ġplay ed
Ġpl od
Ġphilos ophical
Ġperspect ive
Ġp ed
Ġp air
Ġover ly
Ġold er
Ġoff ering
Ġob nox
Ġo pt
Ġnow here
Ġn ons
Ġn er
Ġmus ical
Ġmot iv
Ġmay hem
Ġmar g
Ġm il
Ġm ention
Ġm ale
Ġlos es
Ġlong er
Ġlea ving
Ġl ousy
Ġl ing
Ġl ines
Ġl ay
Ġknow ing
Ġint egr
Ġinspir ing
Ġinn oc
Ġing en
Ġinde ed
Ġinclud ing
Ġhorri ble
Ġh oliday
Ġh oles
Ġh olds
Ġh its
Ġh ide
Ġh ate
Ġgra d
Ġglimp se
Ġgirl s
Ġg em
Ġfunn iest
Ġfr ont
Ġfl u
Ġfilm ed
Ġfe at
Ġfar ce
Ġf urther
Ġf u
Ġf ood
Ġexpect ed
Ġess entially
Ġesc ape
Ġenjoy ed
Ġener getic
Ġend e
Ġemb arrass
Ġdream s
Ġdre ary
Ġdist inct
Ġdevelop ment
Ġdevast ating
Ġdesp air
Ġdesign ed
Ġdeft ly
Ġde b
Ġdazz ling
Ġd rown
Ġd read
Ġd om
Ġcru el
Ġcreat ing
Ġconsist ently
Ġcons p
Ġconf using
Ġcond ition
Ġcon ce
Ġcomp assion
Ġcomed ic
Ġche ck
Ġcharism a
Ġcharacter iz
Ġcar ries
Ġc ute
Ġc irc
Ġbel ly
Ġbehavi or
Ġbe at
Ġb udget
Ġb ored
Ġb lend
Ġb izarre
Ġaut hentic
Ġast onishing
Ġass ured
Ġaspect s
Ġaffect ing
Ġad ult
Ġachie ves
ĠWed ding
ĠW ater
ĠW al
ĠSol ondz
ĠSc orsese
ĠS weet
ĠRog er
ĠR yan
ĠR uss
ĠPol anski
ĠP ian
ĠP eter
ĠN o
ĠN ick
ĠM ad
ĠL awrence
ĠJapan ese
ĠJ ul
ĠJ ames
ĠH offman
ĠG os
ĠG old
ĠG l
ĠE l
ĠDick ens
ĠC on
ĠC ol
ĠB ur
ĠB r
ĠA nt
Ġ ram
Ġ Un
vis ed
vi ously
ver ting
ve re
ur t
um ing
um es
ulg ar
ue en
t ogether
st ar
st al
ry ing
ru ck
rom ising
rit ory
ri p
ri fic
ra id
ra ction
quis ite
pp ings
pl o
pl ays
pl ace
ount ry
or ig
orig inal
or ic
om ach
o ly
ne cessary
n an
m o
m id
ly n
leas ant
le ction
iz z
itt ers
itters weet
ir ming
ink ing
in oc
im ensional
ill s
ic ip
ib ilities
i xt
i ant
i able
h our
ght er
f unct
f est
es que
es c
eless ly
e qu
e an
d rama
d imensional
con scious
cl ass
ce ived
c ut
c ra
b ust
b udget
b rid
b ack
av is
ate g
at hetic
as ed
ar io
aps es
an es
am ily
am a
al se
al ma
akespe are
ak er
ag l
act ic
ac hes
ab e
a ves
\* \*
Y et
W he
Unf aithful
St arts
Off ers
I m
Every thing
C l
Beaut ifully
A bout
6 0
Ġwith in
Ġwh om
Ġwe ek
Ġwann abe
Ġw ears
Ġw al
Ġviscer al
Ġvill ain
Ġvar ious
Ġval ues
Ġunint ent
Ġunf olds
Ġun necessary
Ġun imag
Ġun h
Ġun comp
Ġun comfort
Ġtwist ed
Ġturn ed
Ġtra ppings
Ġto ss
Ġthink s
Ġth ird
Ġter ritory
Ġte am
Ġt ight
Ġt ack
Ġsure ly
Ġsuper b
Ġstun ning
Ġstir ring
Ġst omach
Ġst arring
Ġsp ot
Ġsome where
Ġsoci ety
Ġsm ug
Ġsl ick
Ġsl ice
Ġsit com
Ġsim plistic
Ġshow c
Ġsh ad
Ġsens ual
Ġse es
Ġsc ar
Ġs ongs
Ġs ne
Ġs al
Ġreve aling
Ġret read
Ġreson ant
Ġres ist
Ġrep resents
Ġrec ogn
Ġreal ize
Ġre nt
Ġre nd
Ġr ises
Ġpu zz
Ġprotagon ist
Ġprofess ional
Ġpres ence
Ġpredecess or
Ġprec ious
Ġpr in
Ġpos itive
Ġpoet ic
Ġpleas ures
Ġplay ful
Ġperson ality
Ġpat hetic
Ġp us
Ġp en
Ġp an
Ġp al
Ġover whel
Ġoff ice
Ġobserv ations
Ġobnox ious
Ġno ir
Ġne g
Ġn umb
Ġn u
Ġmoviego ers
Ġmesmer izing
Ġme andering
Ġmay be
Ġmark s
Ġmark et
Ġma udlin
Ġm ount
Ġm ill
Ġlist less
Ġli ved
Ġli ber
Ġlevel s
Ġlau ghter
Ġl udicrous
Ġl azy
Ġknow ledge
Ġk ne
Ġjoy ous
Ġj unk
Ġirrit ating
Ġir res
Ġintoxic ating
Ġint ensity
Ġin comp
Ġimp ression
Ġhumor ous
Ġhonest ly
Ġheart warming
Ġh ouse
Ġgrow s
Ġgrad ually
Ġg rown
Ġforg otten
Ġfol ks
Ġfind ing
Ġf rag
Ġexper iment
Ġexper iences
Ġexp ress
Ġex hilarating
Ġex ample
Ġent er
Ġemot ion
Ġeleg ant
Ġdra wn
Ġdown right
Ġdist ingu
Ġdig ital
Ġdeter m
Ġdet ails
Ġdet ailed
Ġdesper ation
Ġdesper ate
Ġdes ire
Ġdem ands
Ġdeli very
Ġde eper
Ġd ish
Ġd are
Ġcra zy
Ġcour se
Ġcont ent
Ġconstruct ed
Ġconcern ed
Ġcomb ination
Ġcl oying
Ġchees y
Ġch ase
Ġcaptiv ating
Ġc ause
Ġbu y
Ġbr ought
Ġbig gest
Ġb ite
Ġb and
Ġb aff
Ġas ide
Ġart ificial
Ġant i
Ġamb ig
Ġam used
Ġam azing
Ġactress es
Ġachieve ment
ĠWh at
ĠW ashington
ĠT ay
ĠSt ar
ĠS um
ĠS outh
ĠS or
ĠS on
ĠR o
ĠR en
ĠPark er
ĠO ut
ĠN ot
ĠL il
ĠK ore
ĠJ ason
ĠIt alian
ĠIr an
ĠH aw
ĠG reek
ĠF ire
ĠEng lish
ĠD u
ĠD V
ĠChrist mas
ĠChrist ian
ĠC ra
ĠBar ry
ĠBar bershop
ĠA f
Ġ Unfaithful
Ġ This
v ard
v ag
urn ing
urd ay
um an
ug ar
ud es
u ity
u able
the less
th r
te nds
t op
t ly
st ers
se e
row ing
ro pe
ro c
ro ad
reas ingly
re nd
re k
ra ilty
r un
r atch
r at
pl aced
per fect
pend ent
p s
p leas
ost er
os es
op kins
ook ing
oo per
on el
ol ation
ol a
oint ed
ograp hed
oc aust
ne ider
n ot
n ic
m n
m art
ll ess
le vant
le ts
ive red
ival ent
istic ally
ir th
ines e
ind ulgent
in er
im sy
ign ity
iet nam
i vid
i ans
h am
f raid
ep ing
ent ric
em ark
em an
el ie
ed o
e ur
e ff
de em
dd ie
d ie
d er
cult ure
char ine
b it
atic ally
at isf
ast ing
as ive
arn ed
ar ad
ant a
ang es
ang er
an ity
an et
an c
all mark
ak y
ain ed
ag o
ag ers
af e
Y es
Y a
Wh y
T r
S c
R arely
Q u
Pl ays
P er
O ver
O f
N e
M y
I nt
F rom
An other
A meric
Ġyou th
Ġwit ness
Ġwh atever
Ġwant ed
Ġwa it
Ġvivid ly
Ġviol ent
Ġv ap
Ġv amp
Ġus ing
Ġup d
Ġunus ual
Ġunp leasant
Ġunlike ly
Ġunf ocused
Ġunderstand ing
Ġuncomp romising
Ġun inspired
Ġun in
Ġtri f
Ġtrans p
Ġtrad ition
Ġtra vel
Ġtou ches
Ġtot ally
Ġtot al
Ġtim ing
Ġtal ents
Ġt ype
Ġt rem
Ġt our
Ġt ong
Ġsy mb
Ġsupp orting
Ġsuper ior
Ġsubtle ty
Ġsu it
Ġstun ts
Ġstereot ypes
Ġst uck
Ġspook y
Ġsp y
Ġsp ell
Ġsom ber
Ġsm o
Ġsign ific
Ġser ves
Ġsequ els
Ġsentiment ality
Ġsens ational
Ġscreenw riters
Ġscreenw riter
Ġsac charine
Ġs ol
Ġs ill
Ġs il
Ġs ight
Ġrhyth ms
Ġrevel atory
Ġrep ort
Ġremind s
Ġrel ies
Ġrel atively
Ġrefere nces
Ġre pe
Ġprodu ced
Ġproceed ings
Ġpro ve
Ġpre ss
Ġpre ach
Ġportra yal
Ġpop ul
Ġpo em
Ġplot ting
Ġperson a
Ġpat ience
Ġp aced
Ġout rageous
Ġoriginal ity
Ġord inary
Ġon to
Ġoff beat
Ġn ation
Ġn asty
Ġn a
Ġmy th
Ġmovie making
Ġmiss ed
Ġman age
Ġmag n
Ġm ult
Ġm ature
Ġm al
Ġm akers
Ġly rical
Ġlog ic
Ġlo c
Ġli es
Ġle g
Ġlaugh ing
Ġl ump
Ġl uck
Ġl onel
Ġke y
Ġintent ions
Ġint ric
Ġint ern
Ġins ane
Ġinn ov
Ġinco herent
Ġinc reasingly
Ġin h
Ġimpro ve
Ġimag ery
Ġill ustr
Ġhum our
Ġhom age
Ġheartb reaking
Ġheart s
Ġhands ome
Ġgun s
Ġgr itty
Ġgl oss
Ġgif ted
Ġgi ving
Ġgi ant
Ġgang ster
Ġg ar
Ġflash y
Ġfl o
Ġfl air
Ġfin ale
Ġfight ing
Ġfair y
Ġf ish
Ġf ate
Ġf at
Ġf ake
Ġf ab
Ġexpl os
Ġexpl ore
Ġex ceed
Ġer otic
Ġenth r
Ġend less
Ġen vi
Ġen orm
Ġele ment
Ġeas ier
Ġe cc
Ġe arly
Ġdirector s
Ġdiffere nce
Ġdeter mined
Ġdesper ately
Ġdep iction
Ġdelight fully
Ġdel ivered
Ġd ys
Ġd ud
Ġd ub
Ġd ignity
Ġcur rent
Ġcris p
Ġcra p
Ġcr ude
Ġcr ass
Ġcou nter
Ġcont ro
Ġcomm on
Ġcom mentary
Ġcl ot
Ġcl arity
Ġcharm s
Ġchar mer
Ġchallen ging
Ġch a
Ġcap er
Ġcand y
Ġc aut
Ġbl ock
Ġbit ter
Ġbeg inning
Ġback ground
Ġb unch
Ġb ul
Ġb uff
Ġb other
Ġb ord
Ġb oo
Ġb omb
Ġb le
Ġb ittersweet
Ġb eneath
Ġb en
Ġb ag
Ġat h
Ġas p
Ġas ks
Ġappe ar
Ġansw ers
Ġamount s
Ġal though
Ġal leg
Ġadoles cent
Ġadmira ble
Ġadm ire
Ġad equ
Ġact s
Ġaccompl ished
Ġaccess ible
Ġacc ur
Ġacc ount
Ġa we
Ġa verage
Ġa uth
Ġa fraid
ĠY u
ĠY a
ĠWil de
ĠV ietnam
ĠThe re
ĠTh at
ĠShow time
ĠSe agal
ĠSe a
ĠSat urday
ĠS ugar
ĠS anta
ĠR ed
ĠP ro
ĠP oke
ĠMon ty
ĠMan h
ĠM aster
ĠKiss inger
ĠK ids
ĠK id
ĠJ o
ĠI mp
ĠHol ocaust
ĠHe aven
ĠHar vard
ĠH ot
ĠH ay
ĠGirl s
ĠG ood
ĠFrid ay
ĠFr ank
ĠF estival
ĠF ears
ĠE very
ĠE ast
ĠD ead
ĠCh ris
ĠCh inese
ĠBro om
ĠBe ing
ĠB oys
ĠB ears
ĠB art
ĠB all
ĠB ad
ĠA ss
ĠA s
ĠA ng
Ġ19 8
Ġ19 5
Ġ1 1
Ġ $
yn am
y l
vin cing
ven ge
vant age
v ans
ux edo
ut o
ut ions
us ive
us b
usb and
urp ris
ura ble
um my
um in
u rid
tra ction
th in
tend ed
st yle
st opp
st ated
se c
ropri ate
rid ge
ri vate
ri um
ri age
ressive ly
ren ching
rehens ible
ree zy
reas ure
reak s
ra pped
r ont
r atic
qu il
pl ifting
p et
p an
ow nt
ownt own
ound ing
ort on
or i
oo chy
om ination
oc us
o nder
ne ver
n al
li kable
l or
l ooking
l ines
l ig
k ind
k a
j insky
ixt ure
is ive
is ion
is her
irth day
ion ary
in ist
ims ical
im m
il iar
ign i
ig ma
iet y
ick en
ic ed
i ently
i ation
het to
h ash
g ree
g or
g ment
g el
funct ional
form ation
f unny
f man
f ire
f er
et ter
est ic
er ving
er ved
er man
ense ly
en ingly
em ember
el ow
el ing
cra fted
com es
com edy
ck s
ch an
c le
c iful
bo ard
ble d
b oy
b or
b les
ay ne
au fman
att an
ass in
as y
ar ching
app ing
ap ur
ang le
ang erous
and ers
ams ay
am iliar
all ace
agl om
ag ine
act ed
ab rol
ab ashed
ab ama
a a
W orth
W ill
W here
The se
T er
St r
S uff
S u
S ee
Of ten
O nce
N one
H ere
F ull
D o
D is
B r
Ġy es
Ġwork ed
Ġwonder ing
Ġwind s
Ġwind ow
Ġwh imsical
Ġwe b
Ġwar ning
Ġwa iting
Ġw ood
Ġw ife
Ġw ide
Ġw ent
Ġvap id
Ġv ulgar
Ġv s
Ġv ague
Ġunp redictable
Ġunimag inative
Ġundeni able
Ġuncon vincing
Ġun original
Ġun abashed
Ġtrif le
Ġtransce nd
Ġtrad itional
Ġtong ue
Ġto ler
Ġtick et
Ġtheat rical
Ġtheat re
Ġtheat ers
Ġth ous
Ġtest ament
Ġteen agers
Ġte acher
Ġtal k
Ġt ort
Ġt empt
Ġt asty
Ġt ap
Ġsuff ering
Ġsubst it
Ġsu n
Ġstri ke
Ġstra in
Ġstr ict
Ġstart ling
Ġstand s
Ġst ro
Ġst reet
Ġst ore
Ġst op
Ġst ock
Ġst aged
Ġspir its
Ġspectac ular
Ġspe nd
Ġsp ring
Ġsp ite
Ġsp ent
Ġsou lless
Ġsoph om
Ġso ber
Ġsmart ly
Ġslow ly
Ġsle ep
Ġsign s
Ġshock s
Ġsett les
Ġse par
Ġscreenw riting
Ġsch m
Ġscen ario
Ġsc rew
Ġsat ir
Ġsad ness
Ġs ong
Ġs ink
Ġs em
Ġs an
Ġs ag
Ġrom p
Ġro w
Ġro les
Ġrhyth m
Ġreward ing
Ġreve al
Ġret ro
Ġrepe ated
Ġrend ered
Ġrem ote
Ġrelent lessly
Ġredu nd
Ġreal ized
Ġre sem
Ġre placed
Ġre deem
Ġra unch
Ġr ush
Ġr ough
Ġr ise
Ġpull s
Ġpul p
Ġpsych ology
Ġpro g
Ġpret ension
Ġpre tends
Ġpot entially
Ġpoign ancy
Ġper verse
Ġper cept
Ġped est
Ġpe cul
Ġpart icip
Ġpar ody
Ġpain t
Ġp ur
Ġp rison
Ġp ity
Ġp ic
Ġover wrought
Ġout side
Ġon screen
Ġob sc
Ġo de
Ġnever theless
Ġner ve
Ġne cess
Ġmist ake
Ġmind s
Ġmin imal
Ġmess ages
Ġmel anch
Ġme chan
Ġmaster ful
Ġmarvel ous
Ġmain ly
Ġm outh
Ġm ixture
Ġm ira
Ġm ent
Ġm ass
Ġlook ed
Ġlonel iness
Ġlo ves
Ġlo ved
Ġliter ary
Ġlif eless
Ġless on
Ġlaugh able
Ġlar ger
Ġland sc
Ġl un
Ġl oose
Ġl imp
Ġkn ock
Ġj ol
Ġirres ist
Ġir ony
Ġintro du
Ġintellect ual
Ġinsight s
Ġinnoc ence
Ġinf lu
Ġinex plic
Ġine v
Ġinc on
Ġin ner
Ġin herent
Ġimpro b
Ġim pl
Ġic on
Ġhy brid
Ġhorri fying
Ġhope ful
Ġhop ing
Ġhe ard
Ġhe al
Ġha ir
Ġh ook
Ġh ig
Ġgu ilt
Ġgu arant
Ġgra phic
Ġgl or
Ġgen ial
Ġg ro
Ġg ames
Ġforg ive
Ġfl uff
Ġfeature s
Ġfant astic
Ġfan ciful
Ġf ierce
Ġf alse
Ġextra vag
Ġexplo itative
Ġexplo itation
Ġexpect ations
Ġexpect ation
Ġexist ential
Ġexec uted
Ġexcept ional
Ġex quisite
Ġex otic
Ġev ocative
Ġest abl
Ġequ ivalent
Ġenvi ron
Ġenthusi asm
Ġenthr alling
Ġende avor
Ġencou nter
Ġen s
Ġemp athy
Ġemer ge
Ġem pl
Ġelo quent
Ġeffort s
Ġed ited
Ġecc entric
Ġdys functional
Ġdrug s
Ġdrag s
Ġdist ur
Ġdist ance
Ġdisappoint ing
Ġdisappoint ed
Ġdis play
Ġdis miss
Ġdi verting
Ġdep art
Ġdelic ately
Ġde gree
Ġde aling
Ġdam ned
Ġdam n
Ġd ynam
Ġd ut
Ġd ro
Ġd a
Ġcyn ical
Ġcut ting
Ġcred ibility
Ġcreat ivity
Ġcra ft
Ġcou rage
Ġconvin ced
Ġcontro vers
Ġcontra dict
Ġcontin ues
Ġcon j
Ġcomp aris
Ġcomm itted
Ġcom plain
Ġcolle ct
Ġclum sy
Ġclum s
Ġclic hed
Ġcharacteriz ations
Ġch uck
Ġch oppy
Ġch illy
Ġch ann
Ġcent ury
Ġcaut ionary
Ġcare s
Ġcapt ure
Ġcap able
Ġc ry
Ġc ity
Ġc ateg
Ġc as
Ġbu oyant
Ġbro ken
Ġbreatht aking
Ġbo x
Ġbit ing
Ġbig ger
Ġben ef
Ġbas ic
Ġban al
Ġb reezy
Ġb ound
Ġb its
Ġb ed
Ġaw ard
Ġattract ive
Ġath let
Ġas k
Ġar ch
Ġapparent ly
Ġadm it
Ġadd s
Ġa ims
ĠW oody
ĠW oo
ĠW omen
ĠW ith
ĠW allace
ĠV in
ĠU nder
ĠTr ouble
ĠT uxedo
ĠSw im
ĠSt ock
ĠSp ider
ĠSm oochy
ĠSh yamalan
ĠSh akespeare
ĠSec ret
ĠSch neider
ĠSc ratch
ĠS ade
ĠQ ueen
ĠPoke mon
ĠPian ist
ĠPh il
ĠP owers
ĠP ow
ĠP e
ĠP aul
ĠO f
ĠNick leby
ĠNichol as
ĠN ight
ĠMart ha
ĠManh attan
ĠMad onna
ĠL u
ĠL ittle
ĠL ast
ĠK line
ĠJ im
ĠJ ess
ĠIran ian
ĠInd ian
ĠH opkins
ĠGu y
ĠGos ling
ĠG ang
ĠF railty
ĠF or
ĠF ilm
ĠE vans
ĠE st
ĠE nding
ĠE ddie
ĠDam ned
ĠD ream
ĠD en
ĠCh ar
ĠCh abrol
ĠC ountry
ĠC om
ĠC at
ĠBl ue
ĠBl air
ĠBl ack
ĠBen igni
ĠB y
ĠB urns
ĠB er
ĠAt traction
ĠAr n
ĠAr gent
ĠAmeric ans
ĠAl abama
ĠAf ric
ĠA b
Ġ19 9
Ġ1 5
Ġ1 2
Ġ vers
Ġ \/
Ġ 7
z og
z ed
w orks
vin o
vil le
vide o
vers ity
vers ations
ve lyn
v ity
v ance
ust ed
us ions
us ic
us hing
us al
ur ous
ur ance
up per
upper t
und ament
umb o
um ul
um or
ult ane
ultane ously
uls ive
ugg ish
ud o
ud i
ud ge
u y
u gh
u f
u ed
u ation
t own
t oo
t ale
t al
stal g
st op
sp irited
sequ ential
se y
se udo
sc ale
s nan
s ai
ru pt
ru ci
ri dden
rew d
ren al
reme ly
re g
rag ing
ra ble
r ating
r ath
r ated
que e
pt on
plo itation
pe red
p ower
p aced
ow ling
out s
ost erous
os c
ori ented
or p
opp ed
ope z
op ic
op hy
oo by
om er
olog ically
oll ows
old i
oldi ers
oke y
ograph ical
og d
ogd an
od rig
ob bled
o ved
o ct
not ch
nder ing
nd om
n otic
mid t
m ore
m ill
m en
m ember
lin ching
less ness
l s
l ow
l ength
kn own
j ointed
j erk
ivid ual
iv ine
itch ie
itch c
itchc ock
it z
it or
it es
it ched
ist ers
is ually
is o
is co
ir m
ip es
int age
ing ers
ine e
in itely
in is
in ated
im ony
im er
im en
ile t
il ted
il es
ign ant
ific ent
ific ation
if ying
if ice
idd en
id ing
id el
ick y
ic y
ic ing
ic ago
ic a
ib rium
i y
i pp
i pe
i ated
i ance
hen omen
he st
he red
h u
h ouse
h ip
gra de
go ing
gh ai
gg y
g id
g ar
g an
g ain
for ward
for d
f ty
f ree
f alls
ett es
ess ions
erson al
erest ing
er ie
er ball
en ry
empt ion
emb ered
ell er
ed ies
ect ive
e ve
e ks
e ed
d est
con om
con ceived
c il
b al
b ad
az ingly
az e
aut y
aught er
ature s
ate au
at ur
at ors
as k
art ley
art ial
arre l
ar at
ap able
ant ial
an o
an ny
an ghai
aly ze
allow een
al le
ak i
ain ing
ad em
ad a
ack ed
ac qu
abor ate
ab y
a un
X X
Whe ther
V isually
V ery
T wo
T ime
T V
Suff ers
S uch
S eem
S ch
S ad
N ic
May be
Im agine
H ollywood
F l
D eli
C ould
C an
B o
Any one
Ġz one
Ġyoung er
Ġyear ning
Ġwin ner
Ġwh olly
Ġwh ite
Ġwalk ed
Ġw ound
Ġw ick
Ġw ear
Ġw all
Ġvamp ire
Ġv ital
Ġv intage
Ġv ent
Ġur ge
Ġunintent ionally
Ġunfor ced
Ġunf ortunately
Ġunf linching
Ġunder stated
Ġunder cut
Ġunc ertain
Ġunc anny
Ġunb elie
Ġunb ear
Ġun w
Ġun likable
Ġturn ing
Ġtrem end
Ġtrans l
Ġtrag edies
Ġtrad emark
Ġtra iler
Ġtr ite
Ġthrow s
Ġterri fying
Ġter m
Ġteen age
Ġtechn ical
Ġte nd
Ġte eth
Ġte ens
Ġt re
Ġt iny
Ġt ears
Ġsymp athetic
Ġsweet ly
Ġsw allow
Ġsub pl
Ġsub l
Ġsub culture
Ġsu ited
Ġstun t
Ġstr ing
Ġstart ed
Ġst ays
Ġsqu are
Ġsp r
Ġsp in
Ġsoul s
Ġsoul ful
Ġso le
Ġsket chy
Ġsket ch
Ġsim ilar
Ġsill iness
Ġshould ers
Ġshoot ing
Ġshock ing
Ġsh ake
Ġser ve
Ġsee king
Ġse vere
Ġse nd
Ġse arch
Ġschm alt
Ġsc r
Ġsc are
Ġsan ct
Ġsac rific
Ġs or
Ġs ke
Ġroot ing
Ġreward s
Ġret urns
Ġret urn
Ġres olutely
Ġrequ ired
Ġrep ut
Ġreleas ed
Ġref lect
Ġred emption
Ġrecyc led
Ġreason ably
Ġre venge
Ġra ndom
Ġra ce
Ġr ote
Ġquir ks
Ġqu al
Ġproblem atic
Ġprim arily
Ġprep osterous
Ġpreach y
Ġpre d
Ġportra y
Ġpop ular
Ġpol ice
Ġplot ted
Ġplod ding
Ġpleas ing
Ġplay ers
Ġphot ographed
Ġph ys
Ġper haps
Ġpecul iar
Ġpast iche
Ġpassion ate
Ġpar able
Ġpack ed
Ġp seudo
Ġp orn
Ġp itch
Ġp henomen
Ġp ale
Ġp aid
Ġop ening
Ġodd s
Ġoccas ional
Ġob viously
Ġob lig
Ġo d
Ġnot ion
Ġnot e
Ġno stalg
Ġnecess arily
Ġne o
Ġne at
Ġn omination
Ġn ational
Ġmy self
Ġmove ments
Ġmor ality
Ġmo ves
Ġmer it
Ġmeas ure
Ġmat inee
Ġmaster fully
Ġmaint ains
Ġmagn ificent
Ġm ur
Ġm isf
Ġm as
Ġm artial
Ġm ad
Ġlos ing
Ġlive ly
Ġling ering
Ġlim ited
Ġlight weight
Ġli b
Ġlet ting
Ġlead en
Ġle nds
Ġle arn
Ġlau g
Ġlangu age
Ġl ush
Ġl urid
Ġkne w
Ġkid die
Ġkeep ing
Ġj o
Ġir on
Ġinv est
Ġintric ate
Ġintegr ity
Ġinst inct
Ġinst antly
Ġinspir ation
Ġingen ious
Ġinde pendent
Ġind ividual
Ġin ane
Ġimprob able
Ġim age
Ġide al
Ġhy pe
Ġhuge ly
Ġhelp s
Ġhar rowing
Ġhalf way
Ġh oot
Ġh ollow
Ġh arm
Ġgrand eur
Ġgra de
Ġgr ind
Ġgl ory
Ġge nder
Ġg ently
Ġfrustr ation
Ġfriend s
Ġfresh ness
Ġfr ank
Ġforce ful
Ġfor mer
Ġfollow ing
Ġflu id
Ġfl es
Ġfill s
Ġfight s
Ġfig ures
Ġfeat uring
Ġfe ars
Ġfantas ies
Ġfam ous
Ġf ou
Ġf ool
Ġf izz
Ġf if
Ġf er
Ġf aster
Ġf ac
Ġf able
Ġex tended
Ġex agger
Ġeth nic
Ġess ence
Ġescap ism
Ġequ al
Ġenviron ment
Ġenthusi astic
Ġengag ed
Ġeng age
Ġend lessly
Ġen h
Ġed uc
Ġe vid
Ġe t
Ġe ager
Ġdri ve
Ġdread ful
Ġdom estic
Ġdist ract
Ġdisp os
Ġdisco very
Ġdisco ver
Ġdis gu
Ġdirect s
Ġdi version
Ġdevelop ed
Ġdeterm ination
Ġdescri be
Ġdem anding
Ġdeliver ing
Ġdelight s
Ġdelic ious
Ġdeli ber
Ġdecept ively
Ġdead pan
Ġdead ly
Ġd ying
Ġd ue
Ġd rop
Ġd ie
Ġcuri ously
Ġcuri ous
Ġcuri osity
Ġcred ible
Ġcre ation
Ġcor ny
Ġcop y
Ġconvin ce
Ġcontrovers y
Ġcont rol
Ġconst ant
Ġconsp ira
Ġconf ident
Ġconc ert
Ġcon vey
Ġcon ven
Ġcon text
Ġcon scious
Ġcomplex ity
Ġcomparis on
Ġcomfort able
Ġcomb ined
Ġcoll abor
Ġcol ors
Ġclums ily
Ġclever ly
Ġcl in
Ġchild hood
Ġch oices
Ġch anges
Ġcelebr ates
Ġcateg ory
Ġcas ual
Ġcar ry
Ġcar ried
Ġcap acity
Ġc orn
Ġc iv
Ġc aught
Ġc atch
Ġc ard
Ġbur st
Ġbul lets
Ġbu ilt
Ġbrut al
Ġbring ing
Ġbrilli antly
Ġbreak s
Ġbod ies
Ġbl ow
Ġbl ast
Ġbl ank
Ġbel t
Ġbel ongs
Ġbeh old
Ġbecom ing
Ġbaff ling
Ġb ody
Ġb ase
Ġatt raction
Ġatt itude
Ġart s
Ġart ists
Ġart ifice
Ġarri ves
Ġar rest
Ġappreci ate
Ġamb ition
Ġaltern ative
Ġaim ed
Ġag g
Ġad vantage
Ġach ingly
Ġabsurd ity
ĠX XX
ĠWh ite
ĠWest ern
ĠW itch
ĠW el
ĠW at
ĠW alk
ĠT un
ĠSt one
ĠSn ow
ĠSec rets
ĠSch midt
ĠS uch
ĠS pe
ĠS il
ĠS ie
ĠS he
ĠS ex
ĠS ara
ĠS ar
ĠRuss ian
ĠRe volution
ĠR ead
ĠPhil ip
ĠP rop
ĠP inoc
ĠO li
ĠNichol son
ĠNi jinsky
ĠN ever
ĠM en
ĠM el
ĠM e
ĠM ac
ĠLe gged
ĠL opez
ĠL ong
ĠL ips
ĠL ike
ĠL and
ĠKid man
ĠK os
ĠK ong
ĠK aufman
ĠK ah
ĠJack ie
ĠJ on
ĠJ ew
ĠJ aglom
ĠIs ra
ĠHow ard
ĠHer zog
ĠH un
ĠH ours
ĠH ong
ĠH ill
ĠH alloween
ĠGod ard
ĠG ra
ĠG erman
ĠG ener
ĠFr ance
ĠFat al
ĠF reaks
ĠF isher
ĠEst her
ĠE vil
ĠE d
ĠDis guise
ĠDe eds
ĠDV D
ĠD on
ĠCol umb
ĠCh o
ĠCh ina
ĠCar vey
ĠBroom field
ĠBe auty
ĠB ride
ĠArn old
ĠAfric an
ĠAd vent
ĠAd am
Ġ5 1
Ġ5 0
Ġ2 1
z zy
y r
w renching
w orld
w one
w itted
w ith
w ing
w in
w ell
w an
vol ves
view s
vers ive
v all
ut t
ust ing
urpris ingly
ur ban
ump s
umb les
umb ing
um m
ul ner
ul ate
ul arly
uf act
ufact ured
udd y
ud up
u rope
u el
u ces
u cc
u art
th ony
th an
ted ly
t es
t alk
talk ers
sy ch
stopp ers
st em
sh all
sequ ences
ruck he
ron ic
rid an
rid a
ri ff
ret ty
read s
re he
r ors
r ity
quil ibrium
qu iet
plic ity
pl ess
pe cc
pecc able
p rise
ower ment
ow ell
our ne
oub tedly
ou gl
ou ge
oth man
ot ting
ot o
ost or
ort ions
ort ant
orrow s
or king
opp ing
oot s
oop ing
ont ane
ont al
ond uct
omet imes
om n
omn ia
oll erball
ok ed
oh mer
ogra phic
ogdan ovich
og y
off ensive
od ing
od ge
od e
ock stoppers
ob i
ob ack
o oney
o ch
ner ving
n o
n atural
m pton
m od
m itt
mitt ently
m atic
m are
m ar
ly mpton
ll ing
le te
le e
le an
l uster
l ock
l f
k h
j ud
iz ation
it ality
it a
ister hood
is se
int ention
intention ed
ink er
inis cent
inem a
ind u
ind talkers
imp s
im one
im mer
im inal
ils on
il arly
ign s
igh bor
ig o
if er
ies el
ien ced
idel ity
idd y
id ence
ic her
ic hel
ic ation
ic an
ib al
i ro
i antly
i ac
he w
he rence
he less
h mer
h ill
girl s
gh an
gg io
gg er
get table
ge nd
for ms
f riend
f illing
f ig
f an
f amiliar
f aced
f ace
ew is
et heless
est yle
erv ative
ere ll
er ious
ent er
ens ical
end igo
en stein
d rop
d o
d ep
cul ation
con t
ci pl
ci a
ch io
cer ity
c ip
c ingly
c ard
c adem
cadem y
ball s
b ound
b orn
b age
aw son
aw are
aust ro
atter ing
ath an
ast ily
as hes
arl ier
arant ino
arad iso
ar ian
ap ing
ann es
an z
an ing
al ia
ain t
act er
ac ino
ac he
ac c
ab it
a ved
a us
a ude
a ud
a que
With out
Wh atever
U ne
T w
Str ange
Ste ven
Sp ielberg
S weet
S ol
S mart
S imp
R ob
R et
Po ignant
Per haps
P re
Man ages
M e
M c
M ar
M akes
L ess
L acks
K ids
J ack
High ly
H ard
G reat
G rath
F unny
F irst
F ails
D owell
D irect
D ef
Con f
Com es
C r
C omp
B ute
B ar
Americ an
Al tern
A r
1 9
Ġz ero
Ġwond ers
Ġweird ness
Ġwe ep
Ġwant ing
Ġw rapped
Ġw ake
Ġvis it
Ġvide os
Ġvict ims
Ġvict im
Ġver ve
Ġver bal
Ġvar iety
Ġv ol
Ġv itality
Ġv ast
Ġunus ually
Ġunre l
Ġunexpect edly
Ġunderstand s
Ġuncomfort able
Ġunbelie vable
Ġunabashed ly
Ġun nerving
Ġun comm
Ġu plifting
Ġtri ed
Ġtremend ous
Ġtreat s
Ġtransce nds
Ġtra v
Ġtr ust
Ġtou ched
Ġtop ic
Ġto ol
Ġtim eless
Ġthrill ers
Ġthem atic
Ġth reat
Ġth ick
Ġtext book
Ġterri bly
Ġtechn ology
Ġte nds
Ġte leg
Ġtaste ful
Ġtal ky
Ġtal es
Ġt un
Ġt en
Ġsy stem
Ġsweet ness
Ġswe eping
Ġsw ord
Ġsurround ing
Ġsuper natural
Ġsum m
Ġsubt it
Ġsubstit ute
Ġsubst antial
Ġsubpl ots
Ġsubl ime
Ġsub versive
Ġsu s
Ġsu p
Ġsu dden
Ġstyl istic
Ġstrict ly
Ġstri kes
Ġstraight forward
Ġstr ang
Ġst ilted
Ġst icks
Ġsqu anders
Ġspec if
Ġspe aking
Ġspe ak
Ġspark ling
Ġsp ontane
Ġsp are
Ġsor ry
Ġsophom oric
Ġsome body
Ġsolid ly
Ġsober ing
Ġso ft
Ġsle eve
Ġsl uggish
Ġsl o
Ġsl ack
Ġsk ip
Ġsing ing
Ġsin cerity
Ġsim ultaneously
Ġsim plicity
Ġsim ilarly
Ġsil ver
Ġshowc ase
Ġshow ing
Ġshe lf
Ġshap eless
Ġsham elessly
Ġshad ow
Ġsh rewd
Ġsh ines
Ġsem i
Ġseem ingly
Ġsee k
Ġsecond s
Ġscreen ing
Ġscream ing
Ġscen ery
Ġsc attered
Ġsay ing
Ġsav vy
Ġsatir ical
Ġsag a
Ġsad ly
Ġs quee
Ġs ly
Ġs ix
Ġs inks
Ġs ell
Ġs ed
Ġs ane
Ġs ake
Ġrow dy
Ġrich ly
Ġri val
Ġrespons ible
Ġreson ance
Ġres our
Ġreput ation
Ġremind er
Ġrem embered
Ġrel ig
Ġrel ief
Ġref usal
Ġredund ant
Ġrec o
Ġre levant
Ġre ject
Ġre hash
Ġre ass
Ġre action
Ġrap id
Ġra ised
Ġra cial
Ġr ude
Ġr u
Ġr ound
Ġr icher
Ġr anks
Ġr ank
Ġpull ing
Ġprovid ing
Ġprop ortions
Ġpro spect
Ġpret ensions
Ġpres ented
Ġpredict ably
Ġpredecess ors
Ġpre vent
Ġpre cise
Ġpract ically
Ġpr oud
Ġpot ent
Ġposs ess
Ġportra ys
Ġponder ous
Ġpolit ically
Ġphilos ophy
Ġpersonal ities
Ġperfor med
Ġpedest rian
Ġpe ek
Ġpath ology
Ġpart ners
Ġpain ts
Ġp owers
Ġp ays
Ġp ark
Ġp ants
Ġp age
Ġover long
Ġout standing
Ġor gan
Ġopen ness
Ġop aque
Ġobsess ion
Ġobserv ation
Ġobserv ant
Ġo o
Ġnor m
Ġnons ensical
Ġnons ense
Ġnon etheless
Ġno ise
Ġno ble
Ġnew com
Ġne ighbor
Ġn et
Ġn arc
Ġmur ky
Ġmon ot
Ġmis ery
Ġminimal ist
Ġment al
Ġmedioc rity
Ġmechan ical
Ġmeas ured
Ġmeaning ful
Ġme at
Ġmarg inal
Ġman ufactured
Ġmach ine
Ġm uddled
Ġm atters
Ġlong ing
Ġloc ations
Ġli kable
Ġle gend
Ġle ct
Ġlay ers
Ġlack luster
Ġlab ored
Ġl ust
Ġl aw
Ġl atter
Ġl aid
Ġl abor
Ġkn own
Ġkind a
Ġk ill
Ġjust ify
Ġj umble
Ġj eal
Ġirresist ible
Ġir onic
Ġintim acy
Ġintern ational
Ġinter p
Ġinter mittently
Ġinsult ing
Ġinst all
Ġinspir ational
Ġinsp ire
Ġinsane ly
Ġinh abit
Ġinev itable
Ġincon sequential
Ġincomp rehensible
Ġinc ons
Ġinc isive
Ġin sec
Ġin offensive
Ġin ject
Ġin esc
Ġimp ressed
Ġimp ress
Ġimmedi ate
Ġimm ensely
Ġim peccable
Ġim itation
Ġill umin
Ġhyp notic
Ġhy per
Ġhumor less
Ġhop ed
Ġhonest y
Ġhero ine
Ġhero es
Ġher self
Ġhe ld
Ġhe ar
Ġhar sh
Ġhapp y
Ġhapp ened
Ġhand led
Ġh usband
Ġh ost
Ġh itting
Ġh astily
Ġguess ing
Ġgrace ful
Ġgra b
Ġgr at
Ġgr asp
Ġgloss y
Ġgl um
Ġgl ass
Ġgener ous
Ġgener ate
Ġgar bage
Ġg ory
Ġg ore
Ġg iddy
Ġg host
Ġfright ening
Ġfou l
Ġfor ces
Ġfl ow
Ġfl our
Ġfl avor
Ġfine ly
Ġfin est
Ġfil ling
Ġfavor ite
Ġfan cy
Ġfamil ies
Ġfamil ial
Ġfact or
Ġfa ithful
Ġf ro
Ġf ollows
Ġf ly
Ġf ix
Ġf estival
Ġf ellow
Ġf ather
Ġexp ression
Ġexp osition
Ġexist ence
Ġexcept ionally
Ġexceed ingly
Ġexc ruci
Ġexagger ated
Ġeven ing
Ġepisod es
Ġenter prise
Ġend ure
Ġencou raging
Ġemp owerment
Ġembarrass ment
Ġele v
Ġele ct
Ġel aborate
Ġed gy
Ġearnest ness
Ġe conom
Ġe at
Ġe arth
Ġe arn
Ġe arlier
Ġe ar
Ġdraw s
Ġdraw ing
Ġdramatic ally
Ġdram at
Ġdown beat
Ġdo ses
Ġdo pe
Ġdist aste
Ġdispos able
Ġdismiss ed
Ġdisappoint ment
Ġdis quiet
Ġdis jointed
Ġdis guise
Ġdis g
Ġdirect ing
Ġdev ices
Ġdest ination
Ġdep ict
Ġden ial
Ġdemonstr ates
Ġdem ented
Ġda ily
Ġd ouble
Ġd ancing
Ġd ance
Ġcult ures
Ġcru cial
Ġcrit ics
Ġcor ner
Ġconven ient
Ġcontradict ory
Ġcontem pl
Ġconsid ered
Ġconscious ness
Ġcons ervative
Ġcomplic ations
Ġcompet ent
Ġcomp rom
Ġco ver
Ġco hes
Ġco herent
Ġclot hes
Ġclos er
Ġclim actic
Ġcl austro
Ġcharm less
Ġcharism atic
Ġchann el
Ġcha otic
Ġch ore
Ġch ord
Ġch ops
Ġch ills
Ġch ief
Ġch ases
Ġch anging
Ġcelebr ation
Ġcat ches
Ġcal cul
Ġbus y
Ġbuild s
Ġbuild ing
Ġbuff s
Ġbu ried
Ġbrut ally
Ġbro oding
Ġbra nd
Ġbr others
Ġbl at
Ġbl ame
Ġbi opic
Ġbel ow
Ġbe ars
Ġback drop
Ġb ull
Ġb ri
Ġb ou
Ġb ot
Ġb es
Ġb ang
Ġauth ority
Ġastonishing ly
Ġart istic
Ġart icul
Ġarri ve
Ġar d
Ġapp ropriate
Ġapp alling
Ġany body
Ġansw er
Ġan om
Ġan gu
Ġambig uous
Ġaltern ately
Ġalleg ory
Ġalien ation
Ġal together
Ġaim less
Ġag ing
Ġadvent urous
Ġad vert
Ġad renal
Ġacc ents
Ġacc ent
Ġab andon
Ġa head
Ġa est
ĠZ one
ĠW indtalkers
ĠW ilson
ĠW ill
ĠW ars
ĠW arm
ĠVin cent
ĠThe y
ĠTay lor
ĠT wo
ĠT uck
ĠT ri
ĠT oback
ĠT o
ĠStory telling
ĠSt uart
ĠSn ipes
ĠSc ott
ĠSar andon
ĠS oldiers
ĠS l
ĠS ide
ĠS alt
ĠRo ad
ĠRen o
ĠR oman
ĠR ohmer
ĠR itchie
ĠR emember
ĠR ay
ĠR and
ĠPro ject
ĠPinoc chio
ĠP lympton
ĠP aradiso
ĠP alma
ĠP a
ĠNe xt
ĠN ap
ĠM usic
ĠM ike
ĠM iddle
ĠM i
ĠM ex
ĠM er
ĠM at
ĠM am
ĠL ife
ĠL anes
ĠL ane
ĠL ady
ĠKore a
ĠK ung
ĠK enn
ĠJo el
ĠJess ica
ĠJ ones
ĠJ an
ĠIr ish
ĠI ce
ĠHol m
ĠHar ry
ĠHar ris
ĠH our
ĠH itchcock
ĠH is
ĠH enry
ĠH ell
ĠH ave
ĠH artley
ĠH appy
ĠGu ys
ĠGreen e
ĠGl ass
ĠG host
ĠFrid a
ĠFre eman
ĠFr ontal
ĠF rom
ĠF red
ĠF our
ĠF er
ĠEast wood
ĠE urope
ĠE arnest
ĠDu ke
ĠDog s
ĠDe ath
ĠDa hmer
ĠD ong
ĠD o
ĠD irty
ĠD iesel
ĠD ie
ĠD awson
ĠD avis
ĠCl ause
ĠCh ou
ĠCh icago
ĠCh ateau
ĠC onduct
ĠC oll
ĠC irc
ĠC he
ĠC arm
ĠC are
ĠC annes
ĠC aine
ĠC a
ĠBe ast
ĠB ut
ĠB u
ĠB ruckhe
ĠB reak
ĠB oy
ĠB est
ĠB ard
ĠArgent ine
ĠAnt on
ĠAng el
ĠAn thony
ĠAn ne
ĠAn imal
ĠAn alyze
ĠAdvent ures
ĠA v
ĠA ustin
ĠA fter
ĠA cademy
Ġ3 0
Ġ19 7
Ġ10 1
Ġ1 3
Ġ1 00
Ġ You
Ġ 6
Ã© l
Ã ¢
Ã¢ te
Ã¢te au
z pet
zpet ek
z ene
zene gger
z el
yr ote
yrote chn
yn c
ync ratic
y re
y ingly
xt on
x im
with standing
wh ite
war zenegger
w riters
w orth
w es
w ash
vil i
vi gor
ver ty
vent ional
ven ile
vel er
v okes
v ating
v ances
v an
ut ty
ut ting
ut s
ut il
ust ic
us hed
urn ed
uri ously
uri es
ur ves
ur ch
ung ry
undament als
und red
un ky
un it
um st
um mer
ul ous
ul oid
ul es
ul ent
ue z
udd le
ub r
u ously
u nder
u le
u ght
u eless
u ber
thr ough
th ought
te i
te ch
t rip
t ies
st ract
st ing
st age
sp oon
semble d
se a
sc iously
s uff
s pe
s omnia
s ing
s ided
rum line
ruct ive
ru ff
ross road
rossroad s
rop ol
rop ic
room field
rom ises
ro o
ro g
ro at
rit ical
riff ith
ri ved
ri or
ri f
rif ice
ress es
read ing
re sh
re f
re ed
ra yal
ra w
ra ise
ra int
r ion
r ill
r ics
r ats
r ase
r ara
qu i
qu et
qu er
pt uous
pt ion
produ ced
por ate
pleas er
ph ob
pend ence
p uff
p ost
p ieces
p ic
p ass
p art
p able
oy ce
ower puff
ow ing
ous es
ougl as
ot ion
ot ically
ost ner
ost ly
osc a
os yncratic
orp ion
orn ber
ornber ry
ord id
ord an
or a
opp ola
op her
oon light
ook s
ony m
ont aine
ond ry
on ly
on ing
on est
omp any
ole on
ol ie
ol i
ol ate
ok um
oh y
of c
ofc ener
odrig uez
od d
oc ra
oc ity
o ons
o en
o at
nd o
n umbers
n ow
mp ire
min ally
ment ed
me ets
m or
m akers
m aker
lt ra
ll en
let t
let is
le ar
l oud
l ist
l ers
k ill
jerk er
iz ard
iz ab
izab eth
iy az
iyaz aki
itt ered
itt edly
ither spoon
it ter
it o
it ivity
it c
it ations
it age
ist ed
iss ion
ism o
ish ment
is on
is i
ir ts
ir teen
ir ot
ir ms
ir ations
ip id
ion ad
ionad os
ins on
inn ear
ing ered
ing e
inem atic
ind erell
inderell a
in ian
in ent
in cher
imp ortant
iment al
im ul
im ated
ign ific
igh s
iff le
if ty
if t
if kin
idd ish
id ow
id ers
ich ard
ic iently
ic col
iccol i
ib son
ian e
i ri
i ents
i ens
hu ang
her ish
hel sea
he on
h ind
h ib
h at
h an
h alf
gra d
gn ettes
g ener
g ency
for med
fic ionados
ff ic
f ly
f isted
f illed
f iction
f em
fem inist
f e
f are
et rating
et ent
ess ion
ess end
essend en
es is
er rida
er d
ep id
ep hen
ent ury
ent imental
ens ed
enn ifer
end es
en ice
en ced
em orable
em me
em ents
els on
ell a
el led
el le
el ic
ek erk
ed om
ed ekerk
ed ding
e ky
e athers
d unit
d ro
d owntown
d one
d on
d om
d em
con st
co ver
ci ent
che ek
ce nds
ce ful
ce an
c ur
c ue
c ore
c am
bust ers
bit r
bel ly
b uster
b ur
b um
b row
b ows
b od
b id
b es
b ased
b acks
ay les
ay as
au gh
atur ally
att hew
ath olic
ater al
at ric
art er
arl ie
ark er
arent ly
are n
ard ed
ar ound
ar ious
app iness
ap pe
ap es
ant heon
ant h
ant er
ang led
ane ke
an er
an ella
amp anella
amb oyant
am y
am ura
am i
am ed
all ar
alk ovich
al uable
al ph
al d
ak ingly
ak able
ail or
aff irming
ad o
acc id
ab s
ab les
ab by
a ver
Wh o
W ould
W orks
W oody
W itty
W illiams
Unf olds
Un like
Un less
Tr ans
The ir
Th anks
T akes
T ake
St ill
Sol ondz
Simp ly
She ridan
Sh ould
Seem s
Sad ly
S w
S urprisingly
S l
S ex
S e
Ret urn
Re ign
R om
O ther
O O
Nic ole
Ne ither
N iro
N air
Most ly
Le igh
L ight
J ones
I mp
I B
G od
G I
Fe atures
F r
F ilm
F ar
Ex c
E vokes
E ver
E leg
E ight
E ach
Def initely
De v
Cont rived
C ons
C omb
C o
C ertain
C apt
Bl ue
B roomfield
B ro
B ra
B ig
B ad
A pp
A m
4 0
- -
Ġy awn
Ġwood en
Ġwo e
Ġwit less
Ġwick edly
Ġwho dunit
Ġwhe never
Ġwh oles
Ġwh imsy
Ġwh ale
Ġweird ly
Ġweight y
Ġwal let
Ġw riters
Ġw is
Ġw et
Ġw earing
Ġvirt u
Ġvi gnettes
Ġvers us
Ġvent ure
Ġve in
Ġval uable
Ġv ulner
Ġv anity
Ġv ain
Ġv ac
Ġus eless
Ġup beat
Ġuns entimental
Ġuns atisf
Ġunrel ent
Ġunint eresting
Ġune asy
Ġunder min
Ġunder belly
Ġund oubtedly
Ġund one
Ġund ert
Ġuncon ventional
Ġuncomm only
Ġuncomfort ably
Ġunbear ably
Ġunb l
Ġun m
Ġun ful
Ġu ltra
Ġtruth ful
Ġtri angle
Ġtrash y
Ġtransl ation
Ġtrans formation
Ġtra in
Ġtr icks
Ġtoss es
Ġtort ured
Ġtoo k
Ġto oth
Ġto m
Ġto ilet
Ġtit les
Ġthous ands
Ġthe ory
Ġthan k
Ġth rown
Ġtext ure
Ġted iously
Ġtechn ically
Ġtear jerker
Ġtarget ed
Ġt reasure
Ġt ies
Ġt epid
Ġt aut
Ġt art
Ġsymb olic
Ġsw ear
Ġsust ains
Ġsus pend
Ġsurvi ve
Ġsup remely
Ġsum ptuous
Ġsuggest s
Ġsuff oc
Ġsuck ed
Ġsucc umbs
Ġsubtit les
Ġsubt ly
Ġsub text
Ġstyl ized
Ġstruct ured
Ġstret ches
Ġstory lines
Ġst ream
Ġst ops
Ġst inker
Ġst iff
Ġst if
Ġst ick
Ġst eal
Ġst ead
Ġst ation
Ġst atic
Ġst ately
Ġst ate
Ġsquee ze
Ġsqu arely
Ġspecif ically
Ġspe aks
Ġsp ort
Ġsp an
Ġsole mn
Ġsol utions
Ġso ggy
Ġsmo oth
Ġslight est
Ġsin ister
Ġsignific ant
Ġsign post
Ġshowc ases
Ġshock ingly
Ġshap ed
Ġshad ows
Ġsh rill
Ġsh out
Ġsh ape
Ġser mon
Ġsepar ate
Ġsensual ity
Ġsens ibilities
Ġsens es
Ġsec ret
Ġse ats
Ġse arching
Ġse al
Ġse a
Ġscript s
Ġscr atching
Ġscore s
Ġsc ope
Ġsc ient
Ġsatisf ies
Ġsatisf act
Ġsal v
Ġs orrow
Ġs ordid
Ġs on
Ġs isters
Ġs aved
Ġs and
Ġs afe
Ġrout ines
Ġrom ances
Ġroll ing
Ġroll icking
Ġro ots
Ġro b
Ġri ot
Ġrevel ation
Ġreveal ed
Ġresour ceful
Ġres ol
Ġres cue
Ġrep res
Ġremote ly
Ġremember ing
Ġrem iniscent
Ġregard less
Ġreg ret
Ġref uses
Ġrecord ing
Ġrecommend ed
Ġreco very
Ġrec reat
Ġrec on
Ġread y
Ġre volution
Ġre vision
Ġre semble
Ġre run
Ġre in
Ġre el
Ġre ce
Ġre as
Ġram bling
Ġrad ical
Ġra ise
Ġra in
Ġr is
Ġr ating
Ġqu e
Ġpuzz ling
Ġpuzz le
Ġpus hes
Ġpun ching
Ġproper ly
Ġprofound ly
Ġprof ile
Ġprodu ce
Ġprocess ion
Ġpro fic
Ġprin cip
Ġpresent ation
Ġprecise ly
Ġpre fer
Ġpost card
Ġposs ibility
Ġposs ibilities
Ġpositive ly
Ġpol ished
Ġpo verty
Ġpo kes
Ġplot s
Ġplot line
Ġpleas urable
Ġpl ight
Ġpick ed
Ġphys ical
Ġphot ography
Ġphenomen al
Ġph ony
Ġph ones
Ġpercept ive
Ġpen etrating
Ġpay off
Ġpath os
Ġpat ient
Ġpart s
Ġpart ly
Ġpar ade
Ġpan or
Ġpan ache
Ġpal pable
Ġp ush
Ġp urs
Ġp ill
Ġp antheon
Ġoverwhel ming
Ġover st
Ġout ing
Ġour selves
Ġopt im
Ġopportun ities
Ġopp os
Ġoff end
Ġocc up
Ġobsc ure
Ġoblig atory
Ġobject ive
Ġo ught
Ġo h
Ġnu anced
Ġnot able
Ġnostalg ia
Ġno body
Ġnight mare
Ġnewcom er
Ġnew s
Ġneighbor hood
Ġnatural istic
Ġnarc iss
Ġn umbers
Ġn iche
Ġn erv
Ġn aught
Ġn aturally
Ġn ames
Ġn amed
Ġmyster ious
Ġmy st
Ġmus hy
Ġmult ip
Ġmove ment
Ġmotiv ations
Ġmotiv ated
Ġmor ning
Ġmor ally
Ġmon sters
Ġmoment um
Ġmo ved
Ġmo ody
Ġmisf ire
Ġmis cal
Ġmis anth
Ġmira cle
Ġmin ute
Ġmid night
Ġmem ories
Ġmelanch oly
Ġmed ical
Ġmed ia
Ġme ets
Ġmar riage
Ġman aged
Ġmag ical
Ġmad ness
Ġm ug
Ġm ish
Ġm ile
Ġlun acy
Ġload s
Ġload ed
Ġlo ving
Ġlo vers
Ġlo se
Ġlo cal
Ġlo b
Ġliter ally
Ġlist en
Ġlight ing
Ġlif ts
Ġlif estyle
Ġlib ert
Ġli p
Ġli e
Ġless ons
Ġleg acy
Ġlaug hed
Ġlangu orous
Ġlandsc ape
Ġl ower
Ġl oop
Ġl it
Ġl ater
Ġl ark
Ġl ad
Ġkn ack
Ġk iller
Ġk icking
Ġk ick
Ġju venile
Ġju icy
Ġjour nal
Ġjeal ousy
Ġj aw
Ġj arring
Ġis olation
Ġiron ically
Ġinvent ion
Ġinv aluable
Ġint ol
Ġinstinct s
Ġinstall ment
Ġins uff
Ġins ipid
Ġinf uses
Ġinf uri
Ġinf idelity
Ġinf ant
Ġinexplic ably
Ġinesc apable
Ġind ulgent
Ġind iffere
Ġincred ible
Ġincons istent
Ġincomp etent
Ġinclud es
Ġinc or
Ġinc ess
Ġin quis
Ġin fect
Ġimprove ment
Ġimpro vised
Ġimpressive ly
Ġimp art
Ġimmedi ately
Ġillustr ates
Ġign ored
Ġidi osyncratic
Ġhon or
Ġhist rion
Ġhilar ity
Ġhigh light
Ġhig hest
Ġheartb reak
Ġhead s
Ġhe y
Ġhe aven
Ġharm less
Ġhard er
Ġhapp ening
Ġhand ful
Ġh ust
Ġh undred
Ġh ole
Ġh okum
Ġh okey
Ġh allmark
Ġgut s
Ġguarant eed
Ġgra c
Ġgr ating
Ġgorge ously
Ġgo vern
Ġglor iously
Ġgl aring
Ġgener ation
Ġgener ates
Ġg oose
Ġg imm
Ġg igg
Ġg est
Ġfu zzy
Ġfro zen
Ġfre edom
Ġfre ak
Ġfrag ile
Ġfour th
Ġform at
Ġfol k
Ġflour ishes
Ġflo or
Ġfles h
Ġfl ower
Ġfl imsy
Ġfl accid
Ġfew er
Ġfeel ings
Ġfe et
Ġfav ors
Ġfar c
Ġface t
Ġfab ric
Ġf ond
Ġf its
Ġf est
Ġf athers
Ġext rem
Ġexplos ions
Ġexplore s
Ġexplo it
Ġexp ressive
Ġexp ense
Ġexist ed
Ġexcruci ating
Ġexcess es
Ġexc els
Ġexam ines
Ġex uber
Ġex ter
Ġex ha
Ġevery day
Ġevent ual
Ġent ry
Ġenorm ously
Ġenorm ous
Ġenjoy ment
Ġen light
Ġempl oy
Ġemphas izes
Ġemphas is
Ġembra ces
Ġembarrass ed
Ġel ic
Ġeffort lessly
Ġeffect ively
Ġeas e
Ġe ight
Ġe go
Ġe erie
Ġe c
Ġe ars
Ġdumb ed
Ġdull est
Ġdub ious
Ġdub bed
Ġdrown ed
Ġdro ll
Ġdri vel
Ġdocument aries
Ġdo ze
Ġdo se
Ġdo or
Ġdistingu ished
Ġdistinct ive
Ġdistaste ful
Ġdisquiet ing
Ġdish onest
Ġdisgu ised
Ġdisc uss
Ġdisc ern
Ġdirect ly
Ġdirect ions
Ġdiffere nces
Ġdi verse
Ġdest ined
Ġdeser ved
Ġdes ired
Ġdep ra
Ġdem ons
Ġdefin itive
Ġdef ies
Ġdef e
Ġdec ade
Ġde als
Ġday time
Ġdark ness
Ġdark er
Ġdare s
Ġdam aged
Ġdam age
Ġd ust
Ġd ude
Ġd ressed
Ġd oll
Ġd irty
Ġd ime
Ġd aring
Ġd angerous
Ġd anger
Ġcyn icism
Ġcut s
Ġcrit ic
Ġcris is
Ġcreat ure
Ġcra w
Ġcr iminal
Ġcost umes
Ġcost ume
Ġcontri vances
Ġcontri but
Ġcont ains
Ġconst ruction
Ġconspira cy
Ġconsist ent
Ġconsid ering
Ġcons um
Ġcons olation
Ġconf used
Ġconf ront
Ġconf idence
Ġconc ent
Ġcon ve
Ġcon sequences
Ġcomprom ise
Ġcomplain t
Ġcomp an
Ġcommun ic
Ġcomed ian
Ġcomb ines
Ġcom ics
Ġcoll apses
ĠclichÃ© d
Ġclever ness
Ġclaustro phob
Ġclass ics
Ġcl ue
Ġcl ash
Ġcirc umst
Ġche w
Ġche ese
Ġche er
Ġchar ge
Ġchallen ges
Ġch oose
Ġch oice
Ġch iller
Ġch amp
Ġcell uloid
Ġcast s
Ġcartoon ish
Ġcar ing
Ġcapt uring
Ġc utes
Ġc ri
Ġc ram
Ġc ock
Ġc obbled
Ġc ere
Ġc able
Ġbut t
Ġbu g
Ġbreatht akingly
Ġbreak through
Ġbra cing
Ġboy s
Ġbored om
Ġbord ers
Ġbook s
Ġbog s
Ġbo ard
Ġblood y
Ġble ak
Ġblat ant
Ġbl ues
Ġbl ue
Ġbl own
Ġbet rayal
Ġbenef it
Ġbeg in
Ġbe w
Ġbe ar
Ġbas is
Ġbal anced
Ġback stage
Ġb ow
Ġb one
Ġb ond
Ġb on
Ġb ath
Ġb anter
Ġb ank
Ġawkward ness
Ġawkward ly
Ġaw fully
Ġaw ak
Ġavoid s
Ġaud acious
Ġatmosp her
Ġathlet es
Ġat roc
Ġast ounding
Ġass ume
Ġass a
Ġasp irations
Ġarg ue
Ġare a
Ġar ty
Ġar c
Ġar bitr
Ġapp et
Ġany way
Ġanom ie
Ġanim at
Ġanim als
Ġan ime
Ġan ger
Ġan ch
Ġam use
Ġam iable
Ġall uring
Ġal ike
Ġal ert
Ġal bum
Ġag ent
Ġadm ittedly
Ġadequ ately
Ġadequ ate
Ġadd ed
Ġad vice
Ġad dict
Ġact ual
Ġact ions
Ġaccur ately
Ġaccur ate
Ġaccept able
Ġacc ident
Ġac he
Ġabs olute
Ġab use
Ġab stract
Ġa pl
Ġa ficionados
ĠY iddish
ĠWal sh
ĠW ow
ĠW ork
ĠW oman
ĠW itherspoon
ĠW endigo
ĠTra veler
ĠTh ornberry
ĠTay mor
ĠT w
ĠT rek
ĠT osca
ĠT e
ĠT arantino
ĠT amb
ĠSte ve
ĠSte in
ĠSte aling
ĠSpe ars
ĠSp ike
ĠSor vino
ĠSor ority
ĠSol aris
ĠSm ith
ĠSie gel
ĠShow girls
ĠSh anghai
ĠSch warzenegger
ĠSc orpion
ĠSc ooby
ĠSalt on
ĠS y
ĠS us
ĠS und
ĠS isterhood
ĠS imone
ĠS igns
ĠS ever
ĠS er
ĠS aving
ĠS afe
ĠRuss ell
ĠRobert o
ĠRe ign
ĠRand all
ĠR ouge
ĠR ose
ĠR om
ĠR ollerball
ĠR ing
ĠR es
ĠR amsay
ĠR alph
ĠQu iet
ĠPl ay
ĠPl anet
ĠPa xton
ĠP ry
ĠP rivate
ĠP raise
ĠP owerpuff
ĠP ie
ĠP au
ĠP ast
ĠOli vi
ĠNe il
ĠNap oleon
ĠN umbers
ĠN ature
ĠN arc
ĠN a
ĠMex ican
ĠMer chant
ĠMc Grath
ĠM urder
ĠM othman
ĠM ostly
ĠM in
ĠM iller
ĠM ile
ĠM ichel
ĠM et
ĠM ary
ĠM alkovich
ĠM aid
ĠLil o
ĠL ive
ĠL i
ĠL ar
ĠKore an
ĠKiss ing
ĠK iller
ĠK apur
ĠJul iet
ĠJew ish
ĠJ udd
ĠJ u
ĠJ ordan
ĠJ erry
ĠJ ennifer
ĠJ e
ĠJ ane
ĠJ acqu
ĠIs land
ĠI nter
ĠI m
ĠHun ter
ĠHay nes
ĠH uppert
ĠH ugh
ĠH ouse
ĠH anks
ĠH an
ĠH allmark
ĠH al
ĠGold member
ĠGang s
ĠG riffith
ĠG rey
ĠG reat
ĠG ot
ĠG o
ĠG ibson
ĠG hetto
ĠF riend
ĠF ocus
ĠF eathers
ĠF ar
ĠF amily
ĠEurope an
ĠEl izabeth
ĠE xt
ĠE velyn
ĠE quilibrium
ĠE n
ĠE ight
ĠE cks
ĠE arth
ĠDu vall
ĠDragon fly
ĠDe an
ĠDe Niro
ĠDan ny
ĠDan a
ĠDam age
ĠD own
ĠD i
ĠD errida
ĠCra zy
ĠCr udup
ĠCr imes
ĠCon versations
ĠCl ooney
ĠCl ockstoppers
ĠCirc uit
ĠChar les
ĠCh Ã¢teau
ĠCh ick
ĠCarm en
ĠC urves
ĠC u
ĠC ompany
ĠC inema
ĠC inderella
ĠC arl
ĠC allar
ĠC al
ĠC GI
ĠBruckhe imer
ĠBrit ney
ĠBr others
ĠBl ood
ĠBart leby
ĠBall ot
ĠBall istic
ĠB ridge
ĠB ra
ĠB ourne
ĠB ody
ĠB irthday
ĠB ible
ĠB el
ĠAv ary
ĠAss assin
ĠAs ian
ĠAnt wone
ĠAnd erson
ĠAl f
ĠAd ams
ĠA way
ĠA ward
ĠA uto
ĠA ute
ĠA lt
ĠA lex
ĠA h
ĠA ge
Ġ8 8
Ġ3 00
Ġ19 70
Ġ19 3
Ġ id
Ġ \*\*
Ġ \*
Ġ #
Ã ±
Ã± uel
Ã ¯
Â ł
zz zz
z ing
ys sey
yrotechn ics
y our
y ne
y ears
x ual
x pect
worth y
we y
we ek
ward ing
w orking
w ers
w er
w en
w ed
w ater
w ai
vol ving
vis hing
vis ation
vin c
vinc ible
vid es
vi ly
vi al
vern ier
vent ful
ven ed
velop ing
ve led
v re
v ors
v o
v ils
v asive
v ado
v ability
utter ing
ute ur
ustr alian
ustr alia
uster ity
ust s
ust on
urd ened
ur ry
ur ried
ur re
ur ity
ur ation
ung ent
und ane
un ning
un ior
un ge
un e
umul ative
ument ary
umb ling
um ult
um ination
um ents
um as
um acher
uls ively
ull s
ull er
ulg ence
ul se
ul ine
ul ence
ul ation
uit ous
uge es
uff y
ue ndo
udi os
udi ard
ud y
ud ity
uct ant
uch i
ucc ino
uc in
uc as
ubr ick
ub bo
ub an
u iling
u il
u ated
u asive
thr iller
th s
th at
te gr
t Ã©
t wey
t urning
t r
t le
t inent
t ick
t here
t akes
sy mp
symp athetic
st onishing
st ep
st ac
stac les
spect ive
so on
so ever
sh ot
see king
se at
se arching
se arch
s que
s pl
s ome
s mart
s ized
s iders
s et
s erious
s atisf
ruff y
ruct ed
ru ous
ru ly
ru ce
ru b
ropol is
rop es
roo ge
ron istic
roc od
rocod ile
ris m
ris ly
ris k
rip per
right ly
ri ven
ri ent
ret entious
ret ation
ress ingly
rench ant
rehens ion
reg ard
real ized
read th
re ve
re p
re ls
re ets
re ck
re c
rec ating
re ase
rap hed
rang ers
ra qui
ra nd
ra h
ra der
r unk
r s
r int
r ime
r ict
r ates
qu eness
pt ic
pt ed
produ cer
pp led
pp ingly
pleas ing
play ing
pl oe
pl ies
ph az
phaz ard
per or
per ing
p ole
p isi
p acked
ow ered
ov an
out her
outher n
out hed
ous ness
ous ing
our se
ou fl
ote es
ot ted
ot te
ot land
ot i
ot esque
oss ibly
osp ital
ose xual
os er
os en
os edly
ort ug
ort edly
ort ance
orm ly
ord ing
or ter
or id
or ial
or g
or al
op ath
opath ic
oo s
onym ous
ong ruous
one ly
ond itional
on ous
on ious
omp s
omer cial
omb ie
om y
om ed
om as
oll ter
ol st
ol f
ol ent
ogy ny
ograp her
og ged
og en
oe pp
od ox
od dy
oc l
ocl astic
oc iated
oc ation
obi ographical
o ib
oib les
nt il
now led
nes day
nd isp
ndisp uted
nan ig
nanig ans
n umber
n oon
n ingly
n i
n ered
n el
n alism
mo ving
min able
mer ing
ment ion
me ates
me aning
mar ine
man ship
m uller
m peror
m outhed
m ond
m its
m insky
low ic
lowic z
lo ving
le m
le in
le ep
le ck
le ander
l ooper
l ogged
l iness
l im
l est
l ay
l antic
l am
l aim
l ad
kn ow
kh ov
k ip
j oke
j es
iv able
itz ler
itc hen
it ler
it ial
it ating
ist erous
ism s
isco very
is ions
is ingly
is enstein
is c
ird s
ir ling
ir k
ip aul
insp iring
inoc he
indu cing
in tegr
in ner
in ion
in i
in fl
in arily
in ally
in able
im onious
im ming
im ed
illi am
il ot
il k
il ated
ign ed
igg s
ig uchi
ig ree
ig matic
ig ible
if ormly
ier cing
ien nes
ien cy
iel insky
ie wers
ie nd
id get
id edly
icul ously
icken looper
ic eless
ic able
iar ies
i w
i vers
i ver
i us
i pped
i os
i j
i ber
het oric
het ically
her ry
he cies
haps od
h olds
h od
h ard
gu ided
go ers
gl or
gl igible
gener ated
gar ita
g ue
g en
g asm
g ap
gap lex
g ame
g a
form ative
ff leck
f s
f ront
f ell
f eld
f all
ey jes
ew itt
ett el
ettel be
ettelbe ck
ett any
et ween
et rable
et ime
et e
est inian
est er
est eem
ess on
ess im
es ley
ert muller
ert ime
erd ition
er red
er king
er ily
er ile
er al
er ably
ep ort
ep ed
ent h
ent e
en etrable
ement o
em ing
em ic
em esis
elling ton
ell ingly
el ine
eff er
ee ks
ec uted
ec ret
ec ent
ear ly
eal and
e v
e it
e arth
dro ppingly
don istic
dict ment
dep recating
de f
d ry
d ream
d iscovery
d ash
cur rent
cult ural
ct ions
con sciously
con nect
con cept
comp an
com ings
ck nowled
chn itzler
cher fig
char ged
char acter
ch ild
ch i
ch ard
ch ange
ce ly
cc er
cam era
c reen
c ons
c les
c ity
c ast
c amp
but ton
br al
bod ied
bl ood
be it
b ull
b ro
b ra
b op
b one
b iz
b ang
b aked
az zy
ay ami
ax ploitation
ax ed
aw ay
av ish
aus ible
aun t
aught ers
aud able
att ling
att age
ather ine
ate board
atch able
at us
at re
at hing
ast ro
ast ically
ast eless
ass uming
ash vili
ash iguchi
asc uline
as per
as ma
as ing
as ily
as i
arrel ly
arp enter
arn er
arm ingly
arl otte
ark s
arent s
ard ot
ard onic
ard e
ar on
ar ning
ar ling
ar g
ar cia
apt ation
ap ra
ap lin
anz a
ano ia
ank lowicz
ane k
and a
an ky
an ic
am ic
am ber
aly t
all ucin
al ter
al estinian
ail ing
ai ian
agger ingly
agg age
ag ing
ag i
ag gy
ag ged
ag anda
af ka
ady ac
add le
add ed
ad way
ad vert
ad pole
ad ed
ack y
ack les
ack ers
ach twey
ach ronistic
ac le
ac ab
acab re
ab ot
ab oo
aa aa
a vily
a vernier
a verage
a j
a it
a ise
a ghan
a effer
a e
Whe never
W onder
V iewers
Une ven
Tw enty
The n
Th oroughly
Ter rific
T sai
T ry
T ries
T ogether
T alk
Ste aling
St ale
Sh yamalan
Sh ot
Se agal
S pect
S or
S ometimes
S omething
S m
S kip
S ecret
S cherfig
S ayles
Re ally
R uss
R ock
R ich
R es
R eal
R ather
R amsay
Pro vides
P uts
P aul
P art
Over all
O h
O dd
O b
N icks
M s
M or
M o
M iyazaki
M iller
M eyjes
M et
M any
M ann
L ove
L ittle
L augh
K innear
K ay
K apur
Jack son
I A
H or
H er
H ashiguchi
H alf
Good ing
God ard
G rant
G ra
G ets
G ener
Fr ank
For m
For get
F illed
F essenden
F ans
F amily
Every one
En ough
En igma
E xt
E nt
E l
E arnest
Direct ed
Deli vers
De ep
De ath
D og
D ist
D avis
D S
Cont ains
Conf essions
Comb ines
Com ple
Ch o
Certain ly
C oll
C old
C inematic
C ar
C all
Bro snan
Br ings
Bo asts
Beaut iful
Be fore
Be en
Be comes
Be cause
B rit
B irthday
B est
App arently
All en
Al most
Ad aptation
Ad am
A stonishing
A ss
A rt
A mid
A ff
A bs
9 0
1 3
1 0
Ġz ombie
Ġz eal
Ġyouth ful
Ġwork place
Ġwor ry
Ġwond rous
Ġwis dom
Ġwilling ness
Ġwholes ome
Ġwhat soever
Ġwh iny
Ġweak ness
Ġwe ighs
Ġwe eks
Ġwater logged
Ġwast es
Ġwar s
Ġwar med
Ġwar fare
Ġwall op
Ġwal king
Ġwa ves
Ġw rest
Ġw on
Ġw ist
Ġw ishing
Ġw edding
Ġw ave
Ġw at
Ġvis ible
Ġvirt ues
Ġvill ains
Ġvi r
Ġvi be
Ġvi a
Ġval iantly
Ġv oy
Ġv oices
Ġur gency
Ġupd ating
Ġup per
Ġunm emorable
Ġunique ly
Ġunintent ional
Ġunin volving
Ġuni verse
Ġunful filling
Ġunfor gettable
Ġunf l
Ġunex plain
Ġune ventful
Ġundercut s
Ġunder lying
Ġunder current
Ġund ers
Ġunc onditional
Ġunbl inking
Ġun sympathetic
Ġun mention
Ġun less
Ġun leas
Ġun known
Ġun iformly
Ġun assuming
Ġun able
Ġu h
Ġtwist ing
Ġtw ink
Ġtw enty
Ġtur gid
Ġtun ed
Ġtre es
Ġtransp arent
Ġtrans g
Ġtrans forms
Ġtrag ically
Ġtra pped
Ġtra p
Ġtr uck
Ġtoward s
Ġtort ure
Ġtom orrow
Ġtoler ance
Ġto wn
Ġtim id
Ġthrow ing
Ġthrow back
Ġthrill ing
Ġthous and
Ġthin ly
Ġthem atically
Ġthe ories
Ġthank fully
Ġth umbs
Ġth irty
Ġtest imony
Ġterror ism
Ġtempt ing
Ġteleg raphed
Ġtechn ique
Ġteacher s
Ġte a
Ġtack ling
Ġt umult
Ġt ropes
Ġt renchant
Ġt orn
Ġt or
Ġt ones
Ġt on
Ġt iss
Ġt ensions
Ġt ense
Ġt em
Ġt el
Ġt ax
Ġt attered
Ġt asteless
Ġt ask
Ġt aps
Ġt apping
Ġt ailor
Ġt able
Ġsymp ath
Ġsymb ol
Ġswe at
Ġsw inging
Ġsw im
Ġsurvi vors
Ġsurvi val
Ġsurround ed
Ġsurpris ed
Ġsur re
Ġsupp ort
Ġsuperficial ity
Ġsuper bly
Ġsumm ertime
Ġsuit ably
Ġsuffoc ating
Ġsuff er
Ġsuck s
Ġsucceed ed
Ġsucc umb
Ġsub urban
Ġsub marine
Ġsu its
Ġsu itable
Ġsu gar
Ġsty les
Ġstud ent
Ġstrugg ling
Ġstrugg les
Ġstrong ly
Ġstrong est
Ġstrong er
Ġstro ke
Ġstri p
Ġstret ched
Ġstret ch
Ġstrang eness
Ġstra nds
Ġstra ins
Ġstra ined
Ġstory t
Ġstereot ypical
Ġste eped
Ġste als
Ġstart ing
Ġst oop
Ġst ing
Ġst imul
Ġst ark
Ġst ages
Ġst ag
Ġspot light
Ġspontane ity
Ġspl ash
Ġspirit ed
Ġspectac ularly
Ġspec imen
Ġspec ific
Ġspe nds
Ġspe culation
Ġsp rightly
Ġsp ots
Ġsp ins
Ġsp iff
Ġsp ider
Ġsp iced
Ġsp ice
Ġsp i
Ġsp aces
Ġsour ces
Ġso ccer
Ġso ars
Ġsne aks
Ġsn ow
Ġsn oo
Ġsn ap
Ġsmo other
Ġsm ash
Ġsm ack
Ġslip per
Ġslap dash
Ġsl opp
Ġsl og
Ġsl am
Ġskill s
Ġskill ful
Ġsk ateboard
Ġshort comings
Ġshe nanigans
Ġshe ll
Ġshadow y
Ġsh ri
Ġsh ower
Ġsh orter
Ġsh op
Ġsh oddy
Ġsh ining
Ġsett le
Ġsent ence
Ġsens itivity
Ġsens ibility
Ġseem ing
Ġsee ks
Ġsecond hand
Ġsec rets
Ġse lection
Ġse gment
Ġse as
Ġse aring
Ġse ams
Ġscript ing
Ġscrew ball
Ġscreen s
Ġschmalt zy
Ġschmalt z
Ġsch lock
Ġscen ic
Ġscare s
Ġsc ruffy
Ġsc rap
Ġsc athing
Ġsc and
Ġsav age
Ġsatisfact ory
Ġsanct imony
Ġsanct imonious
Ġsad d
Ġsacrific ing
Ġsac rifice
Ġs ons
Ġs ky
Ġs its
Ġs ib
Ġs essions
Ġs ays
Ġs aving
Ġs aves
Ġs ardonic
Ġs abot
Ġru ined
Ġrock et
Ġro bust
Ġridiculous ness
Ġri pe
Ġri gid
Ġreward ed
Ġrevel ations
Ġret al
Ġret ains
Ġrespons ibility
Ġrespect able
Ġreson ate
Ġresem bles
Ġres erved
Ġrequ ire
Ġrepet ition
Ġrepeated ly
Ġrep lete
Ġrep ellent
Ġremind ing
Ġremind ed
Ġrelig ious
Ġrelent less
Ġrel uctant
Ġrel iable
Ġrel axed
Ġrel ative
Ġrel ate
Ġreject ed
Ġregard ing
Ġref ugees
Ġref lection
Ġredu ces
Ġredu ced
Ġredeem ing
Ġrecyc ling
Ġrecogn ize
Ġrecogn iz
Ġrec ipe
Ġreas ons
Ġrealistic ally
Ġreal izing
Ġreach ing
Ġre v
Ġre search
Ġre lying
Ġre ly
Ġre ck
Ġre ceived
Ġre ached
Ġraunch y
Ġrad iant
Ġrad ar
Ġra vishing
Ġra pt
Ġra ises
Ġra c
Ġr ushed
Ġr ising
Ġr ings
Ġr ing
Ġr hetoric
Ġr hapsod
Ġr at
Ġr ans
Ġquiet er
Ġqual ities
Ġqu asi
Ġqu arter
Ġput ting
Ġpus hed
Ġpure ly
Ġpun ct
Ġpulp y
Ġpul se
Ġpu pp
Ġpu erile
Ġpsych opathic
Ġpsych ologically
Ġpsy ched
Ġpsy che
Ġprovid ed
Ġprotagon ists
Ġprot ect
Ġprop aganda
Ġprom isingly
Ġprom ises
Ġproject s
Ġprog ram
Ġprofessional s
Ġprof ane
Ġproduct ions
Ġprodu cer
Ġprob ing
Ġpro se
Ġpro ced
Ġprin cess
Ġprim itive
Ġprim ary
Ġpress ed
Ġpredict ability
Ġpre sc
Ġpre gn
Ġpract ice
Ġpr int
Ġpr ime
Ġpower fully
Ġpoint ed
Ġpo ster
Ġpo ol
Ġpleas antly
Ġplay er
Ġpl us
Ġpl uck
Ġpl anet
Ġpit falls
Ġpit ched
Ġpile up
Ġph rase
Ġph one
Ġph on
Ġper vasive
Ġper tinent
Ġper pet
Ġper meates
Ġped igree
Ġpe ak
Ġpass ions
Ġpass ing
Ġpass es
Ġpass ages
Ġparticip ants
Ġpar anoia
Ġpar an
Ġpanor amic
Ġpair ing
Ġpack age
Ġp yrotechnics
Ġp unk
Ġp ungent
Ġp rivate
Ġp rism
Ġp ride
Ġp ra
Ġp oll
Ġp le
Ġp ink
Ġp in
Ġp iercing
Ġp ian
Ġp et
Ġp essim
Ġp added
Ġp ad
Ġover tly
Ġover run
Ġout takes
Ġout siders
Ġout rage
Ġout er
Ġout d
Ġout come
Ġorgan ic
Ġord er
Ġop inion
Ġop ens
Ġod yssey
Ġocc ur
Ġobsess ive
Ġobsess ions
Ġobs er
Ġobject ivity
Ġo wes
Ġo vere
Ġnumb ing
Ġnu ance
Ġnot withstanding
Ġnot orious
Ġnot es
Ġnorm ally
Ġnon stop
Ġno se
Ġnet work
Ġnerv y
Ġner ves
Ġneed lessly
Ġne gligible
Ġnaught y
Ġnarrative ly
Ġnarr ator
Ġnarciss ism
Ġna ive
Ġn utty
Ġn in
Ġn ifty
Ġn ic
Ġn ary
Ġn ails
Ġn ail
Ġmyth ic
Ġmyster ies
Ġmult i
Ġmoviego ing
Ġmount ain
Ġmot ions
Ġmor onic
Ġmor bid
Ġmonot onous
Ġmon ument
Ġmo de
Ġmo b
Ġmiss es
Ġmisanth ropic
Ġmis ogyny
Ġmis guided
Ġmis erable
Ġmill ion
Ġmid way
Ġmetaphor ical
Ġmetaph ors
Ġmet hod
Ġmess y
Ġmer its
Ġmem ber
Ġmed ium
Ġmed itative
Ġme gaplex
Ġme et
Ġme ant
Ġme al
Ġmass ive
Ġmarvel ously
Ġmanipul ation
Ġman ners
Ġmal aise
Ġmake up
Ġmaint aining
Ġmaint ain
Ġmach ismo
Ġma xim
Ġm undane
Ġm uddle
Ġm our
Ġm ired
Ġm aker
Ġm add
Ġm acabre
Ġlow brow
Ġlos ers
Ġloose ly
Ġlocal es
Ġlob by
Ġliter ate
Ġlim its
Ġlim itations
Ġlight ly
Ġliber ation
Ġliber ating
Ġlet down
Ġless er
Ġlegend ary
Ġleg al
Ġlead ing
Ġlea vened
Ġle th
Ġle ather
Ġle arning
Ġle an
Ġlay ered
Ġlaugh ably
Ġlandsc apes
Ġland mark
Ġl uster
Ġl ittered
Ġl az
Ġl avish
Ġl audable
Ġl apses
Ġl ady
Ġke pt
Ġke en
Ġk its
Ġk itchen
Ġk in
Ġk illed
Ġk icks
Ġjoy less
Ġjour nalism
Ġjol ts
Ġjol t
Ġj unior
Ġj umps
Ġj ell
Ġj azzy
Ġit al
Ġiss ue
Ġirre levant
Ġinvol ve
Ġinv iting
Ġintrodu ction
Ġintol erable
Ġinterp retation
Ġinter views
Ġinter action
Ġintent ionally
Ġintense ly
Ġintellig ently
Ġint act
Ġinsult ingly
Ġinst ance
Ġinsp ires
Ġinsec ure
Ġins urance
Ġins istent
Ġins ignific
Ġinquis itive
Ġinnov ative
Ġinnov ation
Ġinnoc ent
Ġinn uendo
Ġing red
Ġinfuri ating
Ġinflu enced
Ġinflu ence
Ġinfect ious
Ġinfant ile
Ġinf omercial
Ġinexplic able
Ġinept ly
Ġindiffere nce
Ġind ul
Ġinco herence
Ġincl ination
Ġincess ant
Ġinc ongruous
Ġinc ident
Ġin j
Ġin itial
Ġin formation
Ġin du
Ġin dictment
Ġimpro visation
Ġimpress ions
Ġimp ersonal
Ġimp enetrable
Ġimmedi acy
Ġimm ers
Ġimm ature
Ġimm ac
Ġim b
Ġillumin ating
Ġill ness
Ġign ore
Ġidi ots
Ġidi otic
Ġide alism
Ġicon oclastic
Ġhyp oc
Ġhuman ly
Ġhum ans
Ġhorri bly
Ġhor rors
Ġhope fully
Ġhop es
Ġhom osexual
Ġhistrion ics
Ġhistor ically
Ġhilarious ly
Ġhig her
Ġhide ously
Ġhero ic
Ġher itage
Ġhelp ed
Ġheal th
Ġhead y
Ġhead ed
Ġhe ights
Ġhe ight
Ġhe donistic
Ġhe avily
Ġhe ated
Ġhe at
Ġhapp iness
Ġhandsome ly
Ġhand ling
Ġham my
Ġha phazard
Ġh urt
Ġh o
Ġh int
Ġh idden
Ġh ates
Ġh ang
Ġh allucin
Ġguarant ee
Ġgro an
Ġgreat ness
Ġgreat er
Ġgrat uitous
Ġgrac eless
Ġgra vity
Ġgr otesque
Ġgr im
Ġgr ate
Ġgoof ball
Ġglor ified
Ġglimp ses
Ġgl orious
Ġgl ob
Ġgif ts
Ġgen res
Ġgen ius
Ġge ared
Ġg risly
Ġg rew
Ġg reen
Ġg lee
Ġg el
Ġg ave
Ġg asp
Ġg am
Ġfun ction
Ġfrustr atingly
Ġfre quent
Ġfre ight
Ġform al
Ġfore most
Ġfore ign
Ġforce fully
Ġfor th
Ġfollow ed
Ġflash backs
Ġfl orid
Ġfl ashes
Ġfl ame
Ġfl amboyant
Ġfl ailing
Ġfl ag
Ġfilm ing
Ġfear less
Ġfe ces
Ġfat al
Ġfascin ate
Ġfasc ination
Ġfarc ical
Ġfall ing
Ġfall en
Ġfail ing
Ġfa ult
Ġfa iled
Ġfa ces
Ġf uss
Ġf uriously
Ġf ru
Ġf ren
Ġf olly
Ġf oibles
Ġf ocused
Ġf ocus
Ġf iring
Ġf ires
Ġf iend
Ġf ield
Ġf et
Ġf arts
Ġf aced
Ġextravag anza
Ġextravag ant
Ġextraord inarily
Ġexter ior
Ġext ent
Ġexplos ion
Ġexplo iting
Ġexpl oring
Ġexper tly
Ġexper t
Ġexper ienced
Ġexpect s
Ġexpect ing
Ġexp os
Ġexec ut
Ġexcept ion
Ġexc ited
Ġex it
Ġex ists
Ġex asper
Ġex al
Ġevid ent
Ġevid ence
Ġevery where
Ġestabl ishes
Ġestabl ished
Ġescap ist
Ġescap ed
Ġep ip
Ġenvironment al
Ġentertain ingly
Ġentertain ed
Ġent r
Ġent ers
Ġenjoy s
Ġenjoy ably
Ġenh ances
Ġengag ingly
Ġener g
Ġende av
Ġend uring
Ġend ed
Ġenc ount
Ġen igmatic
Ġen chant
Ġempt iness
Ġempl oys
Ġembra ce
Ġelse where
Ġelo quently
Ġelev ates
Ġeleg antly
Ġeleg ance
Ġele vate
Ġel usive
Ġeduc ation
Ġed its
Ġed ges
Ġe vol
Ġe tern
Ġe g
Ġe ch
Ġdynam ics
Ġdut iful
Ġdrown s
Ġdri ven
Ġdre ck
Ġdrag ons
Ġdr ink
Ġdown ward
Ġdope y
Ġdo zen
Ġdistur bing
Ġdistur b
Ġdistingu ish
Ġdist ant
Ġdisg usting
Ġdisappoint ingly
Ġdis regard
Ġdis plays
Ġdis m
Ġdis integr
Ġdis cipl
Ġdim ension
Ġdig s
Ġdevelop s
Ġdevelop ments
Ġdeterm ine
Ġdet ract
Ġdet ective
Ġdet ached
Ġdest ruction
Ġder ived
Ġdepth s
Ġdepra ved
Ġdepart ure
Ġdepart ment
Ġdep ression
Ġdep ressed
Ġden ying
Ġden ied
Ġdemonstr ating
Ġdemonstr ate
Ġdem ograph
Ġdem ocra
Ġdefin ition
Ġdefe ated
Ġdeep est
Ġdecept ions
Ġdecept ion
Ġdec idedly
Ġdec ided
Ġdeb ate
Ġde volves
Ġde grad
Ġdark ly
Ġdam ning
Ġd uration
Ġd ual
Ġd u
Ġd owntown
Ġd ol
Ġd iv
Ġd ed
Ġd awn
Ġd aughters
Ġd arned
Ġcutes y
Ġcut eness
Ġcur t
Ġcross over
Ġcrit ique
Ġcrit icism
Ġcrit ical
Ġcri ppled
Ġcred ited
Ġcre w
Ġcraft s
Ġcrack le
Ġcr ushing
Ġcour t
Ġcou rageous
Ġcor rupt
Ġconvent ions
Ġconve ying
Ġcontin uity
Ġcontempl ation
Ġcont est
Ġconst antly
Ġconnect ion
Ġconj ures
Ġcondition ing
Ġcond ensed
Ġconc oct
Ġcon vol
Ġcomplex ities
Ġcompet ition
Ġcompan ion
Ġcomp rehension
Ġcomp osition
Ġcomp osed
Ġcomp ared
Ġcommun al
Ġcommercial ism
Ġcomb ust
Ġcomb at
Ġcom pl
Ġcom a
Ġcollect ively
Ġcollabor ation
Ġcoll ision
Ġcohes ive
Ġco vers
Ġclose ly
Ġclos ing
Ġclaustrophob ic
Ġclass ical
Ġcl unky
Ġcl ueless
Ġcl aim
Ġcl ad
Ġciv il
Ġcircumst ances
Ġchuck les
Ġchuck le
Ġchild like
Ġche st
Ġche eky
Ġcharacteriz ation
Ġcharacter istic
Ġchar ged
Ġcha os
Ġch urch
Ġch ron
Ġch osen
Ġch oo
Ġch ances
Ġcere bral
Ġcent er
Ġcelebr ity
Ġcart oons
Ġcar rying
Ġcar ic
Ġcap ital
Ġcap ability
Ġcan on
Ġcan ny
Ġcan n
Ġcamp y
Ġcam oufl
Ġcal m
Ġcal ib
Ġc up
Ġc umulative
Ġc ath
Ġc atching
Ġc ars
Ġc arn
Ġc ad
Ġburst s
Ġbu zz
Ġbu ck
Ġbrilli ance
Ġbright ly
Ġbri o
Ġbreat hes
Ġbra very
Ġbra ins
Ġbr us
Ġbr other
Ġbou n
Ġboo st
Ġboo bs
Ġbomb astic
Ġbold ly
Ġbog us
Ġbog ged
Ġbod ily
Ġbod ice
Ġbo om
Ġbo ils
Ġbo at
Ġbo asts
Ġblood s
Ġblock busters
Ġblock buster
Ġbland ness
Ġbl uster
Ġbl ind
Ġbi ography
Ġbelie ving
Ġbeg uiling
Ġbe ings
Ġbe f
Ġbe er
Ġbe ats
Ġbe aring
Ġbe ach
Ġbaff led
Ġb urn
Ġb ump
Ġb readth
Ġb orrows
Ġb orn
Ġb io
Ġb arrel
Ġb are
Ġb aggage
Ġb aby
Ġb ab
Ġaward s
Ġawak ening
Ġaw are
Ġav ant
Ġauth or
Ġaut op
Ġaut om
Ġaud acity
Ġast ute
Ġast ron
Ġassa ult
Ġass ociated
Ġass assin
Ġass ass
Ġas sembled
Ġartist ry
Ġarticul ate
Ġart sy
Ġart ful
Ġarrest ing
Ġarg uments
Ġarbitr ary
Ġar ist
Ġappreci ated
Ġappe als
Ġapp ly
Ġany where
Ġanimat ronic
Ġanim al
Ġangu ish
Ġang ry
Ġang le
Ġan cient
Ġan arch
Ġan achronistic
Ġambig uity
Ġam id
Ġam azingly
Ġallow ing
Ġallow ed
Ġall usions
Ġal iens
Ġal beit
Ġair less
Ġaim lessly
Ġagg ressively
Ġage nd
Ġag ed
Ġaffect ed
Ġaff ord
Ġaff irming
Ġaest hetic
Ġadvert ised
Ġadoles c
Ġadmira bly
Ġadm ission
Ġadd ing
Ġad v
Ġad age
Ġact iv
Ġaccompl ish
Ġaccept ing
Ġacc umul
Ġac qu
Ġac id
Ġac compan
Ġabsurd ities
Ġabsurd ist
Ġab und
Ġab ly
Ġa uteur
Ġa usterity
Ġa i
Ġa cknowled
Ġ\*\* \*
ĠZ ealand
ĠY our
ĠY ard
ĠWill is
ĠWil co
ĠWel sh
ĠWed nesday
ĠWe ight
ĠWal ter
ĠW ood
ĠW onder
ĠW ollter
ĠW ife
ĠW esley
ĠW ertmuller
ĠW ere
ĠW eeks
ĠW as
ĠW ant
ĠW alt
ĠVietnam ese
ĠV enice
ĠV e
ĠUn ited
ĠU ndisputed
ĠTun is
ĠThornberry s
ĠThe atre
ĠTh omas
ĠTe acher
ĠT sai
ĠT reasure
ĠT out
ĠT odd
ĠT est
ĠT avernier
ĠT ake
ĠSwim fan
ĠSweet est
ĠSus an
ĠSund ance
ĠSt udios
ĠSt rangers
ĠSt itch
ĠSt ephen
ĠSt ates
