{
  "<|endoftext|>": 0,
  "<|pad|>": 1,
  "<|unk|>": 2,
  "Ā": 3,
  "ā": 4,
  "Ă": 5,
  "ă": 6,
  "Ą": 7,
  "ą": 8,
  "Ć": 9,
  "ć": 10,
  "Ĉ": 11,
  "ĉ": 12,
  "Ċ": 13,
  "ċ": 14,
  "Č": 15,
  "č": 16,
  "Ď": 17,
  "ď": 18,
  "Đ": 19,
  "đ": 20,
  "Ē": 21,
  "ē": 22,
  "Ĕ": 23,
  "ĕ": 24,
  "Ė": 25,
  "ė": 26,
  "Ę": 27,
  "ę": 28,
  "Ě": 29,
  "ě": 30,
  "Ĝ": 31,
  "ĝ": 32,
  "Ğ": 33,
  "ğ": 34,
  "Ġ": 35,
  "!": 36,
  "\"": 37,
  "#": 38,
  "$": 39,
  "%": 40,
  "&": 41,
  "'": 42,
  "(": 43,
  ")": 44,
  "*": 45,
  "+": 46,
  ",": 47,
  "-": 48,
  ".": 49,
  "/": 50,
  "0": 51,
  "1": 52,
  "2": 53,
  "3": 54,
  "4": 55,
  "5": 56,
  "6": 57,
  "7": 58,
  "8": 59,
  "9": 60,
  ":": 61,
  ";": 62,
  "<": 63,
  "=": 64,
  ">": 65,
  "?": 66,
  "@": 67,
  "A": 68,
  "B": 69,
  "C": 70,
  "D": 71,
  "E": 72,
  "F": 73,
  "G": 74,
  "H": 75,
  "I": 76,
  "J": 77,
  "K": 78,
  "L": 79,
  "M": 80,
  "N": 81,
  "O": 82,
  "P": 83,
  "Q": 84,
  "R": 85,
  "S": 86,
  "T": 87,
  "U": 88,
  "V": 89,
  "W": 90,
  "X": 91,
  "Y": 92,
  "Z": 93,
  "[": 94,
  "\\": 95,
  "]": 96,
  "^": 97,
  "_": 98,
  "`": 99,
  "a": 100,
  "b": 101,
  "c": 102,
  "d": 103,
  "e": 104,
  "f": 105,
  "g": 106,
  "h": 107,
  "i": 108,
  "j": 109,
  "k": 110,
  "l": 111,
  "m": 112,
  "n": 113,
  "o": 114,
  "p": 115,
  "q": 116,
  "r": 117,
  "s": 118,
  "t": 119,
  "u": 120,
  "v": 121,
  "w": 122,
  "x": 123,
  "y": 124,
  "z": 125,
  "{": 126,
  "|": 127,
  "}": 128,
  "~": 129,
  "ġ": 130,
  "Ģ": 131,
  "ģ": 132,
  "Ĥ": 133,
  "ĥ": 134,
  "Ħ": 135,
  "ħ": 136,
  "Ĩ": 137,
  "ĩ": 138,
  "Ī": 139,
  "ī": 140,
  "Ĭ": 141,
  "ĭ": 142,
  "Į": 143,
  "į": 144,
  "İ": 145,
  "ı": 146,
  "Ĳ": 147,
  "ĳ": 148,
  "Ĵ": 149,
  "ĵ": 150,
  "Ķ": 151,
  "ķ": 152,
  "ĸ": 153,
  "Ĺ": 154,
  "ĺ": 155,
  "Ļ": 156,
  "ļ": 157,
  "Ľ": 158,
  "ľ": 159,
  "Ŀ": 160,
  "ŀ": 161,
  "Ł": 162,
  "ł": 163,
  "¡": 164,
  "¢": 165,
  "£": 166,
  "¤": 167,
  "¥": 168,
  "¦": 169,
  "§": 170,
  "¨": 171,
  "©": 172,
  "ª": 173,
  "«": 174,
  "¬": 175,
  "­": 176,
  "®": 177,
  "¯": 178,
  "°": 179,
  "±": 180,
  "²": 181,
  "³": 182,
  "´": 183,
  "µ": 184,
  "¶": 185,
  "·": 186,
  "¸": 187,
  "¹": 188,
  "º": 189,
  "»": 190,
  "¼": 191,
  "½": 192,
  "¾": 193,
  "¿": 194,
  "À": 195,
  "Á": 196,
  "Â": 197,
  "Ã": 198,
  "Ä": 199,
  "Å": 200,
  "Æ": 201,
  "Ç": 202,
  "È": 203,
  "É": 204,
  "Ê": 205,
  "Ë": 206,
  "Ì": 207,
  "Í": 208,
  "Î": 209,
  "Ï": 210,
  "Ð": 211,
  "Ñ": 212,
  "Ò": 213,
  "Ó": 214,
  "Ô": 215,
  "Õ": 216,
  "Ö": 217,
  "×": 218,
  "Ø": 219,
  "Ù": 220,
  "Ú": 221,
  "Û": 222,
  "Ü": 223,
  "Ý": 224,
  "Þ": 225,
  "ß": 226,
  "à": 227,
  "á": 228,
  "â": 229,
  "ã": 230,
  "ä": 231,
  "å": 232,
  "æ": 233,
  "ç": 234,
  "è": 235,
  "é": 236,
  "ê": 237,
  "ë": 238,
  "ì": 239,
  "í": 240,
  "î": 241,
  "ï": 242,
  "ð": 243,
  "ñ": 244,
  "ò": 245,
  "ó": 246,
  "ô": 247,
  "õ": 248,
  "ö": 249,
  "÷": 250,
  "ø": 251,
  "ù": 252,
  "ú": 253,
  "û": 254,
  "ü": 255,
  "ý": 256,
  "þ": 257,
  "ÿ": 258,
  "Ġt": 259,
  "Ġa": 260,
  "in": 261,
  "he": 262,
  "Ġs": 263,
  "re": 264,
  "Ġ.": 265,
  "Ġo": 266,
  "er": 267,
  "Ġ,": 268,
  "it": 269,
  "Ġthe": 270,
  "is": 271,
  "nd": 272,
  "at": 273,
  "Ġf": 274,
  "ing": 275,
  "en": 276,
  "es": 277,
  "Ġm": 278,
  "Ġw": 279,
  "Ġc": 280,
  "Ġb": 281,
  "or": 282,
  "on": 283,
  "ou": 284,
  "Ġof": 285,
  "Ġand": 286,
  "ar": 287,
  "Ġp": 288,
  "an": 289,
  "al": 290,
  "ly": 291,
  "Ġth": 292,
  "Ġd": 293,
  "le": 294,
  "ic": 295,
  "Ġ'": 296,
  "Ġto": 297,
  "ed": 298,
  "Ġin": 299,
  "Ġh": 300,
  "il": 301,
  "om": 302,
  "Ġl": 303,
  "st": 304,
  "Ġn": 305,
  "Ġit": 306,
  "Ġe": 307,
  "Ġis": 308,
  "ct": 309,
  "ut": 310,
  "el": 311,
  "Ġmo": 312,
  "ion": 313,
  "ent": 314,
  "Ġg": 315,
  "as": 316,
  "ot": 317,
  "ve": 318,
  "Ġthat": 319,
  "vi": 320,
  "im": 321,
  "ra": 322,
  "Ġbe": 323,
  "Ġre": 324,
  "Ġst": 325,
  "Ġu": 326,
  "gh": 327,
  "ul": 328,
  "ver": 329,
  "ce": 330,
  "Ġfil": 331,
  "ch": 332,
  "et": 333,
  "ro": 334,
  "The": 335,
  "Ġfilm": 336,
  "Ġon": 337,
  "Ġan": 338,
  "ith": 339,
  "Ġas": 340,
  "ri": 341,
  "Ġy": 342,
  "ol": 343,
  "Ġwith": 344,
  "ay": 345,
  "ow": 346,
  "ke": 347,
  "ad": 348,
  "vie": 349,
  "Ġ-": 350,
  "Ġfor": 351,
  "ess": 352,
  "se": 353,
  "oo": 354,
  "ir": 355,
  "Ġsu": 356,
  "Ġcom": 357,
  "id": 358,
  "Ġwh": 359,
  "Ġyou": 360,
  "Ġmovie": 361,
  "ers": 362,
  "Ġits": 363,
  "am": 364,
  "Ġbut": 365,
  "ble": 366,
  "Ġli": 367,
  "Ġal": 368,
  "un": 369,
  "ĠS": 370,
  "her": 371,
  "ag": 372,
  "Ġch": 373,
  "um": 374,
  "ill": 375,
  "ght": 376,
  "em": 377,
  "..": 378,
  "ous": 379,
  "out": 380,
  "ck": 381,
  "ur": 382,
  "Ġint": 383,
  "Ġex": 384,
  "Ġse": 385,
  "ak": 386,
  "ld": 387,
  "Ġthis": 388,
  "ist": 389,
  "ive": 390,
  "ation": 391,
  "ant": 392,
  "rom": 393,
  "RB": 394,
  "ure": 395,
  "ally": 396,
  "qu": 397,
  "ire": 398,
  "Ġhe": 399,
  "pe": 400,
  "est": 401,
  "art": 402,
  "It": 403,
  "ast": 404,
  "if": 405,
  "ain": 406,
  "Ġun": 407,
  "Ġab": 408,
  "Ġnot": 409,
  "ĠB": 410,
  "'t": 411,
  "Ġha": 412,
  "Ġdo": 413,
  "Ġsh": 414,
  "Ġat": 415,
  "Ġsc": 416,
  "Ġcon": 417,
  "Ġde": 418,
  "ell": 419,
  "Ġwor": 420,
  "ate": 421,
  "ĠC": 422,
  "ory": 423,
  "ĠM": 424,
  "ĠA": 425,
  "Ġne": 426,
  "ap": 427,
  "ity": 428,
  "Ġen": 429,
  "ust": 430,
  "us": 431,
  "able": 432,
  "ig": 433,
  "Ġj": 434,
  "ough": 435,
  "act": 436,
  "Ġso": 437,
  "th": 438,
  "Ġby": 439,
  "ood": 440,
  "ful": 441,
  "Ġchar": 442,
  "Ġ--": 443,
  "Ġpro": 444,
  "Ġare": 445,
  "Ġhas": 446,
  "op": 447,
  "Ġthan": 448,
  "Ġact": 449,
  "ight": 450,
  "and": 451,
  "Ġabout": 452,
  "ĠH": 453,
  "ff": 454,
  "Ġmore": 455,
  "ter": 456,
  "Ġsom": 457,
  "ould": 458,
  "ere": 459,
  "ĠI": 460,
  "ud": 461,
  "Ġlike": 462,
  "Ġall": 463,
  "Ġpl": 464,
  "Ġone": 465,
  "Ġfe": 466,
  "ss": 467,
  "Ġfrom": 468,
  "ort": 469,
  "ven": 470,
  "ind": 471,
  "ard": 472,
  "Ġ...": 473,
  "ĠD": 474,
  "Ġhave": 475,
  "very": 476,
  "ial": 477,
  "ie": 478,
  "pt": 479,
  "Ġ`": 480,
  "Th": 481,
  "Ġhis": 482,
  "ĠW": 483,
  "Ġr": 484,
  "Ġpre": 485,
  "Ġwho": 486,
  "itt": 487,
  "ack": 488,
  "Ġle": 489,
  "Ġper": 490,
  "Ġstory": 491,
  "irect": 492,
  "hing": 493,
  "Ġor": 494,
  "one": 495,
  "Ġv": 496,
  "all": 497,
  "Ġk": 498,
  "pl": 499,
  "Ġim": 500,
  "ge": 501,
  "ect": 502,
  "ong": 503,
  "Ġout": 504,
  "Ġcharact": 505,
  "og": 506,
  "ab": 507,
  "ence": 508,
  "ces": 509,
  "Ġfun": 510,
  "ĠP": 511,
  "ake": 512,
  "ious": 513,
  "ĠR": 514,
  "ĠF": 515,
  "per": 516,
  "ies": 517,
  "od": 518,
  "ich": 519,
  "ick": 520,
  "are": 521,
  "RRB": 522,
  "ĠG": 523,
  "LRB": 524,
  "ime": 525,
  "ine": 526,
  "Ġfl": 527,
  "Ġcl": 528,
  "ĠL": 529,
  "for": 530,
  "ear": 531,
  "ves": 532,
  "ram": 533,
  "man": 534,
  "os": 535,
  "Ġman": 536,
  "ry": 537,
  "Ġmost": 538,
  "nt": 539,
  "Ġup": 540,
  "Ġsp": 541,
  "au": 542,
  "reat": 543,
  "pp": 544,
  "ert": 545,
  "ac": 546,
  "Ġdirect": 547,
  "ook": 548,
  "Ġinto": 549,
  "ict": 550,
  "ary": 551,
  "edy": 552,
  "ny": 553,
  "ĠT": 554,
  "ĠJ": 555,
  "Ġpo": 556,
  "our": 557,
  "Ġthr": 558,
  "Ġlo": 559,
  "Ġqu": 560,
  "Ġwork": 561,
  "Ġany": 562,
  "nder": 563,
  "Ġad": 564,
  "Ġno": 565,
  "ne": 566,
  "ep": 567,
  "Ġjust": 568,
  "Ġar": 569,
  "ile": 570,
  "Ġcomp": 571,
  "ore": 572,
  "Ġtoo": 573,
  "ment": 574,
  "ise": 575,
  "oy": 576,
  "Ġdoes": 577,
  "ite": 578,
  "ical": 579,
  "com": 580,
  "Ġent": 581,
  "mer": 582,
  "Ġsome": 583,
  "ue": 584,
  "Ġus": 585,
  "uch": 586,
  "Ġgood": 587,
  "ĠThe": 588,
  "akes": 589,
  "Ġwe": 590,
  "age": 591,
  "ating": 592,
  "ass": 593,
  "ark": 594,
  "Ġwill": 595,
  "Ġhum": 596,
  "Ġcomedy": 597,
  "This": 598,
  "Ġcan": 599,
  "Ġperfor": 600,
  "Ġoff": 601,
  "Ġ''": 602,
  "elf": 603,
  "we": 604,
  "Ġfeel": 605,
  "reen": 606,
  "atch": 607,
  "Ġover": 608,
  "Ġtr": 609,
  "ult": 610,
  "iz": 611,
  "Ġcharacters": 612,
  "ĠN": 613,
  "ish": 614,
  "de": 615,
  "ther": 616,
  "rit": 617,
  "ll": 618,
  "ide": 619,
  "ens": 620,
  "ip": 621,
  "ound": 622,
  "Ġmuch": 623,
  "Ġway": 624,
  "Ġperforman": 625,
  "ertain": 626,
  "Ġwhe": 627,
  "Ġbet": 628,
  "ĠK": 629,
  "Ġeven": 630,
  "Ġif": 631,
  "Ġam": 632,
  "ingly": 633,
  "An": 634,
  "Ġsl": 635,
  "wn": 636,
  "ving": 637,
  "ull": 638,
  "ated": 639,
  "less": 640,
  "ice": 641,
  "Ġtime": 642,
  "te": 643,
  "ative": 644,
  "ade": 645,
  "ĠE": 646,
  "ittle": 647,
  "Ġtheir": 648,
  "Ġfunny": 649,
  "Ġem": 650,
  "ense": 651,
  "Ġsub": 652,
  "Ġend": 653,
  "Ġdis": 654,
  "Ġ``": 655,
  "ily": 656,
  "Ġyour": 657,
  "ual": 658,
  "Ġwhat": 659,
  "Ġlook": 660,
  "Ġfa": 661,
  "Ġdram": 662,
  "int": 663,
  "Ġwell": 664,
  "ress": 665,
  "pect": 666,
  "ness": 667,
  "ings": 668,
  "ale": 669,
  "Wh": 670,
  "Ġlittle": 671,
  "Ġri": 672,
  "ans": 673,
  "Ġonly": 674,
  "Ġra": 675,
  "ience": 676,
  "Ġsur": 677,
  "Ġreal": 678,
  "Ġimp": 679,
  "ance": 680,
  "Ġte": 681,
  "Ġlif": 682,
  "own": 683,
  "ost": 684,
  "ose": 685,
  "Ġsomet": 686,
  "Ġme": 687,
  "Ġmake": 688,
  "Ġgo": 689,
  "led": 690,
  "cc": 691,
  "vent": 692,
  "Ġtw": 693,
  "Ġevery": 694,
  "...": 695,
  "Ġwhich": 696,
  "Ġins": 697,
  "Ġbl": 698,
  "ond": 699,
  "ions": 700,
  "aking": 701,
  "Ġscreen": 702,
  "vel": 703,
  "Ġvi": 704,
  "Ġgen": 705,
  "old": 706,
  "Ġget": 707,
  "Ġdirector": 708,
  "Ġbad": 709,
  "Ġnever": 710,
  "Ġdel": 711,
  "ru": 712,
  "ph": 713,
  "Ġthem": 714,
  "Ġseem": 715,
  "Ġmay": 716,
  "Ġbeen": 717,
  "sh": 718,
  "oc": 719,
  "atic": 720,
  "Ġthey": 721,
  "ling": 722,
  "ber": 723,
  "Ġwould": 724,
  "Ġsm": 725,
  "Ġrem": 726,
  "Ġdes": 727,
  "Ġmakes": 728,
  "Ġvery": 729,
  "Ġthrough": 730,
  "Ġlove": 731,
  "ris": 732,
  "ang": 733,
  "ild": 734,
  "ately": 735,
  "Ġthere": 736,
  "Ġro": 737,
  "ren": 738,
  "hed": 739,
  "ame": 740,
  "Ġlife": 741,
  "Ġenough": 742,
  "Ġwatch": 743,
  "Ġother": 744,
  "Ġwas": 745,
  "Ġser": 746,
  "ors": 747,
  "get": 748,
  "ater": 749,
  "Ġentertain": 750,
  "ably": 751,
  "vies": 752,
  "Ġplot": 753,
  "ink": 754,
  "Ġyear": 755,
  "Ġsee": 756,
  "vers": 757,
  "ign": 758,
  "ĠCh": 759,
  "ually": 760,
  "red": 761,
  "ved": 762,
  "ays": 763,
  "Ġmovies": 764,
  "Ġag": 765,
  "ty": 766,
  "Ġbest": 767,
  "ash": 768,
  "Ġunder": 769,
  "Ġpe": 770,
  "leas": 771,
  "Ġheart": 772,
  "urn": 773,
  "Ġcont": 774,
  "Ġaud": 775,
  "Ġres": 776,
  "Ġfam": 777,
  "Ġdrama": 778,
  "Ġ1": 779,
  "ism": 780,
  "ional": 781,
  "inem": 782,
  "ach": 783,
  "Ġeff": 784,
  "Ġart": 785,
  "ting": 786,
  "oth": 787,
  "Ġvis": 788,
  "erest": 789,
  "ents": 790,
  "Ġtra": 791,
  "Ġpart": 792,
  "Ġcould": 793,
  "ock": 794,
  "ath": 795,
  "Ġcast": 796,
  "Ġaction": 797,
  "Ġrom": 798,
  "ike": 799,
  "ian": 800,
  "Ġbr": 801,
  "ject": 802,
  "aw": 803,
  "aut": 804,
  "Ġhow": 805,
  "Ġmade": 806,
  "so": 807,
  "rig": 808,
  "ace": 809,
  "Ġsomething": 810,
  "Ġher": 811,
  "Ġ:": 812,
  "ute": 813,
  "ible": 814,
  "Ġcinem": 815,
  "elling": 816,
  "Ġreally": 817,
  "Ġhard": 818,
  "iv": 819,
  "cial": 820,
  "Ġshould": 821,
  "Ġinterest": 822,
  "There": 823,
  "Ġown": 824,
  "other": 825,
  "imes": 826,
  "If": 827,
  "Ġperformances": 828,
  "Ġmin": 829,
  "les": 830,
  "irst": 831,
  "Ġlong": 832,
  "Ġhumor": 833,
  "Ġfilmm": 834,
  "inal": 835,
  "imp": 836,
  "hes": 837,
  "ature": 838,
  "ument": 839,
  "Ġob": 840,
  "Ġgreat": 841,
  "Ġfilms": 842,
  "Ġcharacter": 843,
  "ĠO": 844,
  "istic": 845,
  "ations": 846,
  "Ġmany": 847,
  "ten": 848,
  "ript": 849,
  "ower": 850,
  "ause": 851,
  "Ġbetter": 852,
  "ob": 853,
  "Ġwhen": 854,
  "view": 855,
  "ople": 856,
  "olly": 857,
  "end": 858,
  "du": 859,
  "Ġlau": 860,
  "row": 861,
  "ree": 862,
  "Ġthrill": 863,
  "Ġscript": 864,
  "Ġaw": 865,
  "Ġwithout": 866,
  "Ġpeople": 867,
  "Ġdoc": 868,
  "Ġatt": 869,
  "sc": 870,
  "ib": 871,
  "cept": 872,
  "Ġnew": 873,
  "Ġdown": 874,
  "ning": 875,
  "In": 876,
  "Ġstr": 877,
  "Ġscen": 878,
  "Ġspe": 879,
  "Ġkn": 880,
  "Ġfirst": 881,
  "umb": 882,
  "igh": 883,
  "arly": 884,
  "Ġdocument": 885,
  "Ġ?": 886,
  "Ġtwo": 887,
  "ks": 888,
  "joy": 889,
  "ather": 890,
  "Ġtri": 891,
  "ome": 892,
  "Ġsurp": 893,
  "Ġstill": 894,
  "Ġinc": 895,
  "Ġever": 896,
  "meric": 897,
  "iful": 898,
  "fully": 899,
  "Ġwo": 900,
  "Ġenjoy": 901,
  "Ġemot": 902,
  "Ġcle": 903,
  "Ġalso": 904,
  "up": 905,
  "ows": 906,
  "fter": 907,
  "ft": 908,
  "Ġsense": 909,
  "Ġrel": 910,
  "Ġrec": 911,
  "Ġche": 912,
  "wood": 913,
  "ins": 914,
  "Ġold": 915,
  "Ġkind": 916,
  "lt": 917,
  "icture": 918,
  "ction": 919,
  "Ġter": 920,
  "Ġimag": 921,
  "Ġke": 922,
  "sy": 923,
  "Ġnothing": 924,
  "Ġmom": 925,
  "Ġgra": 926,
  "Ġgi": 927,
  "Ġcol": 928,
  "Ġboth": 929,
  "Ġbig": 930,
  "What": 931,
  "Ġself": 932,
  "utes": 933,
  "Ġpicture": 934,
  "Ġmy": 935,
  "Ġexc": 936,
  "Ġaudience": 937,
  "thing": 938,
  "ought": 939,
  "ng": 940,
  "iss": 941,
  "Ġwar": 942,
  "Ġthose": 943,
  "Ġmight": 944,
  "Ġlaugh": 945,
  "Ġbel": 946,
  "ky": 947,
  "cause": 948,
  "az": 949,
  "Ġless": 950,
  "Ġhuman": 951,
  "Ġcharm": 952,
  "Ġback": 953,
  "ĠAmeric": 954,
  "ci": 955,
  "Ġworth": 956,
  "Ġset": 957,
  "Ġap": 958,
  "Ġview": 959,
  "Ġide": 960,
  "vid": 961,
  "ount": 962,
  "ollywood": 963,
  "ern": 964,
  "ced": 965,
  "Ġsuch": 966,
  "Ġsty": 967,
  "Ġoften": 968,
  "Ġfind": 969,
  "Ġeng": 970,
  "apt": 971,
  "Ġperformance": 972,
  "Ġpleas": 973,
  "Ġbecause": 974,
  "its": 975,
  "ination": 976,
  "gg": 977,
  "As": 978,
  "ltim": 979,
  "arr": 980,
  "antic": 981,
  "Ġlack": 982,
  "Ġcomple": 983,
  "Ġbeing": 984,
  "Ġbeaut": 985,
  "ween": 986,
  "uff": 987,
  "fic": 988,
  "ord": 989,
  "av": 990,
  "Ġpoint": 991,
  "Ġhere": 992,
  "Ġfar": 993,
  "ross": 994,
  "ered": 995,
  "ates": 996,
  "aster": 997,
  "Ġtal": 998,
  "Ġseems": 999,
  "Ġminutes": 1000,
  "Ġhist": 1001,
  "Ġentertaining": 1002,
  "Ġdocumentary": 1003,
  "Ġtale": 1004,
  "Ġsurpris": 1005,
  "Ġneed": 1006,
  "Ġfre": 1007,
  "Ġexper": 1008,
  "Ġcons": 1009,
  "Ġapp": 1010,
  "ons": 1011,
  "here": 1012,
  "Ġturn": 1013,
  "Ġsat": 1014,
  "Ġplay": 1015,
  "Ġpr": 1016,
  "Ġfew": 1017,
  "Ġbetween": 1018,
  "weet": 1019,
  "ward": 1020,
  "ney": 1021,
  "ically": 1022,
  "app": 1023,
  "Ġthriller": 1024,
  "Ġpret": 1025,
  "Ġpower": 1026,
  "Ġpers": 1027,
  "Ġgr": 1028,
  "Ġcare": 1029,
  "ĠHollywood": 1030,
  "Ġ;": 1031,
  "most": 1032,
  "iece": 1033,
  "arn": 1034,
  "Ġkeep": 1035,
  "Ġgu": 1036,
  "Ġgl": 1037,
  "xt": 1038,
  "olog": 1039,
  "Ġworld": 1040,
  "Ġwant": 1041,
  "Ġshe": 1042,
  "Ġlot": 1043,
  "But": 1044,
  "Ġwere": 1045,
  "Ġthink": 1046,
  "Ġsk": 1047,
  "Ġkid": 1048,
  "Ġhim": 1049,
  "Ġcreat": 1050,
  "Ġacting": 1051,
  "ĠSt": 1052,
  "ying": 1053,
  "ts": 1054,
  "ok": 1055,
  "One": 1056,
  "Ġmus": 1057,
  "Ġfilmmak": 1058,
  "Ġdep": 1059,
  "Ġ2": 1060,
  "ster": 1061,
  "riter": 1062,
  "ner": 1063,
  "iness": 1064,
  "ars": 1065,
  "ane": 1066,
  "\\/": 1067,
  "Ġromantic": 1068,
  "Ġhor": 1069,
  "Ġco": 1070,
  "Ġagain": 1071,
  "Ġafter": 1072,
  "ics": 1073,
  "ier": 1074,
  "dd": 1075,
  "cess": 1076,
  "asc": 1077,
  "Ġwhile": 1078,
  "Ġultim": 1079,
  "Ġsequ": 1080,
  "Ġsin": 1081,
  "Ġmess": 1082,
  "Ġfeels": 1083,
  "Ġeas": 1084,
  "Ġanother": 1085,
  "riginal": 1086,
  "res": 1087,
  "ences": 1088,
  "be": 1089,
  "Ġhigh": 1090,
  "Ġeffect": 1091,
  "Ġalmost": 1092,
  "Ġac": 1093,
  "ures": 1094,
  "ream": 1095,
  "ogue": 1096,
  "ition": 1097,
  "irl": 1098,
  "ia": 1099,
  "fore": 1100,
  "ering": 1101,
  "ellig": 1102,
  "att": 1103,
  "Ġquite": 1104,
  "Ġfamily": 1105,
  "Ġcomes": 1106,
  "Ġca": 1107,
  "Ġbeautiful": 1108,
  "Ġbecom": 1109,
  "read": 1110,
  "Ġtake": 1111,
  "Ġref": 1112,
  "Ġmater": 1113,
  "Ġlea": 1114,
  "Ġitself": 1115,
  "Ġcome": 1116,
  "Ġcra": 1117,
  "Ġactors": 1118,
  "ĠSh": 1119,
  "vin": 1120,
  "ently": 1121,
  "ew": 1122,
  "ead": 1123,
  "dict": 1124,
  "ages": 1125,
  "Ġwom": 1126,
  "Ġthese": 1127,
  "Ġseen": 1128,
  "Ġsimp": 1129,
  "Ġoriginal": 1130,
  "Ġinteresting": 1131,
  "Ġintellig": 1132,
  "Ġexpl": 1133,
  "Ġdial": 1134,
  "Ġcr": 1135,
  "Ġes": 1136,
  "ils": 1137,
  "ching": 1138,
  "alf": 1139,
  "You": 1140,
  "Ġthings": 1141,
  "Ġhad": 1142,
  "Ġgener": 1143,
  "Ġform": 1144,
  "Ġbit": 1145,
  "Ġappe": 1146,
  "play": 1147,
  "ously": 1148,
  "oll": 1149,
  "ility": 1150,
  "iet": 1151,
  "ason": 1152,
  "air": 1153,
  "Ġright": 1154,
  "Ġrather": 1155,
  "Ġmoments": 1156,
  "Ġmaterial": 1157,
  "Ġknow": 1158,
  "Ġdialogue": 1159,
  "Ġbefore": 1160,
  "ĠAmerican": 1161,
  "urd": 1162,
  "ub": 1163,
  "ove": 1164,
  "irit": 1165,
  "fect": 1166,
  "ex": 1167,
  "Ġyoung": 1168,
  "Ġtou": 1169,
  "Ġsubject": 1170,
  "Ġfasc": 1171,
  "Ġext": 1172,
  "Ġel": 1173,
  "Ã©": 1174,
  "ys": 1175,
  "ired": 1176,
  "con": 1177,
  "ange": 1178,
  "Not": 1179,
  "Ġport": 1180,
  "Ġmod": 1181,
  "Ġfr": 1182,
  "Ġcult": 1183,
  "Ġ!": 1184,
  "pite": 1185,
  "nds": 1186,
  "ither": 1187,
  "empt": 1188,
  "Ġstud": 1189,
  "Ġshow": 1190,
  "Ġrep": 1191,
  "Ġrun": 1192,
  "Ġpain": 1193,
  "Ġmem": 1194,
  "Ġind": 1195,
  "Ġflick": 1196,
  "Ġdec": 1197,
  "Ġdist": 1198,
  "of": 1199,
  "irector": 1200,
  "iff": 1201,
  "icul": 1202,
  "iar": 1203,
  "cing": 1204,
  "Ġworks": 1205,
  "Ġthing": 1206,
  "Ġsuper": 1207,
  "Ġsit": 1208,
  "Ġprodu": 1209,
  "Ġportra": 1210,
  "Ġperson": 1211,
  "Ġhour": 1212,
  "Ġfascin": 1213,
  "Ġdet": 1214,
  "ĠY": 1215,
  "vol": 1216,
  "rid": 1217,
  "ec": 1218,
  "Ġyears": 1219,
  "Ġyet": 1220,
  "Ġwhere": 1221,
  "Ġwatching": 1222,
  "Ġvisual": 1223,
  "Ġsmart": 1224,
  "Ġscenes": 1225,
  "Ġinst": 1226,
  "Ġele": 1227,
  "Ġbu": 1228,
  "Ġaff": 1229,
  "sp": 1230,
  "isf": 1231,
  "atter": 1232,
  "Ġunf": 1233,
  "Ġultimately": 1234,
  "Ġsex": 1235,
  "Ġpass": 1236,
  "Ġmaking": 1237,
  "Ġdeli": 1238,
  "Ġchild": 1239,
  "Ġcre": 1240,
  "Ġanim": 1241,
  "ĠSp": 1242,
  "ms": 1243,
  "ionally": 1244,
  "ains": 1245,
  "While": 1246,
  "Like": 1247,
  "Ġthought": 1248,
  "Ġsince": 1249,
  "Ġmind": 1250,
  "Ġleast": 1251,
  "Ġdeep": 1252,
  "Ġdra": 1253,
  "Ġcompelling": 1254,
  "Ġbelie": 1255,
  "Ġir": 1256,
  "Ġed": 1257,
  "ues": 1258,
  "min": 1259,
  "cy": 1260,
  "als": 1261,
  "For": 1262,
  "Ġph": 1263,
  "Ġour": 1264,
  "Ġfascinating": 1265,
  "Ġdull": 1266,
  "Ġdark": 1267,
  "Ġcinema": 1268,
  "Ġabs": 1269,
  "the": 1270,
  "que": 1271,
  "era": 1272,
  "amp": 1273,
  "ality": 1274,
  "Ġwonder": 1275,
  "Ġtry": 1276,
  "Ġspecial": 1277,
  "Ġdirection": 1278,
  "orn": 1279,
  "olid": 1280,
  "me": 1281,
  "Ġstand": 1282,
  "Ġput": 1283,
  "Ġhalf": 1284,
  "Ġgive": 1285,
  "Ġfull": 1286,
  "Ġdem": 1287,
  "Ġconf": 1288,
  "Ġclass": 1289,
  "Ġacc": 1290,
  "ship": 1291,
  "oot": 1292,
  "ool": 1293,
  "king": 1294,
  "iment": 1295,
  "illi": 1296,
  "ilar": 1297,
  "idd": 1298,
  "gy": 1299,
  "eless": 1300,
  "ase": 1301,
  "With": 1302,
  "Ġthen": 1303,
  "Ġtit": 1304,
  "Ġtakes": 1305,
  "Ġstra": 1306,
  "Ġsens": 1307,
  "Ġsay": 1308,
  "Ġrare": 1309,
  "Ġpiece": 1310,
  "Ġonce": 1311,
  "Ġmusic": 1312,
  "Ġgives": 1313,
  "Ġfeature": 1314,
  "Ġcar": 1315,
  "ĠV": 1316,
  "ogra": 1317,
  "iel": 1318,
  "arent": 1319,
  "antly": 1320,
  "St": 1321,
  "Ġwr": 1322,
  "Ġsweet": 1323,
  "Ġpol": 1324,
  "Ġnarr": 1325,
  "Ġmoving": 1326,
  "Ġlight": 1327,
  "Ġgoing": 1328,
  "Ġgets": 1329,
  "Ġener": 1330,
  "Ġeffort": 1331,
  "Ġdef": 1332,
  "Ġclever": 1333,
  "using": 1334,
  "uck": 1335,
  "self": 1336,
  "itive": 1337,
  "ines": 1338,
  "Ġwit": 1339,
  "Ġterri": 1340,
  "Ġtimes": 1341,
  "Ġproble": 1342,
  "Ġmel": 1343,
  "Ġfin": 1344,
  "Ġexperience": 1345,
  "Ġdid": 1346,
  "Ġcapt": 1347,
  "ĠDe": 1348,
  "vious": 1349,
  "hen": 1350,
  "Ġund": 1351,
  "Ġstyle": 1352,
  "Ġshort": 1353,
  "Ġpsy": 1354,
  "Ġmor": 1355,
  "Ġfamil": 1356,
  "Ġexp": 1357,
  "Ġengag": 1358,
  "Ġ19": 1359,
  "ted": 1360,
  "ror": 1361,
  "opp": 1362,
  "Ġsum": 1363,
  "Ġspirit": 1364,
  "Ġpredict": 1365,
  "Ġmed": 1366,
  "Ġdelight": 1367,
  "Ġcomic": 1368,
  "Ġanything": 1369,
  "ĠBl": 1370,
  "uring": 1371,
  "ont": 1372,
  "ix": 1373,
  "aling": 1374,
  "Un": 1375,
  "Ġsure": 1376,
  "Ġstart": 1377,
  "Ġret": 1378,
  "Ġlow": 1379,
  "Ġhistory": 1380,
  "Ġexpect": 1381,
  "Ġconc": 1382,
  "ized": 1383,
  "illy": 1384,
  "els": 1385,
  "aste": 1386,
  "Ġwhy": 1387,
  "Ġvide": 1388,
  "Ġthree": 1389,
  "Ġscreenplay": 1390,
  "Ġsame": 1391,
  "Ġsad": 1392,
  "Ġperfect": 1393,
  "Ġlaughs": 1394,
  "Ġhon": 1395,
  "Ġemotional": 1396,
  "Ġevent": 1397,
  "Ġep": 1398,
  "Ġadd": 1399,
  "ĠSc": 1400,
  "ush": 1401,
  "to": 1402,
  "ssible": 1403,
  "ressive": 1404,
  "ret": 1405,
  "ities": 1406,
  "ird": 1407,
  "ider": 1408,
  "gether": 1409,
  "ceed": 1410,
  "cise": 1411,
  "ank": 1412,
  "Ġtogether": 1413,
  "Ġsucc": 1414,
  "Ġstrong": 1415,
  "Ġserious": 1416,
  "Ġsw": 1417,
  "Ġnarrative": 1418,
  "Ġmaster": 1419,
  "Ġgenre": 1420,
  "ured": 1421,
  "ula": 1422,
  "ug": 1423,
  "stand": 1424,
  "rop": 1425,
  "right": 1426,
  "ract": 1427,
  "ork": 1428,
  "oh": 1429,
  "off": 1430,
  "ments": 1431,
  "iting": 1432,
  "ists": 1433,
  "io": 1434,
  "ever": 1435,
  "Ġuns": 1436,
  "Ġthough": 1437,
  "Ġsometimes": 1438,
  "Ġsent": 1439,
  "Ġprob": 1440,
  "Ġpres": 1441,
  "Ġpop": 1442,
  "Ġlead": 1443,
  "Ġkids": 1444,
  "Ġey": 1445,
  "Ġcomm": 1446,
  "Ġcertain": 1447,
  "Ġass": 1448,
  "Ġ9": 1449,
  "yp": 1450,
  "ric": 1451,
  "ody": 1452,
  "ler": 1453,
  "itten": 1454,
  "ented": 1455,
  "Ġtrag": 1456,
  "Ġtrans": 1457,
  "Ġteen": 1458,
  "Ġsatisf": 1459,
  "Ġpsych": 1460,
  "Ġoffers": 1461,
  "Ġlast": 1462,
  "Ġidea": 1463,
  "Ġfilmmakers": 1464,
  "Ġfact": 1465,
  "Ġentertainment": 1466,
  "Ġcomplete": 1467,
  "Ġcinematic": 1468,
  "Ġaway": 1469,
  "Ġactually": 1470,
  "ural": 1471,
  "odram": 1472,
  "ming": 1473,
  "ited": 1474,
  "ific": 1475,
  "ger": 1476,
  "but": 1477,
  "Even": 1478,
  "Al": 1479,
  "Ġwhose": 1480,
  "Ġseries": 1481,
  "Ġquir": 1482,
  "Ġnow": 1483,
  "Ġmar": 1484,
  "Ġmain": 1485,
  "Ġinf": 1486,
  "Ġhapp": 1487,
  "Ġcred": 1488,
  "Ġbra": 1489,
  "Ġattempt": 1490,
  "ruct": 1491,
  "oring": 1492,
  "ories": 1493,
  "ope": 1494,
  "mp": 1495,
  "iffere": 1496,
  "ek": 1497,
  "Ġwhole": 1498,
  "Ġtitle": 1499,
  "Ġsound": 1500,
  "Ġmodern": 1501,
  "Ġfresh": 1502,
  "Ġfall": 1503,
  "Ġexer": 1504,
  "Ġclic": 1505,
  "ĠTh": 1506,
  "son": 1507,
  "phy": 1508,
  "ots": 1509,
  "ortun": 1510,
  "oint": 1511,
  "het": 1512,
  "ery": 1513,
  "Ġworst": 1514,
  "Ġstudy": 1515,
  "Ġsou": 1516,
  "Ġplace": 1517,
  "Ġprom": 1518,
  "Ġodd": 1519,
  "Ġmelodram": 1520,
  "Ġmanages": 1521,
  "Ġinsp": 1522,
  "Ġinsight": 1523,
  "Ġhead": 1524,
  "Ġhand": 1525,
  "Ġgoes": 1526,
  "Ġfair": 1527,
  "Ġfans": 1528,
  "Ġexercise": 1529,
  "Ġentire": 1530,
  "Ġengaging": 1531,
  "Ġdone": 1532,
  "Ġcoming": 1533,
  "ĠNew": 1534,
  "zy": 1535,
  "ways": 1536,
  "version": 1537,
  "spense": 1538,
  "orge": 1539,
  "mise": 1540,
  "med": 1541,
  "izing": 1542,
  "Ġwomen": 1543,
  "Ġwin": 1544,
  "Ġsuspense": 1545,
  "Ġsimply": 1546,
  "Ġsolid": 1547,
  "Ġprobably": 1548,
  "Ġpremise": 1549,
  "Ġpolit": 1550,
  "Ġop": 1551,
  "Ġmon": 1552,
  "Ġlevel": 1553,
  "Ġfamiliar": 1554,
  "Ġface": 1555,
  "Ġenjoyable": 1556,
  "Ġdev": 1557,
  "Ġaround": 1558,
  "Ġamb": 1559,
  "ustr": 1560,
  "ults": 1561,
  "ude": 1562,
  "rown": 1563,
  "rench": 1564,
  "oof": 1565,
  "itch": 1566,
  "iences": 1567,
  "ention": 1568,
  "come": 1569,
  "br": 1570,
  "ann": 1571,
  "ams": 1572,
  "ail": 1573,
  "aid": 1574,
  "Ġwriter": 1575,
  "Ġvideo": 1576,
  "Ġsmall": 1577,
  "Ġsentiment": 1578,
  "Ġremark": 1579,
  "Ġreason": 1580,
  "Ġpredictable": 1581,
  "Ġportrait": 1582,
  "Ġpar": 1583,
  "Ġmatter": 1584,
  "Ġinter": 1585,
  "Ġhonest": 1586,
  "Ġhel": 1587,
  "Ġflaw": 1588,
  "Ġfilmmaking": 1589,
  "Ġdramatic": 1590,
  "Ġchildren": 1591,
  "Ġanyone": 1592,
  "reak": 1593,
  "otic": 1594,
  "oid": 1595,
  "line": 1596,
  "like": 1597,
  "iction": 1598,
  "ears": 1599,
  "day": 1600,
  "co": 1601,
  "Ġtrue": 1602,
  "Ġtreat": 1603,
  "Ġsurprisingly": 1604,
  "Ġsubt": 1605,
  "Ġstar": 1606,
  "Ġsy": 1607,
  "Ġprof": 1608,
  "Ġparticul": 1609,
  "Ġpat": 1610,
  "Ġpast": 1611,
  "Ġnearly": 1612,
  "Ġhorror": 1613,
  "Ġfant": 1614,
  "Ġdiffere": 1615,
  "Ġcomed": 1616,
  "Ġcou": 1617,
  "ĠBe": 1618,
  "ution": 1619,
  "itting": 1620,
  "ife": 1621,
  "ett": 1622,
  "espite": 1623,
  "by": 1624,
  "``": 1625,
  "Though": 1626,
  "Be": 1627,
  "00": 1628,
  "Ġsuccess": 1629,
  "Ġslow": 1630,
  "Ġsim": 1631,
  "Ġpowerful": 1632,
  "Ġobs": 1633,
  "Ġoper": 1634,
  "Ġmust": 1635,
  "Ġmark": 1636,
  "Ġintrig": 1637,
  "Ġhero": 1638,
  "Ġformula": 1639,
  "Ġflat": 1640,
  "Ġfine": 1641,
  "Ġenergy": 1642,
  "Ġcomplex": 1643,
  "Ġcam": 1644,
  "Ġbecomes": 1645,
  "Ġbeg": 1646,
  "Ġbo": 1647,
  "Ġalways": 1648,
  "Ġadvent": 1649,
  "Ġadm": 1650,
  "ĠSte": 1651,
  "ĠLe": 1652,
  "vis": 1653,
  "used": 1654,
  "telling": 1655,
  "ined": 1656,
  "ied": 1657,
  "elt": 1658,
  "director": 1659,
  "ational": 1660,
  "alk": 1661,
  "Ġword": 1662,
  "Ġsilly": 1663,
  "Ġromance": 1664,
  "Ġquest": 1665,
  "Ġproblem": 1666,
  "Ġpretty": 1667,
  "Ġnor": 1668,
  "Ġmis": 1669,
  "Ġhelp": 1670,
  "Ġfeeling": 1671,
  "Ġamusing": 1672,
  "Ġach": 1673,
  "ĠRob": 1674,
  "ĠMr": 1675,
  "wh": 1676,
  "urp": 1677,
  "ung": 1678,
  "though": 1679,
  "sem": 1680,
  "ological": 1681,
  "okes": 1682,
  "ovie": 1683,
  "oon": 1684,
  "oke": 1685,
  "ize": 1686,
  "ichÃ©": 1687,
  "ha": 1688,
  "cially": 1689,
  "ashion": 1690,
  "allow": 1691,
  "Despite": 1692,
  "Ġwarm": 1693,
  "Ġuni": 1694,
  "Ġur": 1695,
  "Ġtrying": 1696,
  "Ġsummer": 1697,
  "Ġstuff": 1698,
  "Ġslight": 1699,
  "Ġsch": 1700,
  "Ġquirky": 1701,
  "Ġlooking": 1702,
  "Ġhilar": 1703,
  "Ġeffects": 1704,
  "Ġev": 1705,
  "Ġequ": 1706,
  "Ġcontri": 1707,
  "Ġcolle": 1708,
  "ĠclichÃ©": 1709,
  "Ġcharming": 1710,
  "ĠFrench": 1711,
  "ĠCl": 1712,
  "Ġill": 1713,
  "uth": 1714,
  "unch": 1715,
  "uing": 1716,
  "plic": 1717,
  "pecially": 1718,
  "iddle": 1719,
  "ident": 1720,
  "ges": 1721,
  "ening": 1722,
  "edly": 1723,
  "ched": 1724,
  "aps": 1725,
  "And": 1726,
  "Ġviol": 1727,
  "Ġval": 1728,
  "Ġtone": 1729,
  "Ġsec": 1730,
  "Ġsign": 1731,
  "Ġreve": 1732,
  "Ġrich": 1733,
  "Ġocc": 1734,
  "Ġmiss": 1735,
  "Ġma": 1736,
  "Ġlooks": 1737,
  "Ġdeeply": 1738,
  "Ġdi": 1739,
  "ĠAll": 1740,
  "utter": 1741,
  "uine": 1742,
  "time": 1743,
  "riting": 1744,
  "riend": 1745,
  "ron": 1746,
  "ohn": 1747,
  "ov": 1748,
  "ished": 1749,
  "ese": 1750,
  "chn": 1751,
  "ches": 1752,
  "arely": 1753,
  "aced": 1754,
  "ave": 1755,
  "Sh": 1756,
  "Ġunderstand": 1757,
  "Ġturns": 1758,
  "Ġsupp": 1759,
  "Ġstri": 1760,
  "Ġsing": 1761,
  "Ġmean": 1762,
  "Ġmag": 1763,
  "Ġlar": 1764,
  "Ġespecially": 1765,
  "Ġelse": 1766,
  "Ġeasy": 1767,
  "Ġdeser": 1768,
  "Ġdebut": 1769,
  "Ġday": 1770,
  "Ġculture": 1771,
  "Ġconvin": 1772,
  "Ġconst": 1773,
  "Ġcertainly": 1774,
  "Ġbeautifully": 1775,
  "Ġaffect": 1776,
  "ĠRe": 1777,
  "ĠJohn": 1778,
  "ĠJack": 1779,
  "Ġz": 1780,
  "yond": 1781,
  "velop": 1782,
  "udd": 1783,
  "uri": 1784,
  "reme": 1785,
  "pro": 1786,
  "ored": 1787,
  "olds": 1788,
  "lish": 1789,
  "itation": 1790,
  "gu": 1791,
  "gth": 1792,
  "go": 1793,
  "erv": 1794,
  "entious": 1795,
  "ef": 1796,
  "ael": 1797,
  "No": 1798,
  "Ġtop": 1799,
  "Ġtheater": 1800,
  "Ġsuff": 1801,
  "Ġsitu": 1802,
  "Ġsort": 1803,
  "Ġrecent": 1804,
  "Ġrest": 1805,
  "Ġquiet": 1806,
  "Ġplays": 1807,
  "Ġmot": 1808,
  "Ġlikely": 1809,
  "Ġlive": 1810,
  "Ġintelligent": 1811,
  "Ġgri": 1812,
  "Ġexcept": 1813,
  "Ġcut": 1814,
  "Ġbrilli": 1815,
  "Ġbelieve": 1816,
  "Ġabove": 1817,
  "ĠBar": 1818,
  "ĠIt": 1819,
  "yn": 1820,
  "unny": 1821,
  "use": 1822,
  "und": 1823,
  "uly": 1824,
  "ote": 1825,
  "ony": 1826,
  "ira": 1827,
  "ationship": 1828,
  "ai": 1829,
  "Ġtell": 1830,
  "Ġrelationship": 1831,
  "Ġmyster": 1832,
  "Ġintelligence": 1833,
  "Ġideas": 1834,
  "Ġhilarious": 1835,
  "Ġgirl": 1836,
  "Ġeverything": 1837,
  "Ġbook": 1838,
  "Ġactor": 1839,
  "ĠTV": 1840,
  "ĠSe": 1841,
  "Ġversion": 1842,
  "ready": 1843,
  "rag": 1844,
  "ring": 1845,
  "oud": 1846,
  "osed": 1847,
  "orable": 1848,
  "lin": 1849,
  "ires": 1850,
  "elves": 1851,
  "berg": 1852,
  "appoint": 1853,
  "ances": 1854,
  "aged": 1855,
  "Its": 1856,
  "Ġtruly": 1857,
  "Ġstraight": 1858,
  "Ġstories": 1859,
  "Ġsoul": 1860,
  "Ġride": 1861,
  "Ġproves": 1862,
  "Ġpassion": 1863,
  "Ġopera": 1864,
  "Ġnice": 1865,
  "Ġmix": 1866,
  "Ġleave": 1867,
  "Ġjour": 1868,
  "Ġinvol": 1869,
  "Ġgenuine": 1870,
  "Ġgrow": 1871,
  "Ġeveryone": 1872,
  "Ġesc": 1873,
  "Ġemb": 1874,
  "Ġeach": 1875,
  "Ġdirected": 1876,
  "Ġcompletely": 1877,
  "Ġcamera": 1878,
  "Ġcent": 1879,
  "Ġcap": 1880,
  "Ġcal": 1881,
  "Ġbro": 1882,
  "Ġbas": 1883,
  "Ġalready": 1884,
  "Ġalong": 1885,
  "uss": 1886,
  "ump": 1887,
  "uge": 1888,
  "selves": 1889,
  "oub": 1890,
  "orough": 1891,
  "oles": 1892,
  "minute": 1893,
  "lessly": 1894,
  "itty": 1895,
  "ising": 1896,
  "ims": 1897,
  "ichael": 1898,
  "ding": 1899,
  "comp": 1900,
  "comm": 1901,
  "arnest": 1902,
  "any": 1903,
  "Ġweird": 1904,
  "Ġtouching": 1905,
  "Ġstorytelling": 1906,
  "Ġsatisfying": 1907,
  "Ġspect": 1908,
  "Ġread": 1909,
  "Ġquick": 1910,
  "Ġproject": 1911,
  "Ġpleasure": 1912,
  "Ġpot": 1913,
  "Ġobvious": 1914,
  "Ġopp": 1915,
  "Ġnon": 1916,
  "Ġlives": 1917,
  "Ġlacks": 1918,
  "Ġline": 1919,
  "Ġimpro": 1920,
  "Ġfilmmaker": 1921,
  "Ġfantas": 1922,
  "Ġfan": 1923,
  "Ġending": 1924,
  "Ġdisappoint": 1925,
  "Ġdelic": 1926,
  "Ġdead": 1927,
  "Ġdumb": 1928,
  "Ġcreep": 1929,
  "Ġbeyond": 1930,
  "Ġboring": 1931,
  "Ġaudiences": 1932,
  "Ġadventure": 1933,
  "ĠCr": 1934,
  "ĠAn": 1935,
  "ĠAl": 1936,
  "way": 1937,
  "por": 1938,
  "ott": 1939,
  "ma": 1940,
  "ibly": 1941,
  "iest": 1942,
  "hy": 1943,
  "ged": 1944,
  "enty": 1945,
  "ension": 1946,
  "cent": 1947,
  "bout": 1948,
  "Just": 1949,
  "At": 1950,
  "All": 1951,
  "Ġunex": 1952,
  "Ġshows": 1953,
  "Ġsequel": 1954,
  "Ġreg": 1955,
  "Ġmiddle": 1956,
  "Ġmen": 1957,
  "Ġleft": 1958,
  "Ġinstead": 1959,
  "Ġhistor": 1960,
  "Ġexec": 1961,
  "Ġeither": 1962,
  "Ġdream": 1963,
  "Ġcomb": 1964,
  "Ġamount": 1965,
  "Ġagainst": 1966,
  "Ġachie": 1967,
  "Ġair": 1968,
  "ĠSch": 1969,
  "ĠDis": 1970,
  "rt": 1971,
  "ple": 1972,
  "oroughly": 1973,
  "ones": 1974,
  "olute": 1975,
  "ossible": 1976,
  "ley": 1977,
  "let": 1978,
  "ient": 1979,
  "ien": 1980,
  "ets": 1981,
  "ential": 1982,
  "cer": 1983,
  "cceed": 1984,
  "bing": 1985,
  "arp": 1986,
  "arm": 1987,
  "ames": 1988,
  "ape": 1989,
  "Too": 1990,
  "Although": 1991,
  "Ġwoman": 1992,
  "Ġwind": 1993,
  "Ġwild": 1994,
  "Ġtries": 1995,
  "Ġtheat": 1996,
  "Ġterrific": 1997,
  "Ġstrange": 1998,
  "Ġsocial": 1999,
  "Ġsimple": 2000,
  "Ġshot": 2001,
  "Ġshock": 2002,
  "Ġsatire": 2003,
  "Ġsqu": 2004,
  "Ġsn": 2005,
  "Ġrefres": 2006,
  "Ġpoet": 2007,
  "Ġparticularly": 2008,
  "Ġparent": 2009,
  "Ġmood": 2010,
  "Ġmelodrama": 2011,
  "Ġhours": 2012,
  "Ġhimself": 2013,
  "Ġhope": 2014,
  "Ġfails": 2015,
  "Ġfound": 2016,
  "Ġextra": 2017,
  "Ġexam": 2018,
  "Ġdesper": 2019,
  "Ġdefin": 2020,
  "Ġclassic": 2021,
  "Ġbland": 2022,
  "Ġast": 2023,
  "ĠRobert": 2024,
  "ĠDa": 2025,
  "wr": 2026,
  "ulg": 2027,
  "semble": 2028,
  "rise": 2029,
  "ollow": 2030,
  "ography": 2031,
  "nce": 2032,
  "lect": 2033,
  "ked": 2034,
  "ishing": 2035,
  "illing": 2036,
  "gr": 2037,
  "ember": 2038,
  "ellent": 2039,
  "ey": 2040,
  "aring": 2041,
  "alt": 2042,
  "ags": 2043,
  "We": 2044,
  "Unf": 2045,
  "By": 2046,
  "Ġways": 2047,
  "Ġviewers": 2048,
  "Ġune": 2049,
  "Ġthoughtful": 2050,
  "Ġstun": 2051,
  "Ġsoap": 2052,
  "Ġsecond": 2053,
  "Ġscene": 2054,
  "Ġproduction": 2055,
  "Ġpretentious": 2056,
  "Ġpoor": 2057,
  "Ġoccas": 2058,
  "Ġneither": 2059,
  "Ġmoment": 2060,
  "Ġmessage": 2061,
  "Ġjoy": 2062,
  "Ġine": 2063,
  "Ġimpressive": 2064,
  "Ġgrand": 2065,
  "Ġfunn": 2066,
  "Ġforget": 2067,
  "Ġfour": 2068,
  "Ġeasily": 2069,
  "Ġemer": 2070,
  "Ġdrag": 2071,
  "Ġdifferent": 2072,
  "Ġdevelop": 2073,
  "Ġder": 2074,
  "Ġdam": 2075,
  "Ġconcept": 2076,
  "Ġcheap": 2077,
  "Ġcold": 2078,
  "Ġbecome": 2079,
  "ĠMichael": 2080,
  "ĠAr": 2081,
  "ĠZ": 2082,
  "ĠU": 2083,
  "zz": 2084,
  "wise": 2085,
  "upid": 2086,
  "rossing": 2087,
  "rage": 2088,
  "rist": 2089,
  "oney": 2090,
  "ology": 2091,
  "ocative": 2092,
  "ox": 2093,
  "leg": 2094,
  "land": 2095,
  "ival": 2096,
  "iter": 2097,
  "ises": 2098,
  "iously": 2099,
  "inary": 2100,
  "icks": 2101,
  "hel": 2102,
  "fted": 2103,
  "fort": 2104,
  "cul": 2105,
  "cl": 2106,
  "ban": 2107,
  "ball": 2108,
  "avy": 2109,
  "acing": 2110,
  "Every": 2111,
  "Ġwritten": 2112,
  "Ġwonderful": 2113,
  "Ġwa": 2114,
  "Ġvision": 2115,
  "Ġug": 2116,
  "Ġthin": 2117,
  "Ġted": 2118,
  "Ġsubtle": 2119,
  "Ġsubst": 2120,
  "Ġsust": 2121,
  "Ġsucceed": 2122,
  "Ġstandard": 2123,
  "Ġspectac": 2124,
  "Ġseeing": 2125,
  "Ġsle": 2126,
  "Ġrole": 2127,
  "Ġremarkable": 2128,
  "Ġreality": 2129,
  "Ġpersonal": 2130,
  "Ġmet": 2131,
  "Ġlost": 2132,
  "Ġlarge": 2133,
  "Ġjokes": 2134,
  "Ġinside": 2135,
  "Ġimagination": 2136,
  "Ġimages": 2137,
  "Ġgot": 2138,
  "Ġfight": 2139,
  "Ġfig": 2140,
  "Ġexplo": 2141,
  "Ġenth": 2142,
  "Ġdeath": 2143,
  "Ġbring": 2144,
  "Ġappro": 2145,
  "Ġanimation": 2146,
  "Ġactress": 2147,
  "ĠSand": 2148,
  "ĠMy": 2149,
  "ĠHar": 2150,
  "ĠChrist": 2151,
  "Ġve": 2152,
  "Ġutter": 2153,
  "ĠX": 2154,
  "Ġ8": 2155,
  "unk": 2156,
  "tern": 2157,
  "tra": 2158,
  "ouse": 2159,
  "ouble": 2160,
  "lend": 2161,
  "itely": 2162,
  "ital": 2163,
  "isod": 2164,
  "iller": 2165,
  "ele": 2166,
  "bers": 2167,
  "atching": 2168,
  "ashioned": 2169,
  "appy": 2170,
  "ands": 2171,
  "Director": 2172,
  "Ġwriting": 2173,
  "Ġunp": 2174,
  "Ġtrad": 2175,
  "Ġthemselves": 2176,
  "Ġthoroughly": 2177,
  "Ġtechn": 2178,
  "Ġtired": 2179,
  "Ġsoph": 2180,
  "Ġsequences": 2181,
  "Ġscreenw": 2182,
  "Ġrunning": 2183,
  "Ġremind": 2184,
  "Ġremains": 2185,
  "Ġrefreshing": 2186,
  "Ġpsychological": 2187,
  "Ġprov": 2188,
  "Ġposs": 2189,
  "Ġmystery": 2190,
  "Ġmoral": 2191,
  "Ġleaves": 2192,
  "Ġintriguing": 2193,
  "Ġinn": 2194,
  "Ġimpossible": 2195,
  "Ġhorri": 2196,
  "Ġfrustr": 2197,
  "Ġfut": 2198,
  "Ġfriend": 2199,
  "Ġengrossing": 2200,
  "Ġcliches": 2201,
  "Ġclose": 2202,
  "Ġblack": 2203,
  "Ġbreat": 2204,
  "Ġartist": 2205,
  "Ġaut": 2206,
  "ĠII": 2207,
  "ĠFr": 2208,
  "ĠBrit": 2209,
  "Ġ10": 2210,
  "ze": 2211,
  "year": 2212,
  "usion": 2213,
  "ular": 2214,
  "str": 2215,
  "scar": 2216,
  "ression": 2217,
  "piece": 2218,
  "olutely": 2219,
  "oes": 2220,
  "nter": 2221,
  "my": 2222,
  "ively": 2223,
  "itious": 2224,
  "ielberg": 2225,
  "ieces": 2226,
  "ioc": 2227,
  "ially": 2228,
  "hetic": 2229,
  "herent": 2230,
  "hand": 2231,
  "fl": 2232,
  "ensive": 2233,
  "ement": 2234,
  "earing": 2235,
  "ashing": 2236,
  "ability": 2237,
  "ails": 2238,
  "Ch": 2239,
  "Ġwrong": 2240,
  "Ġwel": 2241,
  "Ġviolence": 2242,
  "Ġviewer": 2243,
  "Ġvivid": 2244,
  "Ġunc": 2245,
  "Ġtwist": 2246,
  "Ġtruth": 2247,
  "Ġtold": 2248,
  "Ġtaste": 2249,
  "Ġsurprising": 2250,
  "Ġsurf": 2251,
  "Ġstupid": 2252,
  "Ġslap": 2253,
  "Ġsentimental": 2254,
  "Ġprovid": 2255,
  "Ġprocess": 2256,
  "Ġmemorable": 2257,
  "Ġjourney": 2258,
  "Ġjob": 2259,
  "Ġinvent": 2260,
  "Ġinv": 2261,
  "Ġimport": 2262,
  "Ġhistorical": 2263,
  "Ġhaving": 2264,
  "Ġhuge": 2265,
  "Ġgorge": 2266,
  "Ġforg": 2267,
  "Ġfinally": 2268,
  "Ġfairly": 2269,
  "Ġfram": 2270,
  "Ġfem": 2271,
  "Ġeyes": 2272,
  "Ġextreme": 2273,
  "Ġevents": 2274,
  "Ġepisod": 2275,
  "Ġends": 2276,
  "Ġemotionally": 2277,
  "Ġdespite": 2278,
  "Ġdelivers": 2279,
  "Ġcrime": 2280,
  "Ġcontem": 2281,
  "Ġcomedies": 2282,
  "Ġbrilliant": 2283,
  "Ġbal": 2284,
  "Ġang": 2285,
  "Ġadapt": 2286,
  "Ġav": 2287,
  "ĠMar": 2288,
  "ĠLove": 2289,
  "ĠIs": 2290,
  "ĠGirl": 2291,
  "ĠBro": 2292,
  "Ġ90": 2293,
  "ĠQ": 2294,
  "vable": 2295,
  "uc": 2296,
  "spect": 2297,
  "ried": 2298,
  "rew": 2299,
  "rem": 2300,
  "pped": 2301,
  "orm": 2302,
  "ned": 2303,
  "jor": 2304,
  "ised": 2305,
  "ilty": 2306,
  "ield": 2307,
  "ides": 2308,
  "ibility": 2309,
  "iod": 2310,
  "heart": 2311,
  "hood": 2312,
  "ging": 2313,
  "fashioned": 2314,
  "erous": 2315,
  "entle": 2316,
  "atural": 2317,
  "ats": 2318,
  "atory": 2319,
  "astic": 2320,
  "aph": 2321,
  "af": 2322,
  "When": 2323,
  "That": 2324,
  "Ġwhether": 2325,
  "Ġvirt": 2326,
  "Ġusual": 2327,
  "Ġuses": 2328,
  "Ġunsett": 2329,
  "Ġunexpect": 2330,
  "Ġugly": 2331,
  "Ġtragedy": 2332,
  "Ġtalent": 2333,
  "Ġtar": 2334,
  "Ġskill": 2335,
  "Ġpolitical": 2336,
  "Ġperiod": 2337,
  "Ġpurp": 2338,
  "Ġpure": 2339,
  "Ġpull": 2340,
  "Ġotherwise": 2341,
  "Ġopen": 2342,
  "Ġoffer": 2343,
  "Ġlet": 2344,
  "Ġlist": 2345,
  "Ġinspir": 2346,
  "Ġincl": 2347,
  "Ġheavy": 2348,
  "Ġhy": 2349,
  "Ġhop": 2350,
  "Ġhit": 2351,
  "Ġgiven": 2352,
  "Ġgags": 2353,
  "Ġforce": 2354,
  "Ġfalls": 2355,
  "Ġexcellent": 2356,
  "Ġexist": 2357,
  "Ġentirely": 2358,
  "Ġdepth": 2359,
  "Ġdelightful": 2360,
  "Ġcommun": 2361,
  "Ġcolor": 2362,
  "Ġclear": 2363,
  "Ġchange": 2364,
  "Ġcount": 2365,
  "Ġcor": 2366,
  "Ġcop": 2367,
  "Ġcond": 2368,
  "Ġcase": 2369,
  "Ġbeh": 2370,
  "Ġboy": 2371,
  "ĠYork": 2372,
  "ĠDisney": 2373,
  "Ġer": 2374,
  "urns": 2375,
  "uous": 2376,
  "screen": 2377,
  "rugg": 2378,
  "rant": 2379,
  "pping": 2380,
  "pend": 2381,
  "oying": 2382,
  "light": 2383,
  "li": 2384,
  "ipul": 2385,
  "hop": 2386,
  "ength": 2387,
  "ener": 2388,
  "commend": 2389,
  "cessary": 2390,
  "beat": 2391,
  "aught": 2392,
  "athy": 2393,
  "atest": 2394,
  "anch": 2395,
  "He": 2396,
  "Ġunsettling": 2397,
  "Ġunb": 2398,
  "Ġspark": 2399,
  "Ġsingle": 2400,
  "Ġsharp": 2401,
  "Ġschool": 2402,
  "Ġsci": 2403,
  "Ġscary": 2404,
  "Ġsour": 2405,
  "Ġside": 2406,
  "Ġroll": 2407,
  "Ġrock": 2408,
  "Ġrevel": 2409,
  "Ġrecommend": 2410,
  "Ġpost": 2411,
  "Ġnovel": 2412,
  "Ġnext": 2413,
  "Ġnone": 2414,
  "Ġmostly": 2415,
  "Ġmere": 2416,
  "Ġmer": 2417,
  "Ġlos": 2418,
  "Ġlatest": 2419,
  "Ġiss": 2420,
  "Ġintim": 2421,
  "Ġimm": 2422,
  "Ġhome": 2423,
  "Ġgoof": 2424,
  "Ġgone": 2425,
  "Ġflaws": 2426,
  "Ġeye": 2427,
  "Ġearnest": 2428,
  "Ġdri": 2429,
  "Ġdoub": 2430,
  "Ġdays": 2431,
  "Ġcreepy": 2432,
  "Ġcontrived": 2433,
  "Ġconsider": 2434,
  "Ġconvent": 2435,
  "Ġcoll": 2436,
  "Ġcrit": 2437,
  "Ġcart": 2438,
  "Ġappeal": 2439,
  "Ġanimated": 2440,
  "Ġadults": 2441,
  "Ġabsurd": 2442,
  "Ġable": 2443,
  "ĠWh": 2444,
  "ĠWar": 2445,
  "ĠOscar": 2446,
  "ĠMan": 2447,
  "ĠGod": 2448,
  "ĠAd": 2449,
  "Ġess": 2450,
  "where": 2451,
  "war": 2452,
  "uted": 2453,
  "usi": 2454,
  "udget": 2455,
  "rol": 2456,
  "ries": 2457,
  "ressing": 2458,
  "rence": 2459,
  "rent": 2460,
  "real": 2461,
  "quently": 2462,
  "orld": 2463,
  "oppy": 2464,
  "oph": 2465,
  "omb": 2466,
  "movie": 2467,
  "iled": 2468,
  "fi": 2469,
  "entially": 2470,
  "ene": 2471,
  "elebr": 2472,
  "ee": 2473,
  "chy": 2474,
  "bly": 2475,
  "arily": 2476,
  "ades": 2477,
  "acy": 2478,
  "ax": 2479,
  "ah": 2480,
  "aces": 2481,
  "Some": 2482,
  "Nothing": 2483,
  "More": 2484,
  "Ġwords": 2485,
  "Ġwelcome": 2486,
  "Ġvar": 2487,
  "Ġurban": 2488,
  "Ġtouch": 2489,
  "Ġthemes": 2490,
  "Ġtedious": 2491,
  "Ġtarget": 2492,
  "Ġtalented": 2493,
  "Ġtest": 2494,
  "Ġsymp": 2495,
  "Ġsustain": 2496,
  "Ġremake": 2497,
  "Ġrelationships": 2498,
  "Ġreleas": 2499,
  "Ġrout": 2500,
  "Ġpossible": 2501,
  "Ġparents": 2502,
  "Ġpay": 2503,
  "Ġpack": 2504,
  "Ġobserv": 2505,
  "Ġnature": 2506,
  "Ġmove": 2507,
  "Ġmagic": 2508,
  "Ġmajor": 2509,
  "Ġliter": 2510,
  "Ġimagine": 2511,
  "Ġgetting": 2512,
  "Ġgentle": 2513,
  "Ġflash": 2514,
  "Ġfemale": 2515,
  "Ġfantasy": 2516,
  "Ġfav": 2517,
  "Ġfail": 2518,
  "Ġfollow": 2519,
  "Ġexact": 2520,
  "Ġenc": 2521,
  "Ġduring": 2522,
  "Ġcaptures": 2523,
  "Ġcall": 2524,
  "Ġblood": 2525,
  "Ġbarely": 2526,
  "Ġawful": 2527,
  "Ġattention": 2528,
  "Ġapproach": 2529,
  "Ġappealing": 2530,
  "Ġacted": 2531,
  "ĠSm": 2532,
  "ĠMc": 2533,
  "ĠBig": 2534,
  "Ġ200": 2535,
  "Ġver": 2536,
  "Ġ3": 2537,
  "vide": 2538,
  "uster": 2539,
  "ton": 2540,
  "sw": 2541,
  "ressed": 2542,
  "outh": 2543,
  "osp": 2544,
  "oking": 2545,
  "oss": 2546,
  "kes": 2547,
  "ips": 2548,
  "inct": 2549,
  "inative": 2550,
  "ilos": 2551,
  "illed": 2552,
  "iffic": 2553,
  "ifficult": 2554,
  "ices": 2555,
  "hearted": 2556,
  "gra": 2557,
  "eni": 2558,
  "ened": 2559,
  "eal": 2560,
  "body": 2561,
  "attle": 2562,
  "arts": 2563,
  "arre": 2564,
  "apan": 2565,
  "anks": 2566,
  "ament": 2567,
  "aken": 2568,
  "To": 2569,
  "Pl": 2570,
  "Has": 2571,
  "Fe": 2572,
  "Ex": 2573,
  "Ġvisually": 2574,
  "Ġuse": 2575,
  "Ġthrow": 2576,
  "Ġsurprise": 2577,
  "Ġstylish": 2578,
  "Ġstrugg": 2579,
  "Ġsomeone": 2580,
  "Ġshoot": 2581,
  "Ġresult": 2582,
  "Ġreson": 2583,
  "Ġrarely": 2584,
  "Ġquality": 2585,
  "Ġprim": 2586,
  "Ġpoign": 2587,
  "Ġplenty": 2588,
  "Ġoverall": 2589,
  "Ġopportun": 2590,
  "Ġoccasionally": 2591,
  "Ġmedioc": 2592,
  "Ġmanipul": 2593,
  "Ġmild": 2594,
  "Ġinde": 2595,
  "Ġhands": 2596,
  "Ġgrace": 2597,
  "Ġgorgeous": 2598,
  "Ġgame": 2599,
  "Ġfuture": 2600,
  "Ġful": 2601,
  "Ġfinal": 2602,
  "Ġfelt": 2603,
  "Ġexamination": 2604,
  "Ġepic": 2605,
  "Ġelements": 2606,
  "Ġdeter": 2607,
  "Ġdeliver": 2608,
  "Ġdeft": 2609,
  "Ġdifficult": 2610,
  "Ġdest": 2611,
  "Ġcuri": 2612,
  "Ġcur": 2613,
  "Ġcelebr": 2614,
  "Ġbus": 2615,
  "Ġapart": 2616,
  "Ġant": 2617,
  "Ġambitious": 2618,
  "Ġadaptation": 2619,
  "Ġacross": 2620,
  "Ġaim": 2621,
  "ĠSteven": 2622,
  "ĠPh": 2623,
  "ĠNi": 2624,
  "ĠMart": 2625,
  "ĠHe": 2626,
  "ĠDavid": 2627,
  "ypical": 2628,
  "verse": 2629,
  "vant": 2630,
  "urder": 2631,
  "umph": 2632,
  "umber": 2633,
  "rowd": 2634,
  "reas": 2635,
  "quis": 2636,
  "phic": 2637,
  "par": 2638,
  "ortunately": 2639,
  "orts": 2640,
  "ongs": 2641,
  "omp": 2642,
  "life": 2643,
  "itted": 2644,
  "ids": 2645,
  "ior": 2646,
  "dy": 2647,
  "azz": 2648,
  "avor": 2649,
  "ateur": 2650,
  "ared": 2651,
  "anced": 2652,
  "abor": 2653,
  "\\*": 2654,
  "So": 2655,
  "Ġworking": 2656,
  "Ġworse": 2657,
  "Ġwinning": 2658,
  "Ġwatchable": 2659,
  "Ġwise": 2660,
  "Ġutterly": 2661,
  "Ġunique": 2662,
  "Ġundeni": 2663,
  "Ġunt": 2664,
  "Ġtriumph": 2665,
  "Ġtoward": 2666,
  "Ġsuperfic": 2667,
  "Ġscore": 2668,
  "Ġsac": 2669,
  "Ġreward": 2670,
  "Ġprovocative": 2671,
  "Ġpromise": 2672,
  "Ġprot": 2673,
  "Ġpictures": 2674,
  "Ġpub": 2675,
  "Ġpieces": 2676,
  "Ġname": 2677,
  "Ġmother": 2678,
  "Ġmetaph": 2679,
  "Ġlacking": 2680,
  "Ġknows": 2681,
  "Ġkeeps": 2682,
  "Ġissues": 2683,
  "Ġhack": 2684,
  "Ġhom": 2685,
  "Ġhold": 2686,
  "Ġhip": 2687,
  "Ġframe": 2688,
  "Ġexecution": 2689,
  "Ġensemble": 2690,
  "Ġemotions": 2691,
  "Ġdoubt": 2692,
  "Ġdecent": 2693,
  "Ġdry": 2694,
  "Ġcreative": 2695,
  "Ġcrafted": 2696,
  "Ġcontempor": 2697,
  "Ġcontin": 2698,
  "Ġcomplic": 2699,
  "Ġcool": 2700,
  "ĠclichÃ©s": 2701,
  "Ġcasting": 2702,
  "Ġcareer": 2703,
  "Ġcrowd": 2704,
  "Ġbreath": 2705,
  "Ġbreak": 2706,
  "Ġann": 2707,
  "ĠThing": 2708,
  "ĠSpielberg": 2709,
  "ĠPl": 2710,
  "ĠKiss": 2711,
  "ĠJapan": 2712,
  "ĠIr": 2713,
  "ĠHol": 2714,
  "ĠGreen": 2715,
  "ĠFat": 2716,
  "ĠAbout": 2717,
  "what": 2718,
  "veral": 2719,
  "vil": 2720,
  "ury": 2721,
  "ura": 2722,
  "table": 2723,
  "riters": 2724,
  "owers": 2725,
  "orting": 2726,
  "orth": 2727,
  "orrow": 2728,
  "oose": 2729,
  "oop": 2730,
  "onstr": 2731,
  "over": 2732,
  "ole": 2733,
  "mon": 2734,
  "mist": 2735,
  "key": 2736,
  "izes": 2737,
  "ithful": 2738,
  "inning": 2739,
  "illiams": 2740,
  "idi": 2741,
  "ives": 2742,
  "iven": 2743,
  "hem": 2744,
  "eness": 2745,
  "che": 2746,
  "bute": 2747,
  "asty": 2748,
  "arth": 2749,
  "arl": 2750,
  "amb": 2751,
  "acher": 2752,
  "aff": 2753,
  "De": 2754,
  "After": 2755,
  "Ġwarmth": 2756,
  "Ġwants": 2757,
  "Ġwaste": 2758,
  "Ġwast": 2759,
  "Ġunexpected": 2760,
  "Ġunlike": 2761,
  "Ġtot": 2762,
  "Ġthroughout": 2763,
  "Ġtim": 2764,
  "Ġsuperficial": 2765,
  "Ġsuck": 2766,
  "Ġstep": 2767,
  "Ġsophistic": 2768,
  "Ġsomewhat": 2769,
  "Ġsituations": 2770,
  "Ġsexual": 2771,
  "Ġsets": 2772,
  "Ġsensitive": 2773,
  "Ġseveral": 2774,
  "Ġroad": 2775,
  "Ġrespect": 2776,
  "Ġredu": 2777,
  "Ġquestion": 2778,
  "Ġputs": 2779,
  "Ġprevious": 2780,
  "Ġplaying": 2781,
  "Ġplain": 2782,
  "Ġphilos": 2783,
  "Ġperfectly": 2784,
  "Ġpath": 2785,
  "Ġpacing": 2786,
  "Ġpace": 2787,
  "Ġones": 2788,
  "Ġneeds": 2789,
  "Ġnatural": 2790,
  "Ġmemory": 2791,
  "Ġmasterpiece": 2792,
  "Ġmarvel": 2793,
  "Ġmanner": 2794,
  "Ġliked": 2795,
  "Ġlim": 2796,
  "Ġincred": 2797,
  "Ġimportant": 2798,
  "Ġgun": 2799,
  "Ġfast": 2800,
  "Ġfare": 2801,
  "Ġexactly": 2802,
  "Ġescap": 2803,
  "Ġenthusi": 2804,
  "Ġeleg": 2805,
  "Ġdisc": 2806,
  "Ġdesign": 2807,
  "Ġdefinitely": 2808,
  "Ġdig": 2809,
  "Ġconvincing": 2810,
  "Ġcontemporary": 2811,
  "Ġconcl": 2812,
  "Ġcartoon": 2813,
  "Ġcru": 2814,
  "Ġcost": 2815,
  "Ġbi": 2816,
  "Ġamateur": 2817,
  "ĠTime": 2818,
  "ĠSec": 2819,
  "ĠOr": 2820,
  "ĠIn": 2821,
  "ĠHome": 2822,
  "ĠDan": 2823,
  "ĠChan": 2824,
  "ĠAmerica": 2825,
  "Ġ2002": 2826,
  "Ġing": 2827,
  "vision": 2828,
  "vey": 2829,
  "vice": 2830,
  "urphy": 2831,
  "umbers": 2832,
  "ugg": 2833,
  "scious": 2834,
  "rical": 2835,
  "oore": 2836,
  "onic": 2837,
  "omet": 2838,
  "oice": 2839,
  "nding": 2840,
  "nect": 2841,
  "mosp": 2842,
  "mark": 2843,
  "kward": 2844,
  "ivity": 2845,
  "irc": 2846,
  "insp": 2847,
  "insky": 2848,
  "inger": 2849,
  "ino": 2850,
  "ilt": 2851,
  "ilm": 2852,
  "ichol": 2853,
  "ium": 2854,
  "hyth": 2855,
  "fying": 2856,
  "eth": 2857,
  "eter": 2858,
  "ended": 2859,
  "eorge": 2860,
  "decess": 2861,
  "char": 2862,
  "azing": 2863,
  "atingly": 2864,
  "ator": 2865,
  "angu": 2866,
  "ander": 2867,
  "add": 2868,
  "action": 2869,
  "acks": 2870,
  "awn": 2871,
  "Re": 2872,
  "70": 2873,
  "Ġworthy": 2874,
  "Ġweak": 2875,
  "Ġwitty": 2876,
  "Ġwish": 2877,
  "Ġviewing": 2878,
  "Ġunfunny": 2879,
  "Ġuneven": 2880,
  "Ġtribute": 2881,
  "Ġthanks": 2882,
  "Ġtick": 2883,
  "Ġsurprises": 2884,
  "Ġsupposed": 2885,
  "Ġsuccessful": 2886,
  "Ġstruct": 2887,
  "Ġsounds": 2888,
  "Ġsoci": 2889,
  "Ġslightly": 2890,
  "Ġsexy": 2891,
  "Ġsick": 2892,
  "Ġsaw": 2893,
  "Ġroom": 2894,
  "Ġrid": 2895,
  "Ġred": 2896,
  "Ġrhyth": 2897,
  "Ġpurpose": 2898,
  "Ġproduct": 2899,
  "Ġproblems": 2900,
  "Ġprec": 2901,
  "Ġpun": 2902,
  "Ġpu": 2903,
  "Ġmonster": 2904,
  "Ġmoney": 2905,
  "Ġmid": 2906,
  "Ġmatch": 2907,
  "Ġlots": 2908,
  "Ġliving": 2909,
  "Ġleads": 2910,
  "Ġloud": 2911,
  "Ġland": 2912,
  "Ġintent": 2913,
  "Ġintense": 2914,
  "Ġinsightful": 2915,
  "Ġinclud": 2916,
  "Ġhar": 2917,
  "Ġgeneric": 2918,
  "Ġfrequently": 2919,
  "Ġfoot": 2920,
  "Ġepisode": 2921,
  "Ġencou": 2922,
  "Ġempt": 2923,
  "Ġemp": 2924,
  "Ġdog": 2925,
  "Ġdeserves": 2926,
  "Ġderiv": 2927,
  "Ġden": 2928,
  "Ġcultural": 2929,
  "Ġcreates": 2930,
  "Ġcreate": 2931,
  "Ġcouple": 2932,
  "Ġconventional": 2933,
  "Ġconstruct": 2934,
  "Ġconsist": 2935,
  "Ġcommer": 2936,
  "Ġcinemat": 2937,
  "Ġcharism": 2938,
  "Ġcalled": 2939,
  "Ġcross": 2940,
  "Ġcamp": 2941,
  "Ġbuild": 2942,
  "Ġbrain": 2943,
  "Ġbrings": 2944,
  "Ġbegins": 2945,
  "Ġbod": 2946,
  "Ġbar": 2947,
  "Ġawkward": 2948,
  "Ġattract": 2949,
  "Ġatmosp": 2950,
  "Ġapparent": 2951,
  "Ġamong": 2952,
  "Ġago": 2953,
  "Ġaccom": 2954,
  "Ġabsolutely": 2955,
  "Ġability": 2956,
  "ĠWed": 2957,
  "ĠSandler": 2958,
  "ĠSol": 2959,
  "ĠMovie": 2960,
  "ĠMon": 2961,
  "ĠGu": 2962,
  "ĠGrant": 2963,
  "ĠDam": 2964,
  "ĠAllen": 2965,
  "ĠAt": 2966,
  "Ġ5": 2967,
  "yal": 2968,
  "wo": 2969,
  "versal": 2970,
  "uses": 2971,
  "urs": 2972,
  "sequ": 2973,
  "rap": 2974,
  "rous": 2975,
  "round": 2976,
  "ral": 2977,
  "prov": 2978,
  "oys": 2979,
  "ousy": 2980,
  "oup": 2981,
  "ondz": 2982,
  "oder": 2983,
  "mers": 2984,
  "ister": 2985,
  "iresome": 2986,
  "ingu": 2987,
  "ina": 2988,
  "iche": 2989,
  "hent": 2990,
  "haps": 2991,
  "form": 2992,
  "felt": 2993,
  "erson": 2994,
  "enn": 2995,
  "ellect": 2996,
  "bo": 2997,
  "assion": 2998,
  "andon": 2999,
  "andering": 3000,
  "alling": 3001,
  "allen": 3002,
  "aly": 3003,
  "Sp": 3004,
  "Much": 3005,
  "Most": 3006,
  "Man": 3007,
  "Ġwater": 3008,
  "Ġusually": 3009,
  "Ġupon": 3010,
  "Ġtwists": 3011,
  "Ġtreatment": 3012,
  "Ġthinking": 3013,
  "Ġterms": 3014,
  "Ġtext": 3015,
  "Ġtaking": 3016,
  "Ġsurface": 3017,
  "Ġsucceeds": 3018,
  "Ġstarts": 3019,
  "Ġstren": 3020,
  "Ġstere": 3021,
  "Ġspiritual": 3022,
  "Ġspectacle": 3023,
  "Ġsophisticated": 3024,
  "Ġsket": 3025,
  "Ġsituation": 3026,
  "Ġshame": 3027,
  "Ġseriously": 3028,
  "Ġsitting": 3029,
  "Ġruns": 3030,
  "Ġrive": 3031,
  "Ġrip": 3032,
  "Ġreveals": 3033,
  "Ġrepet": 3034,
  "Ġquickly": 3035,
  "Ġprovides": 3036,
  "Ġprop": 3037,
  "Ġpredecess": 3038,
  "Ġpoorly": 3039,
  "Ġpointless": 3040,
  "Ġpoetry": 3041,
  "Ġplaces": 3042,
  "Ġpainfully": 3043,
  "Ġpainful": 3044,
  "Ġpos": 3045,
  "Ġpick": 3046,
  "Ġovercome": 3047,
  "Ġothers": 3048,
  "Ġord": 3049,
  "Ġnear": 3050,
  "Ġminor": 3051,
  "Ġmerely": 3052,
  "Ġmeaning": 3053,
  "Ġmeans": 3054,
  "Ġmanipulative": 3055,
  "Ġlovely": 3056,
  "Ġlets": 3057,
  "Ġlength": 3058,
  "Ġju": 3059,
  "Ġinventive": 3060,
  "Ġinterested": 3061,
  "Ġinept": 3062,
  "Ġindie": 3063,
  "Ġimpact": 3064,
  "Ġhighly": 3065,
  "Ġhardly": 3066,
  "Ġham": 3067,
  "Ġguys": 3068,
  "Ġguess": 3069,
  "Ġgross": 3070,
  "Ġgang": 3071,
  "Ġfunnier": 3072,
  "Ġfully": 3073,
  "Ġflicks": 3074,
  "Ġflawed": 3075,
  "Ġfinds": 3076,
  "Ġfill": 3077,
  "Ġfigure": 3078,
  "Ġextraord": 3079,
  "Ġexciting": 3080,
  "Ġequally": 3081,
  "Ġendearing": 3082,
  "Ġedge": 3083,
  "Ġdoing": 3084,
  "Ġdevast": 3085,
  "Ġderivative": 3086,
  "Ġdepressing": 3087,
  "Ġdemonstr": 3088,
  "Ġdre": 3089,
  "Ġdr": 3090,
  "Ġdim": 3091,
  "Ġdate": 3092,
  "Ġcreated": 3093,
  "Ġconsiderable": 3094,
  "Ġconfl": 3095,
  "Ġconcern": 3096,
  "Ġcompany": 3097,
  "Ġcommercial": 3098,
  "Ġcomfort": 3099,
  "Ġcolorful": 3100,
  "Ġcollege": 3101,
  "Ġclearly": 3102,
  "Ġclum": 3103,
  "Ġcris": 3104,
  "Ġcore": 3105,
  "Ġbelievable": 3106,
  "Ġbehind": 3107,
  "Ġbeauty": 3108,
  "Ġbur": 3109,
  "Ġbattle": 3110,
  "Ġavoid": 3111,
  "Ġaspect": 3112,
  "Ġarri": 3113,
  "Ġansw": 3114,
  "Ġamateurish": 3115,
  "Ġallows": 3116,
  "Ġaltern": 3117,
  "Ġages": 3118,
  "Ġaffection": 3119,
  "Ġachieve": 3120,
  "Ġaccompl": 3121,
  "Ġaccept": 3122,
  "Ġabsor": 3123,
  "ĠWild": 3124,
  "ĠSpy": 3125,
  "ĠSn": 3126,
  "ĠPark": 3127,
  "ĠMurphy": 3128,
  "ĠMoore": 3129,
  "ĠJackson": 3130,
  "ĠInd": 3131,
  "ĠBritish": 3132,
  "ĠBull": 3133,
  "Ġ4": 3134,
  "while": 3135,
  "volution": 3136,
  "verage": 3137,
  "ustry": 3138,
  "ume": 3139,
  "stream": 3140,
  "stick": 3141,
  "stead": 3142,
  "side": 3143,
  "rug": 3144,
  "room": 3145,
  "resents": 3146,
  "redict": 3147,
  "reci": 3148,
  "reaking": 3149,
  "quent": 3150,
  "provoking": 3151,
  "ottom": 3152,
  "ops": 3153,
  "onishing": 3154,
  "omen": 3155,
  "oman": 3156,
  "oderber": 3157,
  "oderbergh": 3158,
  "oe": 3159,
  "nces": 3160,
  "na": 3161,
  "mistry": 3162,
  "medi": 3163,
  "ledge": 3164,
  "lex": 3165,
  "kn": 3166,
  "ki": 3167,
  "ishes": 3168,
  "irty": 3169,
  "inn": 3170,
  "imal": 3171,
  "ify": 3172,
  "ief": 3173,
  "iculous": 3174,
  "how": 3175,
  "ggest": 3176,
  "eyed": 3177,
  "estival": 3178,
  "ency": 3179,
  "ein": 3180,
  "down": 3181,
  "cal": 3182,
  "bs": 3183,
  "atever": 3184,
  "arring": 3185,
  "aris": 3186,
  "ants": 3187,
  "anging": 3188,
  "anchise": 3189,
  "ancy": 3190,
  "alan": 3191,
  "aks": 3192,
  "akers": 3193,
  "ague": 3194,
  "agon": 3195,
  "agger": 3196,
  "aust": 3197,
  "aul": 3198,
  "Watching": 3199,
  "They": 3200,
  "Those": 3201,
  "May": 3202,
  "Instead": 3203,
  "Both": 3204,
  "Bl": 3205,
  "Any": 3206,
  "Ad": 3207,
  "Ġworthwhile": 3208,
  "Ġvict": 3209,
  "Ġused": 3210,
  "Ġuntil": 3211,
  "Ġunus": 3212,
  "Ġunint": 3213,
  "Ġuncon": 3214,
  "Ġtragic": 3215,
  "Ġtele": 3216,
  "Ġtypical": 3217,
  "Ġtiresome": 3218,
  "Ġtension": 3219,
  "Ġtear": 3220,
  "Ġsurvi": 3221,
  "Ġsuffers": 3222,
  "Ġsuggest": 3223,
  "Ġstyl": 3224,
  "Ġstereot": 3225,
  "Ġste": 3226,
  "Ġstars": 3227,
  "Ġsplend": 3228,
  "Ġshots": 3229,
  "Ġshare": 3230,
  "Ġshallow": 3231,
  "Ġsett": 3232,
  "Ġseat": 3233,
  "Ġseason": 3234,
  "Ġresp": 3235,
  "Ġremarkably": 3236,
  "Ġrecord": 3237,
  "Ġrealistic": 3238,
  "Ġreach": 3239,
  "Ġpubl": 3240,
  "Ġpresent": 3241,
  "Ġpoints": 3242,
  "Ġplease": 3243,
  "Ġphot": 3244,
  "Ġpul": 3245,
  "Ġpap": 3246,
  "Ġopportunity": 3247,
  "Ġmoviego": 3248,
  "Ġmotion": 3249,
  "Ġmodest": 3250,
  "Ġmetaphor": 3251,
  "Ġmediocre": 3252,
  "Ġmeditation": 3253,
  "Ġmaint": 3254,
  "Ġmach": 3255,
  "Ġlog": 3256,
  "Ġlangu": 3257,
  "Ġjustice": 3258,
  "Ġirre": 3259,
  "Ġinvolving": 3260,
  "Ġinvolved": 3261,
  "Ġintimate": 3262,
  "Ġintro": 3263,
  "Ġintellect": 3264,
  "Ġhumanity": 3265,
  "Ġhowever": 3266,
  "Ġheartfelt": 3267,
  "Ġhaun": 3268,
  "Ġground": 3269,
  "Ġgoofy": 3270,
  "Ġglimp": 3271,
  "Ġgif": 3272,
  "Ġfranchise": 3273,
  "Ġforced": 3274,
  "Ġfear": 3275,
  "Ġfol": 3276,
  "Ġfive": 3277,
  "Ġexcit": 3278,
  "Ġeffective": 3279,
  "Ġeth": 3280,
  "Ġdevoid": 3281,
  "Ġdesc": 3282,
  "Ġdelicate": 3283,
  "Ġdeal": 3284,
  "Ġcredit": 3285,
  "Ġconclusion": 3286,
  "Ġconv": 3287,
  "Ġcinematography": 3288,
  "Ġchemistry": 3289,
  "Ġchallen": 3290,
  "Ġcour": 3291,
  "Ġbrut": 3292,
  "Ġbeha": 3293,
  "Ġbased": 3294,
  "Ġbright": 3295,
  "Ġbore": 3296,
  "Ġattempts": 3297,
  "Ġallow": 3298,
  "ĠWorld": 3299,
  "ĠTom": 3300,
  "ĠShow": 3301,
  "ĠSw": 3302,
  "ĠNichol": 3303,
  "ĠKing": 3304,
  "ĠGeorge": 3305,
  "ĠFrid": 3306,
  "ĠDrag": 3307,
  "ĠDog": 3308,
  "ĠDay": 3309,
  "ĠCrush": 3310,
  "ĠBullock": 3311,
  "ĠAm": 3312,
  "Ġ20": 3313,
  "Ġera": 3314,
  "zen": 3315,
  "yle": 3316,
  "yc": 3317,
  "yan": 3318,
  "written": 3319,
  "warming": 3320,
  "vern": 3321,
  "uter": 3322,
  "umbs": 3323,
  "umble": 3324,
  "ulgent": 3325,
  "uls": 3326,
  "ux": 3327,
  "uct": 3328,
  "tend": 3329,
  "otten": 3330,
  "osity": 3331,
  "orous": 3332,
  "ority": 3333,
  "oody": 3334,
  "oget": 3335,
  "ogether": 3336,
  "offman": 3337,
  "ocused": 3338,
  "night": 3339,
  "nes": 3340,
  "making": 3341,
  "made": 3342,
  "lo": 3343,
  "kin": 3344,
  "kable": 3345,
  "iveness": 3346,
  "itative": 3347,
  "inks": 3348,
  "inded": 3349,
  "iny": 3350,
  "ights": 3351,
  "ifully": 3352,
  "identity": 3353,
  "icle": 3354,
  "ived": 3355,
  "hentic": 3356,
  "handed": 3357,
  "hilar": 3358,
  "gged": 3359,
  "good": 3360,
  "gn": 3361,
  "gl": 3362,
  "field": 3363,
  "erk": 3364,
  "eper": 3365,
  "chool": 3366,
  "cult": 3367,
  "corn": 3368,
  "cies": 3369,
  "bel": 3370,
  "bed": 3371,
  "azy": 3372,
  "awrence": 3373,
  "asm": 3374,
  "ashed": 3375,
  "arity": 3376,
  "arch": 3377,
  "arc": 3378,
  "arant": 3379,
  "ara": 3380,
  "ancing": 3381,
  "alls": 3382,
  "alian": 3383,
  "aked": 3384,
  "agg": 3385,
  "acious": 3386,
  "abl": 3387,
  "aven": 3388,
  "Writer": 3389,
  "Ste": 3390,
  "On": 3391,
  "Mr": 3392,
  "MA": 3393,
  "MAX": 3394,
  "Le": 3395,
  "Feels": 3396,
  "Beaut": 3397,
  "Ġyourself": 3398,
  "Ġyarn": 3399,
  "Ġweight": 3400,
  "Ġwasted": 3401,
  "Ġwond": 3402,
  "Ġvirtually": 3403,
  "Ġvalue": 3404,
  "Ġvill": 3405,
  "Ġunre": 3406,
  "Ġultimate": 3407,
  "Ġtrip": 3408,
  "Ġtransce": 3409,
  "Ġtoday": 3410,
  "Ġthrills": 3411,
  "Ġterrible": 3412,
  "Ġtur": 3413,
  "Ġtelling": 3414,
  "Ġsurround": 3415,
  "Ġstoryline": 3416,
  "Ġspook": 3417,
  "Ġsomehow": 3418,
  "Ġsoon": 3419,
  "Ġslapstick": 3420,
  "Ġskin": 3421,
  "Ġsincere": 3422,
  "Ġsheer": 3423,
  "Ġsetting": 3424,
  "Ġserved": 3425,
  "Ġspl": 3426,
  "Ġsav": 3427,
  "Ġsappy": 3428,
  "Ġroutine": 3429,
  "Ġriveting": 3430,
  "Ġridiculous": 3431,
  "Ġrealism": 3432,
  "Ġrap": 3433,
  "Ġrad": 3434,
  "Ġquietly": 3435,
  "Ġquestions": 3436,
  "Ġprotagon": 3437,
  "Ġprofess": 3438,
  "Ġprovide": 3439,
  "Ġprep": 3440,
  "Ġpopcorn": 3441,
  "Ġpolitics": 3442,
  "Ġpleasant": 3443,
  "Ġparty": 3444,
  "Ġpaper": 3445,
  "Ġpract": 3446,
  "Ġpit": 3447,
  "Ġpile": 3448,
  "Ġoffensive": 3449,
  "Ġobsess": 3450,
  "Ġneeded": 3451,
  "Ġnumber": 3452,
  "Ġnight": 3453,
  "Ġmissing": 3454,
  "Ġmindless": 3455,
  "Ġmelodramatic": 3456,
  "Ġmainstream": 3457,
  "Ġmurder": 3458,
  "Ġmist": 3459,
  "Ġmes": 3460,
  "Ġloss": 3461,
  "Ġlate": 3462,
  "Ġlab": 3463,
  "Ġintrigue": 3464,
  "Ġinsult": 3465,
  "Ġindustry": 3466,
  "Ġincredibly": 3467,
  "Ġinex": 3468,
  "Ġimmedi": 3469,
  "Ġheartb": 3470,
  "Ġhell": 3471,
  "Ġhappen": 3472,
  "Ġguilty": 3473,
  "Ġgripping": 3474,
  "Ġgrief": 3475,
  "Ġgreatest": 3476,
  "Ġgroup": 3477,
  "Ġgenuinely": 3478,
  "Ġgeneral": 3479,
  "Ġgut": 3480,
  "Ġgay": 3481,
  "Ġfriendship": 3482,
  "Ġformulaic": 3483,
  "Ġfavor": 3484,
  "Ġfree": 3485,
  "Ġfore": 3486,
  "Ġfire": 3487,
  "Ġfiction": 3488,
  "Ġexplor": 3489,
  "Ġexcitement": 3490,
  "Ġeventually": 3491,
  "Ġempty": 3492,
  "Ġemerges": 3493,
  "Ġemph": 3494,
  "Ġdraw": 3495,
  "Ġdisco": 3496,
  "Ġdetail": 3497,
  "Ġdecades": 3498,
  "Ġdecept": 3499,
  "Ġconflict": 3500,
  "Ġcomputer": 3501,
  "Ġcommunity": 3502,
  "Ġchees": 3503,
  "Ġcentral": 3504,
  "Ġcaptiv": 3505,
  "Ġcyn": 3506,
  "Ġcat": 3507,
  "Ġcand": 3508,
  "Ġbusiness": 3509,
  "Ġbottom": 3510,
  "Ġbold": 3511,
  "Ġarg": 3512,
  "Ġappreci": 3513,
  "Ġangst": 3514,
  "Ġalone": 3515,
  "Ġalive": 3516,
  "Ġalien": 3517,
  "Ġaffair": 3518,
  "Ġaccess": 3519,
  "Ġabsorbing": 3520,
  "Ġage": 3521,
  "ĠWilliams": 3522,
  "ĠWest": 3523,
  "ĠWe": 3524,
  "ĠTr": 3525,
  "ĠRock": 3526,
  "ĠPol": 3527,
  "ĠNiro": 3528,
  "ĠNe": 3529,
  "ĠMs": 3530,
  "ĠMor": 3531,
  "ĠKe": 3532,
  "ĠIMAX": 3533,
  "ĠHow": 3534,
  "ĠDragon": 3535,
  "ĠDick": 3536,
  "ĠBrown": 3537,
  "Ġly": 3538,
  "Ġign": 3539,
  "Ġidi": 3540,
  "Ġic": 3541,
  "Ġest": 3542,
  "xic": 3543,
  "writer": 3544,
  "work": 3545,
  "vert": 3546,
  "urther": 3547,
  "ups": 3548,
  "udlin": 3549,
  "uit": 3550,
  "track": 3551,
  "teen": 3552,
  "rian": 3553,
  "reek": 3554,
  "rest": 3555,
  "rageous": 3556,
  "rum": 3557,
  "oyant": 3558,
  "ours": 3559,
  "others": 3560,
  "osition": 3561,
  "orious": 3562,
  "ograp": 3563,
  "neyed": 3564,
  "nox": 3565,
  "nam": 3566,
  "miss": 3567,
  "minded": 3568,
  "mas": 3569,
  "leby": 3570,
  "lu": 3571,
  "kins": 3572,
  "ken": 3573,
  "itude": 3574,
  "itional": 3575,
  "itable": 3576,
  "inspired": 3577,
  "ining": 3578,
  "imag": 3579,
  "ilities": 3580,
  "iling": 3581,
  "iler": 3582,
  "ified": 3583,
  "ided": 3584,
  "icking": 3585,
  "icism": 3586,
  "ique": 3587,
  "hilarating": 3588,
  "hens": 3589,
  "head": 3590,
  "guise": 3591,
  "girl": 3592,
  "ety": 3593,
  "etic": 3594,
  "erry": 3595,
  "ero": 3596,
  "eds": 3597,
  "een": 3598,
  "dden": 3599,
  "cher": 3600,
  "bl": 3601,
  "atively": 3602,
  "athers": 3603,
  "ases": 3604,
  "arrass": 3605,
  "anski": 3606,
  "alism": 3607,
  "agal": 3608,
  "ady": 3609,
  "ached": 3610,
  "aving": 3611,
  "aithful": 3612,
  "ailed": 3613,
  "Well": 3614,
  "She": 3615,
  "Pro": 3616,
  "Off": 3617,
  "How": 3618,
  "En": 3619,
  "Does": 3620,
  "Cont": 3621,
  "Con": 3622,
  "Ġwonderfully": 3623,
  "Ġwilling": 3624,
  "Ġwildly": 3625,
  "Ġwalk": 3626,
  "Ġviscer": 3627,
  "Ġvibr": 3628,
  "Ġvoice": 3629,
  "Ġuniversal": 3630,
  "Ġtwice": 3631,
  "Ġtrick": 3632,
  "Ġtrash": 3633,
  "Ġtells": 3634,
  "Ġtaken": 3635,
  "Ġstudio": 3636,
  "Ġstriking": 3637,
  "Ġstrength": 3638,
  "Ġstrangely": 3639,
  "Ġstir": 3640,
  "Ġstay": 3641,
  "Ġstage": 3642,
  "Ġspec": 3643,
  "Ġsports": 3644,
  "Ġspace": 3645,
  "Ġsoundtrack": 3646,
  "Ġsmile": 3647,
  "Ġsloppy": 3648,
  "Ġslip": 3649,
  "Ġshap": 3650,
  "Ġservice": 3651,
  "Ġsequence": 3652,
  "Ġscream": 3653,
  "Ġswe": 3654,
  "Ġsides": 3655,
  "Ġsaid": 3656,
  "Ġroot": 3657,
  "Ġresults": 3658,
  "Ġremain": 3659,
  "Ġrelease": 3660,
  "Ġregard": 3661,
  "Ġrecyc": 3662,
  "Ġrequ": 3663,
  "Ġraw": 3664,
  "Ġprofound": 3665,
  "Ġproceed": 3666,
  "Ġpresents": 3667,
  "Ġpoignant": 3668,
  "Ġponder": 3669,
  "Ġperspect": 3670,
  "Ġperformers": 3671,
  "Ġparticular": 3672,
  "Ġpunch": 3673,
  "Ġoddly": 3674,
  "Ġobject": 3675,
  "Ġnotice": 3676,
  "Ġnicely": 3677,
  "Ġnecessary": 3678,
  "Ġmixed": 3679,
  "Ġmildly": 3680,
  "Ġmesmer": 3681,
  "Ġmembers": 3682,
  "Ġmeas": 3683,
  "Ġmat": 3684,
  "Ġload": 3685,
  "Ġlargely": 3686,
  "Ġlame": 3687,
  "Ġjoke": 3688,
  "Ġirrit": 3689,
  "Ġintoxic": 3690,
  "Ġintended": 3691,
  "Ġinspired": 3692,
  "Ġinco": 3693,
  "Ġimaginative": 3694,
  "Ġhaunting": 3695,
  "Ġhappens": 3696,
  "Ġhackneyed": 3697,
  "Ġhyp": 3698,
  "Ġhot": 3699,
  "Ġguy": 3700,
  "Ġgrowing": 3701,
  "Ġgenerally": 3702,
  "Ġge": 3703,
  "Ġfrustrating": 3704,
  "Ġforgettable": 3705,
  "Ġfootage": 3706,
  "Ġfinish": 3707,
  "Ġfilled": 3708,
  "Ġfailure": 3709,
  "Ġfaith": 3710,
  "Ġfright": 3711,
  "Ġfit": 3712,
  "Ġfashion": 3713,
  "Ġextremely": 3714,
  "Ġextraordinary": 3715,
  "Ġexploration": 3716,
  "Ġexcuse": 3717,
  "Ġexcess": 3718,
  "Ġevil": 3719,
  "Ġemphas": 3720,
  "Ġembra": 3721,
  "Ġelo": 3722,
  "Ġediting": 3723,
  "Ġdisp": 3724,
  "Ġdisaster": 3725,
  "Ġdirectorial": 3726,
  "Ġdeserve": 3727,
  "Ġdescri": 3728,
  "Ġdesp": 3729,
  "Ġdrug": 3730,
  "Ġdazz": 3731,
  "Ġcredits": 3732,
  "Ġcrack": 3733,
  "Ġcountry": 3734,
  "Ġconviction": 3735,
  "Ġcontra": 3736,
  "Ġconsid": 3737,
  "Ġconnect": 3738,
  "Ġcomplicated": 3739,
  "Ġcompet": 3740,
  "Ġcollection": 3741,
  "Ġcliche": 3742,
  "Ġclos": 3743,
  "Ġclim": 3744,
  "Ġchilling": 3745,
  "Ġchance": 3746,
  "Ġcell": 3747,
  "Ġcame": 3748,
  "Ġbroad": 3749,
  "Ġbreatht": 3750,
  "Ġbehavi": 3751,
  "Ġbalance": 3752,
  "Ġbadly": 3753,
  "Ġbog": 3754,
  "Ġban": 3755,
  "Ġball": 3756,
  "Ġatmosphere": 3757,
  "Ġappears": 3758,
  "Ġannoying": 3759,
  "Ġadmira": 3760,
  "Ġaddition": 3761,
  "Ġadoles": 3762,
  "ĠWil": 3763,
  "ĠTra": 3764,
  "ĠStory": 3765,
  "ĠSoderbergh": 3766,
  "ĠSat": 3767,
  "ĠRun": 3768,
  "ĠRog": 3769,
  "ĠQu": 3770,
  "ĠOne": 3771,
  "ĠMartin": 3772,
  "ĠLee": 3773,
  "ĠLa": 3774,
  "ĠKevin": 3775,
  "ĠHer": 3776,
  "ĠFull": 3777,
  "ĠFre": 3778,
  "ĠEng": 3779,
  "ĠCity": 3780,
  "ĠCar": 3781,
  "ĠBlade": 3782,
  "ĠBond": 3783,
  "ĠBen": 3784,
  "ĠAnd": 3785,
  "Ġidentity": 3786,
  "Ġ&": 3787,
  "ypes": 3788,
  "ype": 3789,
  "yam": 3790,
  "yamalan": 3791,
  "wrought": 3792,
  "weight": 3793,
  "whel": 3794,
  "vy": 3795,
  "vate": 3796,
  "val": 3797,
  "ustin": 3798,
  "unct": 3799,
  "uddled": 3800,
  "udic": 3801,
  "udicrous": 3802,
  "text": 3803,
  "standing": 3804,
  "stein": 3805,
  "ses": 3806,
  "school": 3807,
  "ruction": 3808,
  "ropri": 3809,
  "rison": 3810,
  "ride": 3811,
  "redictable": 3812,
  "rey": 3813,
  "rets": 3814,
  "rehens": 3815,
  "reet": 3816,
  "rama": 3817,
  "ray": 3818,
  "rate": 3819,
  "rang": 3820,
  "produ": 3821,
  "plistic": 3822,
  "plain": 3823,
  "ovich": 3824,
  "orsese": 3825,
  "orks": 3826,
  "ophical": 3827,
  "onna": 3828,
  "omething": 3829,
  "oliday": 3830,
  "olic": 3831,
  "ograph": 3832,
  "ogn": 3833,
  "oices": 3834,
  "ners": 3835,
  "nature": 3836,
  "natured": 3837,
  "mined": 3838,
  "mentary": 3839,
  "mb": 3840,
  "lying": 3841,
  "ltimately": 3842,
  "long": 3843,
  "izarre": 3844,
  "itions": 3845,
  "istent": 3846,
  "isp": 3847,
  "irited": 3848,
  "iring": 3849,
  "inging": 3850,
  "igg": 3851,
  "ificial": 3852,
  "ifting": 3853,
  "ierce": 3854,
  "host": 3855,
  "hicle": 3856,
  "ground": 3857,
  "getic": 3858,
  "gest": 3859,
  "gent": 3860,
  "erable": 3861,
  "ensity": 3862,
  "ensions": 3863,
  "ensional": 3864,
  "eneath": 3865,
  "emb": 3866,
  "ellow": 3867,
  "eli": 3868,
  "eld": 3869,
  "egr": 3870,
  "eem": 3871,
  "comfort": 3872,
  "chant": 3873,
  "col": 3874,
  "bershop": 3875,
  "book": 3876,
  "bling": 3877,
  "atters": 3878,
  "attered": 3879,
  "asts": 3880,
  "ashington": 3881,
  "asp": 3882,
  "aries": 3883,
  "anding": 3884,
  "ample": 3885,
  "akespe": 3886,
  "aine": 3887,
  "ager": 3888,
  "acity": 3889,
  "aim": 3890,
  "Unfortunately": 3891,
  "Ultimately": 3892,
  "Po": 3893,
  "Never": 3894,
  "Is": 3895,
  "High": 3896,
  "Good": 3897,
  "Com": 3898,
  "Ġwry": 3899,
  "Ġwann": 3900,
  "Ġvisuals": 3901,
  "Ġvibrant": 3902,
  "Ġvehicle": 3903,
  "Ġundeniably": 3904,
  "Ġunfor": 3905,
  "Ġtrouble": 3906,
  "Ġtimely": 3907,
  "Ġtheme": 3908,
  "Ġterror": 3909,
  "Ġtelevision": 3910,
  "Ġtender": 3911,
  "Ġtalking": 3912,
  "Ġtough": 3913,
  "Ġsympathy": 3914,
  "Ġsuspenseful": 3915,
  "Ġsurreal": 3916,
  "Ġsubstance": 3917,
  "Ġsubjects": 3918,
  "Ġsuspect": 3919,
  "Ġstruggle": 3920,
  "Ġstructure": 3921,
  "Ġstandards": 3922,
  "Ġstret": 3923,
  "Ġstale": 3924,
  "Ġsplendid": 3925,
  "Ġspoof": 3926,
  "Ġspir": 3927,
  "Ġsource": 3928,
  "Ġsmarter": 3929,
  "Ġsham": 3930,
  "Ġscience": 3931,
  "Ġsave": 3932,
  "Ġrespons": 3933,
  "Ġrepetitive": 3934,
  "Ġremember": 3935,
  "Ġrelent": 3936,
  "Ġrefreshingly": 3937,
  "Ġrefere": 3938,
  "Ġreading": 3939,
  "Ġpublic": 3940,
  "Ġpromising": 3941,
  "Ġproper": 3942,
  "Ġprice": 3943,
  "Ġpotential": 3944,
  "Ġpossibly": 3945,
  "Ġplayed": 3946,
  "Ġplod": 3947,
  "Ġphilosophical": 3948,
  "Ġperspective": 3949,
  "Ġped": 3950,
  "Ġpair": 3951,
  "Ġoverly": 3952,
  "Ġolder": 3953,
  "Ġoffering": 3954,
  "Ġobnox": 3955,
  "Ġopt": 3956,
  "Ġnowhere": 3957,
  "Ġnons": 3958,
  "Ġner": 3959,
  "Ġmusical": 3960,
  "Ġmotiv": 3961,
  "Ġmayhem": 3962,
  "Ġmarg": 3963,
  "Ġmil": 3964,
  "Ġmention": 3965,
  "Ġmale": 3966,
  "Ġloses": 3967,
  "Ġlonger": 3968,
  "Ġleaving": 3969,
  "Ġlousy": 3970,
  "Ġling": 3971,
  "Ġlines": 3972,
  "Ġlay": 3973,
  "Ġknowing": 3974,
  "Ġintegr": 3975,
  "Ġinspiring": 3976,
  "Ġinnoc": 3977,
  "Ġingen": 3978,
  "Ġindeed": 3979,
  "Ġincluding": 3980,
  "Ġhorrible": 3981,
  "Ġholiday": 3982,
  "Ġholes": 3983,
  "Ġholds": 3984,
  "Ġhits": 3985,
  "Ġhide": 3986,
  "Ġhate": 3987,
  "Ġgrad": 3988,
  "Ġglimpse": 3989,
  "Ġgirls": 3990,
  "Ġgem": 3991,
  "Ġfunniest": 3992,
  "Ġfront": 3993,
  "Ġflu": 3994,
  "Ġfilmed": 3995,
  "Ġfeat": 3996,
  "Ġfarce": 3997,
  "Ġfurther": 3998,
  "Ġfu": 3999,
  "Ġfood": 4000,
  "Ġexpected": 4001,
  "Ġessentially": 4002,
  "Ġescape": 4003,
  "Ġenjoyed": 4004,
  "Ġenergetic": 4005,
  "Ġende": 4006,
  "Ġembarrass": 4007,
  "Ġdreams": 4008,
  "Ġdreary": 4009,
  "Ġdistinct": 4010,
  "Ġdevelopment": 4011,
  "Ġdevastating": 4012,
  "Ġdespair": 4013,
  "Ġdesigned": 4014,
  "Ġdeftly": 4015,
  "Ġdeb": 4016,
  "Ġdazzling": 4017,
  "Ġdrown": 4018,
  "Ġdread": 4019,
  "Ġdom": 4020,
  "Ġcruel": 4021,
  "Ġcreating": 4022,
  "Ġconsistently": 4023,
  "Ġconsp": 4024,
  "Ġconfusing": 4025,
  "Ġcondition": 4026,
  "Ġconce": 4027,
  "Ġcompassion": 4028,
  "Ġcomedic": 4029,
  "Ġcheck": 4030,
  "Ġcharisma": 4031,
  "Ġcharacteriz": 4032,
  "Ġcarries": 4033,
  "Ġcute": 4034,
  "Ġcirc": 4035,
  "Ġbelly": 4036,
  "Ġbehavior": 4037,
  "Ġbeat": 4038,
  "Ġbudget": 4039,
  "Ġbored": 4040,
  "Ġblend": 4041,
  "Ġbizarre": 4042,
  "Ġauthentic": 4043,
  "Ġastonishing": 4044,
  "Ġassured": 4045,
  "Ġaspects": 4046,
  "Ġaffecting": 4047,
  "Ġadult": 4048,
  "Ġachieves": 4049,
  "ĠWedding": 4050,
  "ĠWater": 4051,
  "ĠWal": 4052,
  "ĠSolondz": 4053,
  "ĠScorsese": 4054,
  "ĠSweet": 4055,
  "ĠRoger": 4056,
  "ĠRyan": 4057,
  "ĠRuss": 4058,
  "ĠPolanski": 4059,
  "ĠPian": 4060,
  "ĠPeter": 4061,
  "ĠNo": 4062,
  "ĠNick": 4063,
  "ĠMad": 4064,
  "ĠLawrence": 4065,
  "ĠJapanese": 4066,
  "ĠJul": 4067,
  "ĠJames": 4068,
  "ĠHoffman": 4069,
  "ĠGos": 4070,
  "ĠGold": 4071,
  "ĠGl": 4072,
  "ĠEl": 4073,
  "ĠDickens": 4074,
  "ĠCon": 4075,
  "ĠCol": 4076,
  "ĠBur": 4077,
  "ĠBr": 4078,
  "ĠAnt": 4079,
  "Ġram": 4080,
  "ĠUn": 4081,
  "vised": 4082,
  "viously": 4083,
  "verting": 4084,
  "vere": 4085,
  "urt": 4086,
  "uming": 4087,
  "umes": 4088,
  "ulgar": 4089,
  "ueen": 4090,
  "together": 4091,
  "star": 4092,
  "stal": 4093,
  "rying": 4094,
  "ruck": 4095,
  "romising": 4096,
  "ritory": 4097,
  "rip": 4098,
  "rific": 4099,
  "raid": 4100,
  "raction": 4101,
  "quisite": 4102,
  "ppings": 4103,
  "plo": 4104,
  "plays": 4105,
  "place": 4106,
  "ountry": 4107,
  "orig": 4108,
  "original": 4109,
  "oric": 4110,
  "omach": 4111,
  "oly": 4112,
  "necessary": 4113,
  "nan": 4114,
  "mo": 4115,
  "mid": 4116,
  "lyn": 4117,
  "leasant": 4118,
  "lection": 4119,
  "izz": 4120,
  "itters": 4121,
  "ittersweet": 4122,
  "irming": 4123,
  "inking": 4124,
  "inoc": 4125,
  "imensional": 4126,
  "ills": 4127,
  "icip": 4128,
  "ibilities": 4129,
  "ixt": 4130,
  "iant": 4131,
  "iable": 4132,
  "hour": 4133,
  "ghter": 4134,
  "funct": 4135,
  "fest": 4136,
  "esque": 4137,
  "esc": 4138,
  "elessly": 4139,
  "equ": 4140,
  "ean": 4141,
  "drama": 4142,
  "dimensional": 4143,
  "conscious": 4144,
  "class": 4145,
  "ceived": 4146,
  "cut": 4147,
  "cra": 4148,
  "bust": 4149,
  "budget": 4150,
  "brid": 4151,
  "back": 4152,
  "avis": 4153,
  "ateg": 4154,
  "athetic": 4155,
  "ased": 4156,
  "ario": 4157,
  "apses": 4158,
  "anes": 4159,
  "amily": 4160,
  "ama": 4161,
  "alse": 4162,
  "alma": 4163,
  "akespeare": 4164,
  "aker": 4165,
  "agl": 4166,
  "actic": 4167,
  "aches": 4168,
  "abe": 4169,
  "aves": 4170,
  "\\*\\*": 4171,
  "Yet": 4172,
  "Whe": 4173,
  "Unfaithful": 4174,
  "Starts": 4175,
  "Offers": 4176,
  "Im": 4177,
  "Everything": 4178,
  "Cl": 4179,
  "Beautifully": 4180,
  "About": 4181,
  "60": 4182,
  "Ġwithin": 4183,
  "Ġwhom": 4184,
  "Ġweek": 4185,
  "Ġwannabe": 4186,
  "Ġwears": 4187,
  "Ġwal": 4188,
  "Ġvisceral": 4189,
  "Ġvillain": 4190,
  "Ġvarious": 4191,
  "Ġvalues": 4192,
  "Ġunintent": 4193,
  "Ġunfolds": 4194,
  "Ġunnecessary": 4195,
  "Ġunimag": 4196,
  "Ġunh": 4197,
  "Ġuncomp": 4198,
  "Ġuncomfort": 4199,
  "Ġtwisted": 4200,
  "Ġturned": 4201,
  "Ġtrappings": 4202,
  "Ġtoss": 4203,
  "Ġthinks": 4204,
  "Ġthird": 4205,
  "Ġterritory": 4206,
  "Ġteam": 4207,
  "Ġtight": 4208,
  "Ġtack": 4209,
  "Ġsurely": 4210,
  "Ġsuperb": 4211,
  "Ġstunning": 4212,
  "Ġstirring": 4213,
  "Ġstomach": 4214,
  "Ġstarring": 4215,
  "Ġspot": 4216,
  "Ġsomewhere": 4217,
  "Ġsociety": 4218,
  "Ġsmug": 4219,
  "Ġslick": 4220,
  "Ġslice": 4221,
  "Ġsitcom": 4222,
  "Ġsimplistic": 4223,
  "Ġshowc": 4224,
  "Ġshad": 4225,
  "Ġsensual": 4226,
  "Ġsees": 4227,
  "Ġscar": 4228,
  "Ġsongs": 4229,
  "Ġsne": 4230,
  "Ġsal": 4231,
  "Ġrevealing": 4232,
  "Ġretread": 4233,
  "Ġresonant": 4234,
  "Ġresist": 4235,
  "Ġrepresents": 4236,
  "Ġrecogn": 4237,
  "Ġrealize": 4238,
  "Ġrent": 4239,
  "Ġrend": 4240,
  "Ġrises": 4241,
  "Ġpuzz": 4242,
  "Ġprotagonist": 4243,
  "Ġprofessional": 4244,
  "Ġpresence": 4245,
  "Ġpredecessor": 4246,
  "Ġprecious": 4247,
  "Ġprin": 4248,
  "Ġpositive": 4249,
  "Ġpoetic": 4250,
  "Ġpleasures": 4251,
  "Ġplayful": 4252,
  "Ġpersonality": 4253,
  "Ġpathetic": 4254,
  "Ġpus": 4255,
  "Ġpen": 4256,
  "Ġpan": 4257,
  "Ġpal": 4258,
  "Ġoverwhel": 4259,
  "Ġoffice": 4260,
  "Ġobservations": 4261,
  "Ġobnoxious": 4262,
  "Ġnoir": 4263,
  "Ġneg": 4264,
  "Ġnumb": 4265,
  "Ġnu": 4266,
  "Ġmoviegoers": 4267,
  "Ġmesmerizing": 4268,
  "Ġmeandering": 4269,
  "Ġmaybe": 4270,
  "Ġmarks": 4271,
  "Ġmarket": 4272,
  "Ġmaudlin": 4273,
  "Ġmount": 4274,
  "Ġmill": 4275,
  "Ġlistless": 4276,
  "Ġlived": 4277,
  "Ġliber": 4278,
  "Ġlevels": 4279,
  "Ġlaughter": 4280,
  "Ġludicrous": 4281,
  "Ġlazy": 4282,
  "Ġknowledge": 4283,
  "Ġkne": 4284,
  "Ġjoyous": 4285,
  "Ġjunk": 4286,
  "Ġirritating": 4287,
  "Ġirres": 4288,
  "Ġintoxicating": 4289,
  "Ġintensity": 4290,
  "Ġincomp": 4291,
  "Ġimpression": 4292,
  "Ġhumorous": 4293,
  "Ġhonestly": 4294,
  "Ġheartwarming": 4295,
  "Ġhouse": 4296,
  "Ġgrows": 4297,
  "Ġgradually": 4298,
  "Ġgrown": 4299,
  "Ġforgotten": 4300,
  "Ġfolks": 4301,
  "Ġfinding": 4302,
  "Ġfrag": 4303,
  "Ġexperiment": 4304,
  "Ġexperiences": 4305,
  "Ġexpress": 4306,
  "Ġexhilarating": 4307,
  "Ġexample": 4308,
  "Ġenter": 4309,
  "Ġemotion": 4310,
  "Ġelegant": 4311,
  "Ġdrawn": 4312,
  "Ġdownright": 4313,
  "Ġdistingu": 4314,
  "Ġdigital": 4315,
  "Ġdeterm": 4316,
  "Ġdetails": 4317,
  "Ġdetailed": 4318,
  "Ġdesperation": 4319,
  "Ġdesperate": 4320,
  "Ġdesire": 4321,
  "Ġdemands": 4322,
  "Ġdelivery": 4323,
  "Ġdeeper": 4324,
  "Ġdish": 4325,
  "Ġdare": 4326,
  "Ġcrazy": 4327,
  "Ġcourse": 4328,
  "Ġcontent": 4329,
  "Ġconstructed": 4330,
  "Ġconcerned": 4331,
  "Ġcombination": 4332,
  "Ġcloying": 4333,
  "Ġcheesy": 4334,
  "Ġchase": 4335,
  "Ġcaptivating": 4336,
  "Ġcause": 4337,
  "Ġbuy": 4338,
  "Ġbrought": 4339,
  "Ġbiggest": 4340,
  "Ġbite": 4341,
  "Ġband": 4342,
  "Ġbaff": 4343,
  "Ġaside": 4344,
  "Ġartificial": 4345,
  "Ġanti": 4346,
  "Ġambig": 4347,
  "Ġamused": 4348,
  "Ġamazing": 4349,
  "Ġactresses": 4350,
  "Ġachievement": 4351,
  "ĠWhat": 4352,
  "ĠWashington": 4353,
  "ĠTay": 4354,
  "ĠStar": 4355,
  "ĠSum": 4356,
  "ĠSouth": 4357,
  "ĠSor": 4358,
  "ĠSon": 4359,
  "ĠRo": 4360,
  "ĠRen": 4361,
  "ĠParker": 4362,
  "ĠOut": 4363,
  "ĠNot": 4364,
  "ĠLil": 4365,
  "ĠKore": 4366,
  "ĠJason": 4367,
  "ĠItalian": 4368,
  "ĠIran": 4369,
  "ĠHaw": 4370,
  "ĠGreek": 4371,
  "ĠFire": 4372,
  "ĠEnglish": 4373,
  "ĠDu": 4374,
  "ĠDV": 4375,
  "ĠChristmas": 4376,
  "ĠChristian": 4377,
  "ĠCra": 4378,
  "ĠBarry": 4379,
  "ĠBarbershop": 4380,
  "ĠAf": 4381,
  "ĠUnfaithful": 4382,
  "ĠThis": 4383,
  "vard": 4384,
  "vag": 4385,
  "urning": 4386,
  "urday": 4387,
  "uman": 4388,
  "ugar": 4389,
  "udes": 4390,
  "uity": 4391,
  "uable": 4392,
  "theless": 4393,
  "thr": 4394,
  "tends": 4395,
  "top": 4396,
  "tly": 4397,
  "sters": 4398,
  "see": 4399,
  "rowing": 4400,
  "rope": 4401,
  "roc": 4402,
  "road": 4403,
  "reasingly": 4404,
  "rend": 4405,
  "rek": 4406,
  "railty": 4407,
  "run": 4408,
  "ratch": 4409,
  "rat": 4410,
  "placed": 4411,
  "perfect": 4412,
  "pendent": 4413,
  "ps": 4414,
  "pleas": 4415,
  "oster": 4416,
  "oses": 4417,
  "opkins": 4418,
  "ooking": 4419,
  "ooper": 4420,
  "onel": 4421,
  "olation": 4422,
  "ola": 4423,
  "ointed": 4424,
  "ographed": 4425,
  "ocaust": 4426,
  "neider": 4427,
  "not": 4428,
  "nic": 4429,
  "mn": 4430,
  "mart": 4431,
  "lless": 4432,
  "levant": 4433,
  "lets": 4434,
  "ivered": 4435,
  "ivalent": 4436,
  "istically": 4437,
  "irth": 4438,
  "inese": 4439,
  "indulgent": 4440,
  "iner": 4441,
  "imsy": 4442,
  "ignity": 4443,
  "ietnam": 4444,
  "ivid": 4445,
  "ians": 4446,
  "ham": 4447,
  "fraid": 4448,
  "eping": 4449,
  "entric": 4450,
  "emark": 4451,
  "eman": 4452,
  "elie": 4453,
  "edo": 4454,
  "eur": 4455,
  "eff": 4456,
  "deem": 4457,
  "ddie": 4458,
  "die": 4459,
  "der": 4460,
  "culture": 4461,
  "charine": 4462,
  "bit": 4463,
  "atically": 4464,
  "atisf": 4465,
  "asting": 4466,
  "asive": 4467,
  "arned": 4468,
  "arad": 4469,
  "anta": 4470,
  "anges": 4471,
  "anger": 4472,
  "anity": 4473,
  "anet": 4474,
  "anc": 4475,
  "allmark": 4476,
  "aky": 4477,
  "ained": 4478,
  "ago": 4479,
  "agers": 4480,
  "afe": 4481,
  "Yes": 4482,
  "Ya": 4483,
  "Why": 4484,
  "Tr": 4485,
  "Sc": 4486,
  "Rarely": 4487,
  "Qu": 4488,
  "Plays": 4489,
  "Per": 4490,
  "Over": 4491,
  "Of": 4492,
  "Ne": 4493,
  "My": 4494,
  "Int": 4495,
  "From": 4496,
  "Another": 4497,
  "Americ": 4498,
  "Ġyouth": 4499,
  "Ġwitness": 4500,
  "Ġwhatever": 4501,
  "Ġwanted": 4502,
  "Ġwait": 4503,
  "Ġvividly": 4504,
  "Ġviolent": 4505,
  "Ġvap": 4506,
  "Ġvamp": 4507,
  "Ġusing": 4508,
  "Ġupd": 4509,
  "Ġunusual": 4510,
  "Ġunpleasant": 4511,
  "Ġunlikely": 4512,
  "Ġunfocused": 4513,
  "Ġunderstanding": 4514,
  "Ġuncompromising": 4515,
  "Ġuninspired": 4516,
  "Ġunin": 4517,
  "Ġtrif": 4518,
  "Ġtransp": 4519,
  "Ġtradition": 4520,
  "Ġtravel": 4521,
  "Ġtouches": 4522,
  "Ġtotally": 4523,
  "Ġtotal": 4524,
  "Ġtiming": 4525,
  "Ġtalents": 4526,
  "Ġtype": 4527,
  "Ġtrem": 4528,
  "Ġtour": 4529,
  "Ġtong": 4530,
  "Ġsymb": 4531,
  "Ġsupporting": 4532,
  "Ġsuperior": 4533,
  "Ġsubtlety": 4534,
  "Ġsuit": 4535,
  "Ġstunts": 4536,
  "Ġstereotypes": 4537,
  "Ġstuck": 4538,
  "Ġspooky": 4539,
  "Ġspy": 4540,
  "Ġspell": 4541,
  "Ġsomber": 4542,
  "Ġsmo": 4543,
  "Ġsignific": 4544,
  "Ġserves": 4545,
  "Ġsequels": 4546,
  "Ġsentimentality": 4547,
  "Ġsensational": 4548,
  "Ġscreenwriters": 4549,
  "Ġscreenwriter": 4550,
  "Ġsaccharine": 4551,
  "Ġsol": 4552,
  "Ġsill": 4553,
  "Ġsil": 4554,
  "Ġsight": 4555,
  "Ġrhythms": 4556,
  "Ġrevelatory": 4557,
  "Ġreport": 4558,
  "Ġreminds": 4559,
  "Ġrelies": 4560,
  "Ġrelatively": 4561,
  "Ġreferences": 4562,
  "Ġrepe": 4563,
  "Ġproduced": 4564,
  "Ġproceedings": 4565,
  "Ġprove": 4566,
  "Ġpress": 4567,
  "Ġpreach": 4568,
  "Ġportrayal": 4569,
  "Ġpopul": 4570,
  "Ġpoem": 4571,
  "Ġplotting": 4572,
  "Ġpersona": 4573,
  "Ġpatience": 4574,
  "Ġpaced": 4575,
  "Ġoutrageous": 4576,
  "Ġoriginality": 4577,
  "Ġordinary": 4578,
  "Ġonto": 4579,
  "Ġoffbeat": 4580,
  "Ġnation": 4581,
  "Ġnasty": 4582,
  "Ġna": 4583,
  "Ġmyth": 4584,
  "Ġmoviemaking": 4585,
  "Ġmissed": 4586,
  "Ġmanage": 4587,
  "Ġmagn": 4588,
  "Ġmult": 4589,
  "Ġmature": 4590,
  "Ġmal": 4591,
  "Ġmakers": 4592,
  "Ġlyrical": 4593,
  "Ġlogic": 4594,
  "Ġloc": 4595,
  "Ġlies": 4596,
  "Ġleg": 4597,
  "Ġlaughing": 4598,
  "Ġlump": 4599,
  "Ġluck": 4600,
  "Ġlonel": 4601,
  "Ġkey": 4602,
  "Ġintentions": 4603,
  "Ġintric": 4604,
  "Ġintern": 4605,
  "Ġinsane": 4606,
  "Ġinnov": 4607,
  "Ġincoherent": 4608,
  "Ġincreasingly": 4609,
  "Ġinh": 4610,
  "Ġimprove": 4611,
  "Ġimagery": 4612,
  "Ġillustr": 4613,
  "Ġhumour": 4614,
  "Ġhomage": 4615,
  "Ġheartbreaking": 4616,
  "Ġhearts": 4617,
  "Ġhandsome": 4618,
  "Ġguns": 4619,
  "Ġgritty": 4620,
  "Ġgloss": 4621,
  "Ġgifted": 4622,
  "Ġgiving": 4623,
  "Ġgiant": 4624,
  "Ġgangster": 4625,
  "Ġgar": 4626,
  "Ġflashy": 4627,
  "Ġflo": 4628,
  "Ġflair": 4629,
  "Ġfinale": 4630,
  "Ġfighting": 4631,
  "Ġfairy": 4632,
  "Ġfish": 4633,
  "Ġfate": 4634,
  "Ġfat": 4635,
  "Ġfake": 4636,
  "Ġfab": 4637,
  "Ġexplos": 4638,
  "Ġexplore": 4639,
  "Ġexceed": 4640,
  "Ġerotic": 4641,
  "Ġenthr": 4642,
  "Ġendless": 4643,
  "Ġenvi": 4644,
  "Ġenorm": 4645,
  "Ġelement": 4646,
  "Ġeasier": 4647,
  "Ġecc": 4648,
  "Ġearly": 4649,
  "Ġdirectors": 4650,
  "Ġdifference": 4651,
  "Ġdetermined": 4652,
  "Ġdesperately": 4653,
  "Ġdepiction": 4654,
  "Ġdelightfully": 4655,
  "Ġdelivered": 4656,
  "Ġdys": 4657,
  "Ġdud": 4658,
  "Ġdub": 4659,
  "Ġdignity": 4660,
  "Ġcurrent": 4661,
  "Ġcrisp": 4662,
  "Ġcrap": 4663,
  "Ġcrude": 4664,
  "Ġcrass": 4665,
  "Ġcounter": 4666,
  "Ġcontro": 4667,
  "Ġcommon": 4668,
  "Ġcommentary": 4669,
  "Ġclot": 4670,
  "Ġclarity": 4671,
  "Ġcharms": 4672,
  "Ġcharmer": 4673,
  "Ġchallenging": 4674,
  "Ġcha": 4675,
  "Ġcaper": 4676,
  "Ġcandy": 4677,
  "Ġcaut": 4678,
  "Ġblock": 4679,
  "Ġbitter": 4680,
  "Ġbeginning": 4681,
  "Ġbackground": 4682,
  "Ġbunch": 4683,
  "Ġbul": 4684,
  "Ġbuff": 4685,
  "Ġbother": 4686,
  "Ġbord": 4687,
  "Ġboo": 4688,
  "Ġbomb": 4689,
  "Ġble": 4690,
  "Ġbittersweet": 4691,
  "Ġbeneath": 4692,
  "Ġben": 4693,
  "Ġbag": 4694,
  "Ġath": 4695,
  "Ġasp": 4696,
  "Ġasks": 4697,
  "Ġappear": 4698,
  "Ġanswers": 4699,
  "Ġamounts": 4700,
  "Ġalthough": 4701,
  "Ġalleg": 4702,
  "Ġadolescent": 4703,
  "Ġadmirable": 4704,
  "Ġadmire": 4705,
  "Ġadequ": 4706,
  "Ġacts": 4707,
  "Ġaccomplished": 4708,
  "Ġaccessible": 4709,
  "Ġaccur": 4710,
  "Ġaccount": 4711,
  "Ġawe": 4712,
  "Ġaverage": 4713,
  "Ġauth": 4714,
  "Ġafraid": 4715,
  "ĠYu": 4716,
  "ĠYa": 4717,
  "ĠWilde": 4718,
  "ĠVietnam": 4719,
  "ĠThere": 4720,
  "ĠThat": 4721,
  "ĠShowtime": 4722,
  "ĠSeagal": 4723,
  "ĠSea": 4724,
  "ĠSaturday": 4725,
  "ĠSugar": 4726,
  "ĠSanta": 4727,
  "ĠRed": 4728,
  "ĠPro": 4729,
  "ĠPoke": 4730,
  "ĠMonty": 4731,
  "ĠManh": 4732,
  "ĠMaster": 4733,
  "ĠKissinger": 4734,
  "ĠKids": 4735,
  "ĠKid": 4736,
  "ĠJo": 4737,
  "ĠImp": 4738,
  "ĠHolocaust": 4739,
  "ĠHeaven": 4740,
  "ĠHarvard": 4741,
  "ĠHot": 4742,
  "ĠHay": 4743,
  "ĠGirls": 4744,
  "ĠGood": 4745,
  "ĠFriday": 4746,
  "ĠFrank": 4747,
  "ĠFestival": 4748,
  "ĠFears": 4749,
  "ĠEvery": 4750,
  "ĠEast": 4751,
  "ĠDead": 4752,
  "ĠChris": 4753,
  "ĠChinese": 4754,
  "ĠBroom": 4755,
  "ĠBeing": 4756,
  "ĠBoys": 4757,
  "ĠBears": 4758,
  "ĠBart": 4759,
  "ĠBall": 4760,
  "ĠBad": 4761,
  "ĠAss": 4762,
  "ĠAs": 4763,
  "ĠAng": 4764,
  "Ġ198": 4765,
  "Ġ195": 4766,
  "Ġ11": 4767,
  "Ġ$": 4768,
  "ynam": 4769,
  "yl": 4770,
  "vincing": 4771,
  "venge": 4772,
  "vantage": 4773,
  "vans": 4774,
  "uxedo": 4775,
  "uto": 4776,
  "utions": 4777,
  "usive": 4778,
  "usb": 4779,
  "usband": 4780,
  "urpris": 4781,
  "urable": 4782,
  "ummy": 4783,
  "umin": 4784,
  "urid": 4785,
  "traction": 4786,
  "thin": 4787,
  "tended": 4788,
  "style": 4789,
  "stopp": 4790,
  "stated": 4791,
  "sec": 4792,
  "ropriate": 4793,
  "ridge": 4794,
  "rivate": 4795,
  "rium": 4796,
  "riage": 4797,
  "ressively": 4798,
  "renching": 4799,
  "rehensible": 4800,
  "reezy": 4801,
  "reasure": 4802,
  "reaks": 4803,
  "rapped": 4804,
  "ront": 4805,
  "ratic": 4806,
  "quil": 4807,
  "plifting": 4808,
  "pet": 4809,
  "pan": 4810,
  "ownt": 4811,
  "owntown": 4812,
  "ounding": 4813,
  "orton": 4814,
  "ori": 4815,
  "oochy": 4816,
  "omination": 4817,
  "ocus": 4818,
  "onder": 4819,
  "never": 4820,
  "nal": 4821,
  "likable": 4822,
  "lor": 4823,
  "looking": 4824,
  "lines": 4825,
  "lig": 4826,
  "kind": 4827,
  "ka": 4828,
  "jinsky": 4829,
  "ixture": 4830,
  "isive": 4831,
  "ision": 4832,
  "isher": 4833,
  "irthday": 4834,
  "ionary": 4835,
  "inist": 4836,
  "imsical": 4837,
  "imm": 4838,
  "iliar": 4839,
  "igni": 4840,
  "igma": 4841,
  "iety": 4842,
  "icken": 4843,
  "iced": 4844,
  "iently": 4845,
  "iation": 4846,
  "hetto": 4847,
  "hash": 4848,
  "gree": 4849,
  "gor": 4850,
  "gment": 4851,
  "gel": 4852,
  "functional": 4853,
  "formation": 4854,
  "funny": 4855,
  "fman": 4856,
  "fire": 4857,
  "fer": 4858,
  "etter": 4859,
  "estic": 4860,
  "erving": 4861,
  "erved": 4862,
  "erman": 4863,
  "ensely": 4864,
  "eningly": 4865,
  "emember": 4866,
  "elow": 4867,
  "eling": 4868,
  "crafted": 4869,
  "comes": 4870,
  "comedy": 4871,
  "cks": 4872,
  "chan": 4873,
  "cle": 4874,
  "ciful": 4875,
  "board": 4876,
  "bled": 4877,
  "boy": 4878,
  "bor": 4879,
  "bles": 4880,
  "ayne": 4881,
  "aufman": 4882,
  "attan": 4883,
  "assin": 4884,
  "asy": 4885,
  "arching": 4886,
  "apping": 4887,
  "apur": 4888,
  "angle": 4889,
  "angerous": 4890,
  "anders": 4891,
  "amsay": 4892,
  "amiliar": 4893,
  "allace": 4894,
  "aglom": 4895,
  "agine": 4896,
  "acted": 4897,
  "abrol": 4898,
  "abashed": 4899,
  "abama": 4900,
  "aa": 4901,
  "Worth": 4902,
  "Will": 4903,
  "Where": 4904,
  "These": 4905,
  "Ter": 4906,
  "Str": 4907,
  "Suff": 4908,
  "Su": 4909,
  "See": 4910,
  "Often": 4911,
  "Once": 4912,
  "None": 4913,
  "Here": 4914,
  "Full": 4915,
  "Do": 4916,
  "Dis": 4917,
  "Br": 4918,
  "Ġyes": 4919,
  "Ġworked": 4920,
  "Ġwondering": 4921,
  "Ġwinds": 4922,
  "Ġwindow": 4923,
  "Ġwhimsical": 4924,
  "Ġweb": 4925,
  "Ġwarning": 4926,
  "Ġwaiting": 4927,
  "Ġwood": 4928,
  "Ġwife": 4929,
  "Ġwide": 4930,
  "Ġwent": 4931,
  "Ġvapid": 4932,
  "Ġvulgar": 4933,
  "Ġvs": 4934,
  "Ġvague": 4935,
  "Ġunpredictable": 4936,
  "Ġunimaginative": 4937,
  "Ġundeniable": 4938,
  "Ġunconvincing": 4939,
  "Ġunoriginal": 4940,
  "Ġunabashed": 4941,
  "Ġtrifle": 4942,
  "Ġtranscend": 4943,
  "Ġtraditional": 4944,
  "Ġtongue": 4945,
  "Ġtoler": 4946,
  "Ġticket": 4947,
  "Ġtheatrical": 4948,
  "Ġtheatre": 4949,
  "Ġtheaters": 4950,
  "Ġthous": 4951,
  "Ġtestament": 4952,
  "Ġteenagers": 4953,
  "Ġteacher": 4954,
  "Ġtalk": 4955,
  "Ġtort": 4956,
  "Ġtempt": 4957,
  "Ġtasty": 4958,
  "Ġtap": 4959,
  "Ġsuffering": 4960,
  "Ġsubstit": 4961,
  "Ġsun": 4962,
  "Ġstrike": 4963,
  "Ġstrain": 4964,
  "Ġstrict": 4965,
  "Ġstartling": 4966,
  "Ġstands": 4967,
  "Ġstro": 4968,
  "Ġstreet": 4969,
  "Ġstore": 4970,
  "Ġstop": 4971,
  "Ġstock": 4972,
  "Ġstaged": 4973,
  "Ġspirits": 4974,
  "Ġspectacular": 4975,
  "Ġspend": 4976,
  "Ġspring": 4977,
  "Ġspite": 4978,
  "Ġspent": 4979,
  "Ġsoulless": 4980,
  "Ġsophom": 4981,
  "Ġsober": 4982,
  "Ġsmartly": 4983,
  "Ġslowly": 4984,
  "Ġsleep": 4985,
  "Ġsigns": 4986,
  "Ġshocks": 4987,
  "Ġsettles": 4988,
  "Ġsepar": 4989,
  "Ġscreenwriting": 4990,
  "Ġschm": 4991,
  "Ġscenario": 4992,
  "Ġscrew": 4993,
  "Ġsatir": 4994,
  "Ġsadness": 4995,
  "Ġsong": 4996,
  "Ġsink": 4997,
  "Ġsem": 4998,
  "Ġsan": 4999,
  "Ġsag": 5000,
  "Ġromp": 5001,
  "Ġrow": 5002,
  "Ġroles": 5003,
  "Ġrhythm": 5004,
  "Ġrewarding": 5005,
  "Ġreveal": 5006,
  "Ġretro": 5007,
  "Ġrepeated": 5008,
  "Ġrendered": 5009,
  "Ġremote": 5010,
  "Ġrelentlessly": 5011,
  "Ġredund": 5012,
  "Ġrealized": 5013,
  "Ġresem": 5014,
  "Ġreplaced": 5015,
  "Ġredeem": 5016,
  "Ġraunch": 5017,
  "Ġrush": 5018,
  "Ġrough": 5019,
  "Ġrise": 5020,
  "Ġpulls": 5021,
  "Ġpulp": 5022,
  "Ġpsychology": 5023,
  "Ġprog": 5024,
  "Ġpretension": 5025,
  "Ġpretends": 5026,
  "Ġpotentially": 5027,
  "Ġpoignancy": 5028,
  "Ġperverse": 5029,
  "Ġpercept": 5030,
  "Ġpedest": 5031,
  "Ġpecul": 5032,
  "Ġparticip": 5033,
  "Ġparody": 5034,
  "Ġpaint": 5035,
  "Ġpur": 5036,
  "Ġprison": 5037,
  "Ġpity": 5038,
  "Ġpic": 5039,
  "Ġoverwrought": 5040,
  "Ġoutside": 5041,
  "Ġonscreen": 5042,
  "Ġobsc": 5043,
  "Ġode": 5044,
  "Ġnevertheless": 5045,
  "Ġnerve": 5046,
  "Ġnecess": 5047,
  "Ġmistake": 5048,
  "Ġminds": 5049,
  "Ġminimal": 5050,
  "Ġmessages": 5051,
  "Ġmelanch": 5052,
  "Ġmechan": 5053,
  "Ġmasterful": 5054,
  "Ġmarvelous": 5055,
  "Ġmainly": 5056,
  "Ġmouth": 5057,
  "Ġmixture": 5058,
  "Ġmira": 5059,
  "Ġment": 5060,
  "Ġmass": 5061,
  "Ġlooked": 5062,
  "Ġloneliness": 5063,
  "Ġloves": 5064,
  "Ġloved": 5065,
  "Ġliterary": 5066,
  "Ġlifeless": 5067,
  "Ġlesson": 5068,
  "Ġlaughable": 5069,
  "Ġlarger": 5070,
  "Ġlandsc": 5071,
  "Ġlun": 5072,
  "Ġloose": 5073,
  "Ġlimp": 5074,
  "Ġknock": 5075,
  "Ġjol": 5076,
  "Ġirresist": 5077,
  "Ġirony": 5078,
  "Ġintrodu": 5079,
  "Ġintellectual": 5080,
  "Ġinsights": 5081,
  "Ġinnocence": 5082,
  "Ġinflu": 5083,
  "Ġinexplic": 5084,
  "Ġinev": 5085,
  "Ġincon": 5086,
  "Ġinner": 5087,
  "Ġinherent": 5088,
  "Ġimprob": 5089,
  "Ġimpl": 5090,
  "Ġicon": 5091,
  "Ġhybrid": 5092,
  "Ġhorrifying": 5093,
  "Ġhopeful": 5094,
  "Ġhoping": 5095,
  "Ġheard": 5096,
  "Ġheal": 5097,
  "Ġhair": 5098,
  "Ġhook": 5099,
  "Ġhig": 5100,
  "Ġguilt": 5101,
  "Ġguarant": 5102,
  "Ġgraphic": 5103,
  "Ġglor": 5104,
  "Ġgenial": 5105,
  "Ġgro": 5106,
  "Ġgames": 5107,
  "Ġforgive": 5108,
  "Ġfluff": 5109,
  "Ġfeatures": 5110,
  "Ġfantastic": 5111,
  "Ġfanciful": 5112,
  "Ġfierce": 5113,
  "Ġfalse": 5114,
  "Ġextravag": 5115,
  "Ġexploitative": 5116,
  "Ġexploitation": 5117,
  "Ġexpectations": 5118,
  "Ġexpectation": 5119,
  "Ġexistential": 5120,
  "Ġexecuted": 5121,
  "Ġexceptional": 5122,
  "Ġexquisite": 5123,
  "Ġexotic": 5124,
  "Ġevocative": 5125,
  "Ġestabl": 5126,
  "Ġequivalent": 5127,
  "Ġenviron": 5128,
  "Ġenthusiasm": 5129,
  "Ġenthralling": 5130,
  "Ġendeavor": 5131,
  "Ġencounter": 5132,
  "Ġens": 5133,
  "Ġempathy": 5134,
  "Ġemerge": 5135,
  "Ġempl": 5136,
  "Ġeloquent": 5137,
  "Ġefforts": 5138,
  "Ġedited": 5139,
  "Ġeccentric": 5140,
  "Ġdysfunctional": 5141,
  "Ġdrugs": 5142,
  "Ġdrags": 5143,
  "Ġdistur": 5144,
  "Ġdistance": 5145,
  "Ġdisappointing": 5146,
  "Ġdisappointed": 5147,
  "Ġdisplay": 5148,
  "Ġdismiss": 5149,
  "Ġdiverting": 5150,
  "Ġdepart": 5151,
  "Ġdelicately": 5152,
  "Ġdegree": 5153,
  "Ġdealing": 5154,
  "Ġdamned": 5155,
  "Ġdamn": 5156,
  "Ġdynam": 5157,
  "Ġdut": 5158,
  "Ġdro": 5159,
  "Ġda": 5160,
  "Ġcynical": 5161,
  "Ġcutting": 5162,
  "Ġcredibility": 5163,
  "Ġcreativity": 5164,
  "Ġcraft": 5165,
  "Ġcourage": 5166,
  "Ġconvinced": 5167,
  "Ġcontrovers": 5168,
  "Ġcontradict": 5169,
  "Ġcontinues": 5170,
  "Ġconj": 5171,
  "Ġcomparis": 5172,
  "Ġcommitted": 5173,
  "Ġcomplain": 5174,
  "Ġcollect": 5175,
  "Ġclumsy": 5176,
  "Ġclums": 5177,
  "Ġcliched": 5178,
  "Ġcharacterizations": 5179,
  "Ġchuck": 5180,
  "Ġchoppy": 5181,
  "Ġchilly": 5182,
  "Ġchann": 5183,
  "Ġcentury": 5184,
  "Ġcautionary": 5185,
  "Ġcares": 5186,
  "Ġcapture": 5187,
  "Ġcapable": 5188,
  "Ġcry": 5189,
  "Ġcity": 5190,
  "Ġcateg": 5191,
  "Ġcas": 5192,
  "Ġbuoyant": 5193,
  "Ġbroken": 5194,
  "Ġbreathtaking": 5195,
  "Ġbox": 5196,
  "Ġbiting": 5197,
  "Ġbigger": 5198,
  "Ġbenef": 5199,
  "Ġbasic": 5200,
  "Ġbanal": 5201,
  "Ġbreezy": 5202,
  "Ġbound": 5203,
  "Ġbits": 5204,
  "Ġbed": 5205,
  "Ġaward": 5206,
  "Ġattractive": 5207,
  "Ġathlet": 5208,
  "Ġask": 5209,
  "Ġarch": 5210,
  "Ġapparently": 5211,
  "Ġadmit": 5212,
  "Ġadds": 5213,
  "Ġaims": 5214,
  "ĠWoody": 5215,
  "ĠWoo": 5216,
  "ĠWomen": 5217,
  "ĠWith": 5218,
  "ĠWallace": 5219,
  "ĠVin": 5220,
  "ĠUnder": 5221,
  "ĠTrouble": 5222,
  "ĠTuxedo": 5223,
  "ĠSwim": 5224,
  "ĠStock": 5225,
  "ĠSpider": 5226,
  "ĠSmoochy": 5227,
  "ĠShyamalan": 5228,
  "ĠShakespeare": 5229,
  "ĠSecret": 5230,
  "ĠSchneider": 5231,
  "ĠScratch": 5232,
  "ĠSade": 5233,
  "ĠQueen": 5234,
  "ĠPokemon": 5235,
  "ĠPianist": 5236,
  "ĠPhil": 5237,
  "ĠPowers": 5238,
  "ĠPow": 5239,
  "ĠPe": 5240,
  "ĠPaul": 5241,
  "ĠOf": 5242,
  "ĠNickleby": 5243,
  "ĠNicholas": 5244,
  "ĠNight": 5245,
  "ĠMartha": 5246,
  "ĠManhattan": 5247,
  "ĠMadonna": 5248,
  "ĠLu": 5249,
  "ĠLittle": 5250,
  "ĠLast": 5251,
  "ĠKline": 5252,
  "ĠJim": 5253,
  "ĠJess": 5254,
  "ĠIranian": 5255,
  "ĠIndian": 5256,
  "ĠHopkins": 5257,
  "ĠGuy": 5258,
  "ĠGosling": 5259,
  "ĠGang": 5260,
  "ĠFrailty": 5261,
  "ĠFor": 5262,
  "ĠFilm": 5263,
  "ĠEvans": 5264,
  "ĠEst": 5265,
  "ĠEnding": 5266,
  "ĠEddie": 5267,
  "ĠDamned": 5268,
  "ĠDream": 5269,
  "ĠDen": 5270,
  "ĠChar": 5271,
  "ĠChabrol": 5272,
  "ĠCountry": 5273,
  "ĠCom": 5274,
  "ĠCat": 5275,
  "ĠBlue": 5276,
  "ĠBlair": 5277,
  "ĠBlack": 5278,
  "ĠBenigni": 5279,
  "ĠBy": 5280,
  "ĠBurns": 5281,
  "ĠBer": 5282,
  "ĠAttraction": 5283,
  "ĠArn": 5284,
  "ĠArgent": 5285,
  "ĠAmericans": 5286,
  "ĠAlabama": 5287,
  "ĠAfric": 5288,
  "ĠAb": 5289,
  "Ġ199": 5290,
  "Ġ15": 5291,
  "Ġ12": 5292,
  "Ġvers": 5293,
  "Ġ\\/": 5294,
  "Ġ7": 5295,
  "zog": 5296,
  "zed": 5297,
  "works": 5298,
  "vino": 5299,
  "ville": 5300,
  "video": 5301,
  "versity": 5302,
  "versations": 5303,
  "velyn": 5304,
  "vity": 5305,
  "vance": 5306,
  "usted": 5307,
  "usions": 5308,
  "usic": 5309,
  "ushing": 5310,
  "usal": 5311,
  "urous": 5312,
  "urance": 5313,
  "upper": 5314,
  "uppert": 5315,
  "undament": 5316,
  "umbo": 5317,
  "umul": 5318,
  "umor": 5319,
  "ultane": 5320,
  "ultaneously": 5321,
  "ulsive": 5322,
  "uggish": 5323,
  "udo": 5324,
  "udi": 5325,
  "udge": 5326,
  "uy": 5327,
  "ugh": 5328,
  "uf": 5329,
  "ued": 5330,
  "uation": 5331,
  "town": 5332,
  "too": 5333,
  "tale": 5334,
  "tal": 5335,
  "stalg": 5336,
  "stop": 5337,
  "spirited": 5338,
  "sequential": 5339,
  "sey": 5340,
  "seudo": 5341,
  "scale": 5342,
  "snan": 5343,
  "sai": 5344,
  "rupt": 5345,
  "ruci": 5346,
  "ridden": 5347,
  "rewd": 5348,
  "renal": 5349,
  "remely": 5350,
  "reg": 5351,
  "raging": 5352,
  "rable": 5353,
  "rating": 5354,
  "rath": 5355,
  "rated": 5356,
  "quee": 5357,
  "pton": 5358,
  "ploitation": 5359,
  "pered": 5360,
  "power": 5361,
  "paced": 5362,
  "owling": 5363,
  "outs": 5364,
  "osterous": 5365,
  "osc": 5366,
  "oriented": 5367,
  "orp": 5368,
  "opped": 5369,
  "opez": 5370,
  "opic": 5371,
  "ophy": 5372,
  "ooby": 5373,
  "omer": 5374,
  "ologically": 5375,
  "ollows": 5376,
  "oldi": 5377,
  "oldiers": 5378,
  "okey": 5379,
  "ographical": 5380,
  "ogd": 5381,
  "ogdan": 5382,
  "odrig": 5383,
  "obbled": 5384,
  "oved": 5385,
  "oct": 5386,
  "notch": 5387,
  "ndering": 5388,
  "ndom": 5389,
  "notic": 5390,
  "midt": 5391,
  "more": 5392,
  "mill": 5393,
  "men": 5394,
  "member": 5395,
  "linching": 5396,
  "lessness": 5397,
  "ls": 5398,
  "low": 5399,
  "length": 5400,
  "known": 5401,
  "jointed": 5402,
  "jerk": 5403,
  "ividual": 5404,
  "ivine": 5405,
  "itchie": 5406,
  "itchc": 5407,
  "itchcock": 5408,
  "itz": 5409,
  "itor": 5410,
  "ites": 5411,
  "itched": 5412,
  "isters": 5413,
  "isually": 5414,
  "iso": 5415,
  "isco": 5416,
  "irm": 5417,
  "ipes": 5418,
  "intage": 5419,
  "ingers": 5420,
  "inee": 5421,
  "initely": 5422,
  "inis": 5423,
  "inated": 5424,
  "imony": 5425,
  "imer": 5426,
  "imen": 5427,
  "ilet": 5428,
  "ilted": 5429,
  "iles": 5430,
  "ignant": 5431,
  "ificent": 5432,
  "ification": 5433,
  "ifying": 5434,
  "ifice": 5435,
  "idden": 5436,
  "iding": 5437,
  "idel": 5438,
  "icky": 5439,
  "icy": 5440,
  "icing": 5441,
  "icago": 5442,
  "ica": 5443,
  "ibrium": 5444,
  "iy": 5445,
  "ipp": 5446,
  "ipe": 5447,
  "iated": 5448,
  "iance": 5449,
  "henomen": 5450,
  "hest": 5451,
  "hered": 5452,
  "hu": 5453,
  "house": 5454,
  "hip": 5455,
  "grade": 5456,
  "going": 5457,
  "ghai": 5458,
  "ggy": 5459,
  "gid": 5460,
  "gar": 5461,
  "gan": 5462,
  "gain": 5463,
  "forward": 5464,
  "ford": 5465,
  "fty": 5466,
  "free": 5467,
  "falls": 5468,
  "ettes": 5469,
  "essions": 5470,
  "ersonal": 5471,
  "eresting": 5472,
  "erie": 5473,
  "erball": 5474,
  "enry": 5475,
  "emption": 5476,
  "embered": 5477,
  "eller": 5478,
  "edies": 5479,
  "ective": 5480,
  "eve": 5481,
  "eks": 5482,
  "eed": 5483,
  "dest": 5484,
  "conom": 5485,
  "conceived": 5486,
  "cil": 5487,
  "bal": 5488,
  "bad": 5489,
  "azingly": 5490,
  "aze": 5491,
  "auty": 5492,
  "aughter": 5493,
  "atures": 5494,
  "ateau": 5495,
  "atur": 5496,
  "ators": 5497,
  "ask": 5498,
  "artley": 5499,
  "artial": 5500,
  "arrel": 5501,
  "arat": 5502,
  "apable": 5503,
  "antial": 5504,
  "ano": 5505,
  "anny": 5506,
  "anghai": 5507,
  "alyze": 5508,
  "alloween": 5509,
  "alle": 5510,
  "aki": 5511,
  "aining": 5512,
  "adem": 5513,
  "ada": 5514,
  "acked": 5515,
  "acqu": 5516,
  "aborate": 5517,
  "aby": 5518,
  "aun": 5519,
  "XX": 5520,
  "Whether": 5521,
  "Visually": 5522,
  "Very": 5523,
  "Two": 5524,
  "Time": 5525,
  "TV": 5526,
  "Suffers": 5527,
  "Such": 5528,
  "Seem": 5529,
  "Sch": 5530,
  "Sad": 5531,
  "Nic": 5532,
  "Maybe": 5533,
  "Imagine": 5534,
  "Hollywood": 5535,
  "Fl": 5536,
  "Deli": 5537,
  "Could": 5538,
  "Can": 5539,
  "Bo": 5540,
  "Anyone": 5541,
  "Ġzone": 5542,
  "Ġyounger": 5543,
  "Ġyearning": 5544,
  "Ġwinner": 5545,
  "Ġwholly": 5546,
  "Ġwhite": 5547,
  "Ġwalked": 5548,
  "Ġwound": 5549,
  "Ġwick": 5550,
  "Ġwear": 5551,
  "Ġwall": 5552,
  "Ġvampire": 5553,
  "Ġvital": 5554,
  "Ġvintage": 5555,
  "Ġvent": 5556,
  "Ġurge": 5557,
  "Ġunintentionally": 5558,
  "Ġunforced": 5559,
  "Ġunfortunately": 5560,
  "Ġunflinching": 5561,
  "Ġunderstated": 5562,
  "Ġundercut": 5563,
  "Ġuncertain": 5564,
  "Ġuncanny": 5565,
  "Ġunbelie": 5566,
  "Ġunbear": 5567,
  "Ġunw": 5568,
  "Ġunlikable": 5569,
  "Ġturning": 5570,
  "Ġtremend": 5571,
  "Ġtransl": 5572,
  "Ġtragedies": 5573,
  "Ġtrademark": 5574,
  "Ġtrailer": 5575,
  "Ġtrite": 5576,
  "Ġthrows": 5577,
  "Ġterrifying": 5578,
  "Ġterm": 5579,
  "Ġteenage": 5580,
  "Ġtechnical": 5581,
  "Ġtend": 5582,
  "Ġteeth": 5583,
  "Ġteens": 5584,
  "Ġtre": 5585,
  "Ġtiny": 5586,
  "Ġtears": 5587,
  "Ġsympathetic": 5588,
  "Ġsweetly": 5589,
  "Ġswallow": 5590,
  "Ġsubpl": 5591,
  "Ġsubl": 5592,
  "Ġsubculture": 5593,
  "Ġsuited": 5594,
  "Ġstunt": 5595,
  "Ġstring": 5596,
  "Ġstarted": 5597,
  "Ġstays": 5598,
  "Ġsquare": 5599,
  "Ġspr": 5600,
  "Ġspin": 5601,
  "Ġsouls": 5602,
  "Ġsoulful": 5603,
  "Ġsole": 5604,
  "Ġsketchy": 5605,
  "Ġsketch": 5606,
  "Ġsimilar": 5607,
  "Ġsilliness": 5608,
  "Ġshoulders": 5609,
  "Ġshooting": 5610,
  "Ġshocking": 5611,
  "Ġshake": 5612,
  "Ġserve": 5613,
  "Ġseeking": 5614,
  "Ġsevere": 5615,
  "Ġsend": 5616,
  "Ġsearch": 5617,
  "Ġschmalt": 5618,
  "Ġscr": 5619,
  "Ġscare": 5620,
  "Ġsanct": 5621,
  "Ġsacrific": 5622,
  "Ġsor": 5623,
  "Ġske": 5624,
  "Ġrooting": 5625,
  "Ġrewards": 5626,
  "Ġreturns": 5627,
  "Ġreturn": 5628,
  "Ġresolutely": 5629,
  "Ġrequired": 5630,
  "Ġreput": 5631,
  "Ġreleased": 5632,
  "Ġreflect": 5633,
  "Ġredemption": 5634,
  "Ġrecycled": 5635,
  "Ġreasonably": 5636,
  "Ġrevenge": 5637,
  "Ġrandom": 5638,
  "Ġrace": 5639,
  "Ġrote": 5640,
  "Ġquirks": 5641,
  "Ġqual": 5642,
  "Ġproblematic": 5643,
  "Ġprimarily": 5644,
  "Ġpreposterous": 5645,
  "Ġpreachy": 5646,
  "Ġpred": 5647,
  "Ġportray": 5648,
  "Ġpopular": 5649,
  "Ġpolice": 5650,
  "Ġplotted": 5651,
  "Ġplodding": 5652,
  "Ġpleasing": 5653,
  "Ġplayers": 5654,
  "Ġphotographed": 5655,
  "Ġphys": 5656,
  "Ġperhaps": 5657,
  "Ġpeculiar": 5658,
  "Ġpastiche": 5659,
  "Ġpassionate": 5660,
  "Ġparable": 5661,
  "Ġpacked": 5662,
  "Ġpseudo": 5663,
  "Ġporn": 5664,
  "Ġpitch": 5665,
  "Ġphenomen": 5666,
  "Ġpale": 5667,
  "Ġpaid": 5668,
  "Ġopening": 5669,
  "Ġodds": 5670,
  "Ġoccasional": 5671,
  "Ġobviously": 5672,
  "Ġoblig": 5673,
  "Ġod": 5674,
  "Ġnotion": 5675,
  "Ġnote": 5676,
  "Ġnostalg": 5677,
  "Ġnecessarily": 5678,
  "Ġneo": 5679,
  "Ġneat": 5680,
  "Ġnomination": 5681,
  "Ġnational": 5682,
  "Ġmyself": 5683,
  "Ġmovements": 5684,
  "Ġmorality": 5685,
  "Ġmoves": 5686,
  "Ġmerit": 5687,
  "Ġmeasure": 5688,
  "Ġmatinee": 5689,
  "Ġmasterfully": 5690,
  "Ġmaintains": 5691,
  "Ġmagnificent": 5692,
  "Ġmur": 5693,
  "Ġmisf": 5694,
  "Ġmas": 5695,
  "Ġmartial": 5696,
  "Ġmad": 5697,
  "Ġlosing": 5698,
  "Ġlively": 5699,
  "Ġlingering": 5700,
  "Ġlimited": 5701,
  "Ġlightweight": 5702,
  "Ġlib": 5703,
  "Ġletting": 5704,
  "Ġleaden": 5705,
  "Ġlends": 5706,
  "Ġlearn": 5707,
  "Ġlaug": 5708,
  "Ġlanguage": 5709,
  "Ġlush": 5710,
  "Ġlurid": 5711,
  "Ġknew": 5712,
  "Ġkiddie": 5713,
  "Ġkeeping": 5714,
  "Ġjo": 5715,
  "Ġiron": 5716,
  "Ġinvest": 5717,
  "Ġintricate": 5718,
  "Ġintegrity": 5719,
  "Ġinstinct": 5720,
  "Ġinstantly": 5721,
  "Ġinspiration": 5722,
  "Ġingenious": 5723,
  "Ġindependent": 5724,
  "Ġindividual": 5725,
  "Ġinane": 5726,
  "Ġimprobable": 5727,
  "Ġimage": 5728,
  "Ġideal": 5729,
  "Ġhype": 5730,
  "Ġhugely": 5731,
  "Ġhelps": 5732,
  "Ġharrowing": 5733,
  "Ġhalfway": 5734,
  "Ġhoot": 5735,
  "Ġhollow": 5736,
  "Ġharm": 5737,
  "Ġgrandeur": 5738,
  "Ġgrade": 5739,
  "Ġgrind": 5740,
  "Ġglory": 5741,
  "Ġgender": 5742,
  "Ġgently": 5743,
  "Ġfrustration": 5744,
  "Ġfriends": 5745,
  "Ġfreshness": 5746,
  "Ġfrank": 5747,
  "Ġforceful": 5748,
  "Ġformer": 5749,
  "Ġfollowing": 5750,
  "Ġfluid": 5751,
  "Ġfles": 5752,
  "Ġfills": 5753,
  "Ġfights": 5754,
  "Ġfigures": 5755,
  "Ġfeaturing": 5756,
  "Ġfears": 5757,
  "Ġfantasies": 5758,
  "Ġfamous": 5759,
  "Ġfou": 5760,
  "Ġfool": 5761,
  "Ġfizz": 5762,
  "Ġfif": 5763,
  "Ġfer": 5764,
  "Ġfaster": 5765,
  "Ġfac": 5766,
  "Ġfable": 5767,
  "Ġextended": 5768,
  "Ġexagger": 5769,
  "Ġethnic": 5770,
  "Ġessence": 5771,
  "Ġescapism": 5772,
  "Ġequal": 5773,
  "Ġenvironment": 5774,
  "Ġenthusiastic": 5775,
  "Ġengaged": 5776,
  "Ġengage": 5777,
  "Ġendlessly": 5778,
  "Ġenh": 5779,
  "Ġeduc": 5780,
  "Ġevid": 5781,
  "Ġet": 5782,
  "Ġeager": 5783,
  "Ġdrive": 5784,
  "Ġdreadful": 5785,
  "Ġdomestic": 5786,
  "Ġdistract": 5787,
  "Ġdispos": 5788,
  "Ġdiscovery": 5789,
  "Ġdiscover": 5790,
  "Ġdisgu": 5791,
  "Ġdirects": 5792,
  "Ġdiversion": 5793,
  "Ġdeveloped": 5794,
  "Ġdetermination": 5795,
  "Ġdescribe": 5796,
  "Ġdemanding": 5797,
  "Ġdelivering": 5798,
  "Ġdelights": 5799,
  "Ġdelicious": 5800,
  "Ġdeliber": 5801,
  "Ġdeceptively": 5802,
  "Ġdeadpan": 5803,
  "Ġdeadly": 5804,
  "Ġdying": 5805,
  "Ġdue": 5806,
  "Ġdrop": 5807,
  "Ġdie": 5808,
  "Ġcuriously": 5809,
  "Ġcurious": 5810,
  "Ġcuriosity": 5811,
  "Ġcredible": 5812,
  "Ġcreation": 5813,
  "Ġcorny": 5814,
  "Ġcopy": 5815,
  "Ġconvince": 5816,
  "Ġcontroversy": 5817,
  "Ġcontrol": 5818,
  "Ġconstant": 5819,
  "Ġconspira": 5820,
  "Ġconfident": 5821,
  "Ġconcert": 5822,
  "Ġconvey": 5823,
  "Ġconven": 5824,
  "Ġcontext": 5825,
  "Ġconscious": 5826,
  "Ġcomplexity": 5827,
  "Ġcomparison": 5828,
  "Ġcomfortable": 5829,
  "Ġcombined": 5830,
  "Ġcollabor": 5831,
  "Ġcolors": 5832,
  "Ġclumsily": 5833,
  "Ġcleverly": 5834,
  "Ġclin": 5835,
  "Ġchildhood": 5836,
  "Ġchoices": 5837,
  "Ġchanges": 5838,
  "Ġcelebrates": 5839,
  "Ġcategory": 5840,
  "Ġcasual": 5841,
  "Ġcarry": 5842,
  "Ġcarried": 5843,
  "Ġcapacity": 5844,
  "Ġcorn": 5845,
  "Ġciv": 5846,
  "Ġcaught": 5847,
  "Ġcatch": 5848,
  "Ġcard": 5849,
  "Ġburst": 5850,
  "Ġbullets": 5851,
  "Ġbuilt": 5852,
  "Ġbrutal": 5853,
  "Ġbringing": 5854,
  "Ġbrilliantly": 5855,
  "Ġbreaks": 5856,
  "Ġbodies": 5857,
  "Ġblow": 5858,
  "Ġblast": 5859,
  "Ġblank": 5860,
  "Ġbelt": 5861,
  "Ġbelongs": 5862,
  "Ġbehold": 5863,
  "Ġbecoming": 5864,
  "Ġbaffling": 5865,
  "Ġbody": 5866,
  "Ġbase": 5867,
  "Ġattraction": 5868,
  "Ġattitude": 5869,
  "Ġarts": 5870,
  "Ġartists": 5871,
  "Ġartifice": 5872,
  "Ġarrives": 5873,
  "Ġarrest": 5874,
  "Ġappreciate": 5875,
  "Ġambition": 5876,
  "Ġalternative": 5877,
  "Ġaimed": 5878,
  "Ġagg": 5879,
  "Ġadvantage": 5880,
  "Ġachingly": 5881,
  "Ġabsurdity": 5882,
  "ĠXXX": 5883,
  "ĠWhite": 5884,
  "ĠWestern": 5885,
  "ĠWitch": 5886,
  "ĠWel": 5887,
  "ĠWat": 5888,
  "ĠWalk": 5889,
  "ĠTun": 5890,
  "ĠStone": 5891,
  "ĠSnow": 5892,
  "ĠSecrets": 5893,
  "ĠSchmidt": 5894,
  "ĠSuch": 5895,
  "ĠSpe": 5896,
  "ĠSil": 5897,
  "ĠSie": 5898,
  "ĠShe": 5899,
  "ĠSex": 5900,
  "ĠSara": 5901,
  "ĠSar": 5902,
  "ĠRussian": 5903,
  "ĠRevolution": 5904,
  "ĠRead": 5905,
  "ĠPhilip": 5906,
  "ĠProp": 5907,
  "ĠPinoc": 5908,
  "ĠOli": 5909,
  "ĠNicholson": 5910,
  "ĠNijinsky": 5911,
  "ĠNever": 5912,
  "ĠMen": 5913,
  "ĠMel": 5914,
  "ĠMe": 5915,
  "ĠMac": 5916,
  "ĠLegged": 5917,
  "ĠLopez": 5918,
  "ĠLong": 5919,
  "ĠLips": 5920,
  "ĠLike": 5921,
  "ĠLand": 5922,
  "ĠKidman": 5923,
  "ĠKos": 5924,
  "ĠKong": 5925,
  "ĠKaufman": 5926,
  "ĠKah": 5927,
  "ĠJackie": 5928,
  "ĠJon": 5929,
  "ĠJew": 5930,
  "ĠJaglom": 5931,
  "ĠIsra": 5932,
  "ĠHoward": 5933,
  "ĠHerzog": 5934,
  "ĠHun": 5935,
  "ĠHours": 5936,
  "ĠHong": 5937,
  "ĠHill": 5938,
  "ĠHalloween": 5939,
  "ĠGodard": 5940,
  "ĠGra": 5941,
  "ĠGerman": 5942,
  "ĠGener": 5943,
  "ĠFrance": 5944,
  "ĠFatal": 5945,
  "ĠFreaks": 5946,
  "ĠFisher": 5947,
  "ĠEsther": 5948,
  "ĠEvil": 5949,
  "ĠEd": 5950,
  "ĠDisguise": 5951,
  "ĠDeeds": 5952,
  "ĠDVD": 5953,
  "ĠDon": 5954,
  "ĠColumb": 5955,
  "ĠCho": 5956,
  "ĠChina": 5957,
  "ĠCarvey": 5958,
  "ĠBroomfield": 5959,
  "ĠBeauty": 5960,
  "ĠBride": 5961,
  "ĠArnold": 5962,
  "ĠAfrican": 5963,
  "ĠAdvent": 5964,
  "ĠAdam": 5965,
  "Ġ51": 5966,
  "Ġ50": 5967,
  "Ġ21": 5968,
  "zzy": 5969,
  "yr": 5970,
  "wrenching": 5971,
  "world": 5972,
  "wone": 5973,
  "witted": 5974,
  "with": 5975,
  "wing": 5976,
  "win": 5977,
  "well": 5978,
  "wan": 5979,
  "volves": 5980,
  "views": 5981,
  "versive": 5982,
  "vall": 5983,
  "utt": 5984,
  "usting": 5985,
  "urprisingly": 5986,
  "urban": 5987,
  "umps": 5988,
  "umbles": 5989,
  "umbing": 5990,
  "umm": 5991,
  "ulner": 5992,
  "ulate": 5993,
  "ularly": 5994,
  "ufact": 5995,
  "ufactured": 5996,
  "uddy": 5997,
  "udup": 5998,
  "urope": 5999,
  "uel": 6000,
  "uces": 6001,
  "ucc": 6002,
  "uart": 6003,
  "thony": 6004,
  "than": 6005,
  "tedly": 6006,
  "tes": 6007,
  "talk": 6008,
  "talkers": 6009,
  "sych": 6010,
  "stoppers": 6011,
  "stem": 6012,
  "shall": 6013,
  "sequences": 6014,
  "ruckhe": 6015,
  "ronic": 6016,
  "ridan": 6017,
  "rida": 6018,
  "riff": 6019,
  "retty": 6020,
  "reads": 6021,
  "rehe": 6022,
  "rors": 6023,
  "rity": 6024,
  "quilibrium": 6025,
  "quiet": 6026,
  "plicity": 6027,
  "pless": 6028,
  "pecc": 6029,
  "peccable": 6030,
  "prise": 6031,
  "owerment": 6032,
  "owell": 6033,
  "ourne": 6034,
  "oubtedly": 6035,
  "ougl": 6036,
  "ouge": 6037,
  "othman": 6038,
  "otting": 6039,
  "oto": 6040,
  "ostor": 6041,
  "ortions": 6042,
  "ortant": 6043,
  "orrows": 6044,
  "orking": 6045,
  "opping": 6046,
  "oots": 6047,
  "ooping": 6048,
  "ontane": 6049,
  "ontal": 6050,
  "onduct": 6051,
  "ometimes": 6052,
  "omn": 6053,
  "omnia": 6054,
  "ollerball": 6055,
  "oked": 6056,
  "ohmer": 6057,
  "ographic": 6058,
  "ogdanovich": 6059,
  "ogy": 6060,
  "offensive": 6061,
  "oding": 6062,
  "odge": 6063,
  "ode": 6064,
  "ockstoppers": 6065,
  "obi": 6066,
  "oback": 6067,
  "ooney": 6068,
  "och": 6069,
  "nerving": 6070,
  "no": 6071,
  "natural": 6072,
  "mpton": 6073,
  "mod": 6074,
  "mitt": 6075,
  "mittently": 6076,
  "matic": 6077,
  "mare": 6078,
  "mar": 6079,
  "lympton": 6080,
  "lling": 6081,
  "lete": 6082,
  "lee": 6083,
  "lean": 6084,
  "luster": 6085,
  "lock": 6086,
  "lf": 6087,
  "kh": 6088,
  "jud": 6089,
  "ization": 6090,
  "itality": 6091,
  "ita": 6092,
  "isterhood": 6093,
  "isse": 6094,
  "intention": 6095,
  "intentioned": 6096,
  "inker": 6097,
  "iniscent": 6098,
  "inema": 6099,
  "indu": 6100,
  "indtalkers": 6101,
  "imps": 6102,
  "imone": 6103,
  "immer": 6104,
  "iminal": 6105,
  "ilson": 6106,
  "ilarly": 6107,
  "igns": 6108,
  "ighbor": 6109,
  "igo": 6110,
  "ifer": 6111,
  "iesel": 6112,
  "ienced": 6113,
  "idelity": 6114,
  "iddy": 6115,
  "idence": 6116,
  "icher": 6117,
  "ichel": 6118,
  "ication": 6119,
  "ican": 6120,
  "ibal": 6121,
  "iro": 6122,
  "iantly": 6123,
  "iac": 6124,
  "hew": 6125,
  "herence": 6126,
  "heless": 6127,
  "hmer": 6128,
  "hill": 6129,
  "girls": 6130,
  "ghan": 6131,
  "ggio": 6132,
  "gger": 6133,
  "gettable": 6134,
  "gend": 6135,
  "forms": 6136,
  "friend": 6137,
  "filling": 6138,
  "fig": 6139,
  "fan": 6140,
  "familiar": 6141,
  "faced": 6142,
  "face": 6143,
  "ewis": 6144,
  "etheless": 6145,
  "estyle": 6146,
  "ervative": 6147,
  "erell": 6148,
  "erious": 6149,
  "enter": 6150,
  "ensical": 6151,
  "endigo": 6152,
  "enstein": 6153,
  "drop": 6154,
  "do": 6155,
  "dep": 6156,
  "culation": 6157,
  "cont": 6158,
  "cipl": 6159,
  "cia": 6160,
  "chio": 6161,
  "cerity": 6162,
  "cip": 6163,
  "cingly": 6164,
  "card": 6165,
  "cadem": 6166,
  "cademy": 6167,
  "balls": 6168,
  "bound": 6169,
  "born": 6170,
  "bage": 6171,
  "awson": 6172,
  "aware": 6173,
  "austro": 6174,
  "attering": 6175,
  "athan": 6176,
  "astily": 6177,
  "ashes": 6178,
  "arlier": 6179,
  "arantino": 6180,
  "aradiso": 6181,
  "arian": 6182,
  "aping": 6183,
  "annes": 6184,
  "anz": 6185,
  "aning": 6186,
  "alia": 6187,
  "aint": 6188,
  "acter": 6189,
  "acino": 6190,
  "ache": 6191,
  "acc": 6192,
  "abit": 6193,
  "aved": 6194,
  "aus": 6195,
  "aude": 6196,
  "aud": 6197,
  "aque": 6198,
  "Without": 6199,
  "Whatever": 6200,
  "Une": 6201,
  "Tw": 6202,
  "Strange": 6203,
  "Steven": 6204,
  "Spielberg": 6205,
  "Sweet": 6206,
  "Sol": 6207,
  "Smart": 6208,
  "Simp": 6209,
  "Rob": 6210,
  "Ret": 6211,
  "Poignant": 6212,
  "Perhaps": 6213,
  "Pre": 6214,
  "Manages": 6215,
  "Me": 6216,
  "Mc": 6217,
  "Mar": 6218,
  "Makes": 6219,
  "Less": 6220,
  "Lacks": 6221,
  "Kids": 6222,
  "Jack": 6223,
  "Highly": 6224,
  "Hard": 6225,
  "Great": 6226,
  "Grath": 6227,
  "Funny": 6228,
  "First": 6229,
  "Fails": 6230,
  "Dowell": 6231,
  "Direct": 6232,
  "Def": 6233,
  "Conf": 6234,
  "Comes": 6235,
  "Cr": 6236,
  "Comp": 6237,
  "Bute": 6238,
  "Bar": 6239,
  "American": 6240,
  "Altern": 6241,
  "Ar": 6242,
  "19": 6243,
  "Ġzero": 6244,
  "Ġwonders": 6245,
  "Ġweirdness": 6246,
  "Ġweep": 6247,
  "Ġwanting": 6248,
  "Ġwrapped": 6249,
  "Ġwake": 6250,
  "Ġvisit": 6251,
  "Ġvideos": 6252,
  "Ġvictims": 6253,
  "Ġvictim": 6254,
  "Ġverve": 6255,
  "Ġverbal": 6256,
  "Ġvariety": 6257,
  "Ġvol": 6258,
  "Ġvitality": 6259,
  "Ġvast": 6260,
  "Ġunusually": 6261,
  "Ġunrel": 6262,
  "Ġunexpectedly": 6263,
  "Ġunderstands": 6264,
  "Ġuncomfortable": 6265,
  "Ġunbelievable": 6266,
  "Ġunabashedly": 6267,
  "Ġunnerving": 6268,
  "Ġuncomm": 6269,
  "Ġuplifting": 6270,
  "Ġtried": 6271,
  "Ġtremendous": 6272,
  "Ġtreats": 6273,
  "Ġtranscends": 6274,
  "Ġtrav": 6275,
  "Ġtrust": 6276,
  "Ġtouched": 6277,
  "Ġtopic": 6278,
  "Ġtool": 6279,
  "Ġtimeless": 6280,
  "Ġthrillers": 6281,
  "Ġthematic": 6282,
  "Ġthreat": 6283,
  "Ġthick": 6284,
  "Ġtextbook": 6285,
  "Ġterribly": 6286,
  "Ġtechnology": 6287,
  "Ġtends": 6288,
  "Ġteleg": 6289,
  "Ġtasteful": 6290,
  "Ġtalky": 6291,
  "Ġtales": 6292,
  "Ġtun": 6293,
  "Ġten": 6294,
  "Ġsystem": 6295,
  "Ġsweetness": 6296,
  "Ġsweeping": 6297,
  "Ġsword": 6298,
  "Ġsurrounding": 6299,
  "Ġsupernatural": 6300,
  "Ġsumm": 6301,
  "Ġsubtit": 6302,
  "Ġsubstitute": 6303,
  "Ġsubstantial": 6304,
  "Ġsubplots": 6305,
  "Ġsublime": 6306,
  "Ġsubversive": 6307,
  "Ġsus": 6308,
  "Ġsup": 6309,
  "Ġsudden": 6310,
  "Ġstylistic": 6311,
  "Ġstrictly": 6312,
  "Ġstrikes": 6313,
  "Ġstraightforward": 6314,
  "Ġstrang": 6315,
  "Ġstilted": 6316,
  "Ġsticks": 6317,
  "Ġsquanders": 6318,
  "Ġspecif": 6319,
  "Ġspeaking": 6320,
  "Ġspeak": 6321,
  "Ġsparkling": 6322,
  "Ġspontane": 6323,
  "Ġspare": 6324,
  "Ġsorry": 6325,
  "Ġsophomoric": 6326,
  "Ġsomebody": 6327,
  "Ġsolidly": 6328,
  "Ġsobering": 6329,
  "Ġsoft": 6330,
  "Ġsleeve": 6331,
  "Ġsluggish": 6332,
  "Ġslo": 6333,
  "Ġslack": 6334,
  "Ġskip": 6335,
  "Ġsinging": 6336,
  "Ġsincerity": 6337,
  "Ġsimultaneously": 6338,
  "Ġsimplicity": 6339,
  "Ġsimilarly": 6340,
  "Ġsilver": 6341,
  "Ġshowcase": 6342,
  "Ġshowing": 6343,
  "Ġshelf": 6344,
  "Ġshapeless": 6345,
  "Ġshamelessly": 6346,
  "Ġshadow": 6347,
  "Ġshrewd": 6348,
  "Ġshines": 6349,
  "Ġsemi": 6350,
  "Ġseemingly": 6351,
  "Ġseek": 6352,
  "Ġseconds": 6353,
  "Ġscreening": 6354,
  "Ġscreaming": 6355,
  "Ġscenery": 6356,
  "Ġscattered": 6357,
  "Ġsaying": 6358,
  "Ġsavvy": 6359,
  "Ġsatirical": 6360,
  "Ġsaga": 6361,
  "Ġsadly": 6362,
  "Ġsquee": 6363,
  "Ġsly": 6364,
  "Ġsix": 6365,
  "Ġsinks": 6366,
  "Ġsell": 6367,
  "Ġsed": 6368,
  "Ġsane": 6369,
  "Ġsake": 6370,
  "Ġrowdy": 6371,
  "Ġrichly": 6372,
  "Ġrival": 6373,
  "Ġresponsible": 6374,
  "Ġresonance": 6375,
  "Ġresour": 6376,
  "Ġreputation": 6377,
  "Ġreminder": 6378,
  "Ġremembered": 6379,
  "Ġrelig": 6380,
  "Ġrelief": 6381,
  "Ġrefusal": 6382,
  "Ġredundant": 6383,
  "Ġreco": 6384,
  "Ġrelevant": 6385,
  "Ġreject": 6386,
  "Ġrehash": 6387,
  "Ġreass": 6388,
  "Ġreaction": 6389,
  "Ġrapid": 6390,
  "Ġraised": 6391,
  "Ġracial": 6392,
  "Ġrude": 6393,
  "Ġru": 6394,
  "Ġround": 6395,
  "Ġricher": 6396,
  "Ġranks": 6397,
  "Ġrank": 6398,
  "Ġpulling": 6399,
  "Ġproviding": 6400,
  "Ġproportions": 6401,
  "Ġprospect": 6402,
  "Ġpretensions": 6403,
  "Ġpresented": 6404,
  "Ġpredictably": 6405,
  "Ġpredecessors": 6406,
  "Ġprevent": 6407,
  "Ġprecise": 6408,
  "Ġpractically": 6409,
  "Ġproud": 6410,
  "Ġpotent": 6411,
  "Ġpossess": 6412,
  "Ġportrays": 6413,
  "Ġponderous": 6414,
  "Ġpolitically": 6415,
  "Ġphilosophy": 6416,
  "Ġpersonalities": 6417,
  "Ġperformed": 6418,
  "Ġpedestrian": 6419,
  "Ġpeek": 6420,
  "Ġpathology": 6421,
  "Ġpartners": 6422,
  "Ġpaints": 6423,
  "Ġpowers": 6424,
  "Ġpays": 6425,
  "Ġpark": 6426,
  "Ġpants": 6427,
  "Ġpage": 6428,
  "Ġoverlong": 6429,
  "Ġoutstanding": 6430,
  "Ġorgan": 6431,
  "Ġopenness": 6432,
  "Ġopaque": 6433,
  "Ġobsession": 6434,
  "Ġobservation": 6435,
  "Ġobservant": 6436,
  "Ġoo": 6437,
  "Ġnorm": 6438,
  "Ġnonsensical": 6439,
  "Ġnonsense": 6440,
  "Ġnonetheless": 6441,
  "Ġnoise": 6442,
  "Ġnoble": 6443,
  "Ġnewcom": 6444,
  "Ġneighbor": 6445,
  "Ġnet": 6446,
  "Ġnarc": 6447,
  "Ġmurky": 6448,
  "Ġmonot": 6449,
  "Ġmisery": 6450,
  "Ġminimalist": 6451,
  "Ġmental": 6452,
  "Ġmediocrity": 6453,
  "Ġmechanical": 6454,
  "Ġmeasured": 6455,
  "Ġmeaningful": 6456,
  "Ġmeat": 6457,
  "Ġmarginal": 6458,
  "Ġmanufactured": 6459,
  "Ġmachine": 6460,
  "Ġmuddled": 6461,
  "Ġmatters": 6462,
  "Ġlonging": 6463,
  "Ġlocations": 6464,
  "Ġlikable": 6465,
  "Ġlegend": 6466,
  "Ġlect": 6467,
  "Ġlayers": 6468,
  "Ġlackluster": 6469,
  "Ġlabored": 6470,
  "Ġlust": 6471,
  "Ġlaw": 6472,
  "Ġlatter": 6473,
  "Ġlaid": 6474,
  "Ġlabor": 6475,
  "Ġknown": 6476,
  "Ġkinda": 6477,
  "Ġkill": 6478,
  "Ġjustify": 6479,
  "Ġjumble": 6480,
  "Ġjeal": 6481,
  "Ġirresistible": 6482,
  "Ġironic": 6483,
  "Ġintimacy": 6484,
  "Ġinternational": 6485,
  "Ġinterp": 6486,
  "Ġintermittently": 6487,
  "Ġinsulting": 6488,
  "Ġinstall": 6489,
  "Ġinspirational": 6490,
  "Ġinspire": 6491,
  "Ġinsanely": 6492,
  "Ġinhabit": 6493,
  "Ġinevitable": 6494,
  "Ġinconsequential": 6495,
  "Ġincomprehensible": 6496,
  "Ġincons": 6497,
  "Ġincisive": 6498,
  "Ġinsec": 6499,
  "Ġinoffensive": 6500,
  "Ġinject": 6501,
  "Ġinesc": 6502,
  "Ġimpressed": 6503,
  "Ġimpress": 6504,
  "Ġimmediate": 6505,
  "Ġimmensely": 6506,
  "Ġimpeccable": 6507,
  "Ġimitation": 6508,
  "Ġillumin": 6509,
  "Ġhypnotic": 6510,
  "Ġhyper": 6511,
  "Ġhumorless": 6512,
  "Ġhoped": 6513,
  "Ġhonesty": 6514,
  "Ġheroine": 6515,
  "Ġheroes": 6516,
  "Ġherself": 6517,
  "Ġheld": 6518,
  "Ġhear": 6519,
  "Ġharsh": 6520,
  "Ġhappy": 6521,
  "Ġhappened": 6522,
  "Ġhandled": 6523,
  "Ġhusband": 6524,
  "Ġhost": 6525,
  "Ġhitting": 6526,
  "Ġhastily": 6527,
  "Ġguessing": 6528,
  "Ġgraceful": 6529,
  "Ġgrab": 6530,
  "Ġgrat": 6531,
  "Ġgrasp": 6532,
  "Ġglossy": 6533,
  "Ġglum": 6534,
  "Ġglass": 6535,
  "Ġgenerous": 6536,
  "Ġgenerate": 6537,
  "Ġgarbage": 6538,
  "Ġgory": 6539,
  "Ġgore": 6540,
  "Ġgiddy": 6541,
  "Ġghost": 6542,
  "Ġfrightening": 6543,
  "Ġfoul": 6544,
  "Ġforces": 6545,
  "Ġflow": 6546,
  "Ġflour": 6547,
  "Ġflavor": 6548,
  "Ġfinely": 6549,
  "Ġfinest": 6550,
  "Ġfilling": 6551,
  "Ġfavorite": 6552,
  "Ġfancy": 6553,
  "Ġfamilies": 6554,
  "Ġfamilial": 6555,
  "Ġfactor": 6556,
  "Ġfaithful": 6557,
  "Ġfro": 6558,
  "Ġfollows": 6559,
  "Ġfly": 6560,
  "Ġfix": 6561,
  "Ġfestival": 6562,
  "Ġfellow": 6563,
  "Ġfather": 6564,
  "Ġexpression": 6565,
  "Ġexposition": 6566,
  "Ġexistence": 6567,
  "Ġexceptionally": 6568,
  "Ġexceedingly": 6569,
  "Ġexcruci": 6570,
  "Ġexaggerated": 6571,
  "Ġevening": 6572,
  "Ġepisodes": 6573,
  "Ġenterprise": 6574,
  "Ġendure": 6575,
  "Ġencouraging": 6576,
  "Ġempowerment": 6577,
  "Ġembarrassment": 6578,
  "Ġelev": 6579,
  "Ġelect": 6580,
  "Ġelaborate": 6581,
  "Ġedgy": 6582,
  "Ġearnestness": 6583,
  "Ġeconom": 6584,
  "Ġeat": 6585,
  "Ġearth": 6586,
  "Ġearn": 6587,
  "Ġearlier": 6588,
  "Ġear": 6589,
  "Ġdraws": 6590,
  "Ġdrawing": 6591,
  "Ġdramatically": 6592,
  "Ġdramat": 6593,
  "Ġdownbeat": 6594,
  "Ġdoses": 6595,
  "Ġdope": 6596,
  "Ġdistaste": 6597,
  "Ġdisposable": 6598,
  "Ġdismissed": 6599,
  "Ġdisappointment": 6600,
  "Ġdisquiet": 6601,
  "Ġdisjointed": 6602,
  "Ġdisguise": 6603,
  "Ġdisg": 6604,
  "Ġdirecting": 6605,
  "Ġdevices": 6606,
  "Ġdestination": 6607,
  "Ġdepict": 6608,
  "Ġdenial": 6609,
  "Ġdemonstrates": 6610,
  "Ġdemented": 6611,
  "Ġdaily": 6612,
  "Ġdouble": 6613,
  "Ġdancing": 6614,
  "Ġdance": 6615,
  "Ġcultures": 6616,
  "Ġcrucial": 6617,
  "Ġcritics": 6618,
  "Ġcorner": 6619,
  "Ġconvenient": 6620,
  "Ġcontradictory": 6621,
  "Ġcontempl": 6622,
  "Ġconsidered": 6623,
  "Ġconsciousness": 6624,
  "Ġconservative": 6625,
  "Ġcomplications": 6626,
  "Ġcompetent": 6627,
  "Ġcomprom": 6628,
  "Ġcover": 6629,
  "Ġcohes": 6630,
  "Ġcoherent": 6631,
  "Ġclothes": 6632,
  "Ġcloser": 6633,
  "Ġclimactic": 6634,
  "Ġclaustro": 6635,
  "Ġcharmless": 6636,
  "Ġcharismatic": 6637,
  "Ġchannel": 6638,
  "Ġchaotic": 6639,
  "Ġchore": 6640,
  "Ġchord": 6641,
  "Ġchops": 6642,
  "Ġchills": 6643,
  "Ġchief": 6644,
  "Ġchases": 6645,
  "Ġchanging": 6646,
  "Ġcelebration": 6647,
  "Ġcatches": 6648,
  "Ġcalcul": 6649,
  "Ġbusy": 6650,
  "Ġbuilds": 6651,
  "Ġbuilding": 6652,
  "Ġbuffs": 6653,
  "Ġburied": 6654,
  "Ġbrutally": 6655,
  "Ġbrooding": 6656,
  "Ġbrand": 6657,
  "Ġbrothers": 6658,
  "Ġblat": 6659,
  "Ġblame": 6660,
  "Ġbiopic": 6661,
  "Ġbelow": 6662,
  "Ġbears": 6663,
  "Ġbackdrop": 6664,
  "Ġbull": 6665,
  "Ġbri": 6666,
  "Ġbou": 6667,
  "Ġbot": 6668,
  "Ġbes": 6669,
  "Ġbang": 6670,
  "Ġauthority": 6671,
  "Ġastonishingly": 6672,
  "Ġartistic": 6673,
  "Ġarticul": 6674,
  "Ġarrive": 6675,
  "Ġard": 6676,
  "Ġappropriate": 6677,
  "Ġappalling": 6678,
  "Ġanybody": 6679,
  "Ġanswer": 6680,
  "Ġanom": 6681,
  "Ġangu": 6682,
  "Ġambiguous": 6683,
  "Ġalternately": 6684,
  "Ġallegory": 6685,
  "Ġalienation": 6686,
  "Ġaltogether": 6687,
  "Ġaimless": 6688,
  "Ġaging": 6689,
  "Ġadventurous": 6690,
  "Ġadvert": 6691,
  "Ġadrenal": 6692,
  "Ġaccents": 6693,
  "Ġaccent": 6694,
  "Ġabandon": 6695,
  "Ġahead": 6696,
  "Ġaest": 6697,
  "ĠZone": 6698,
  "ĠWindtalkers": 6699,
  "ĠWilson": 6700,
  "ĠWill": 6701,
  "ĠWars": 6702,
  "ĠWarm": 6703,
  "ĠVincent": 6704,
  "ĠThey": 6705,
  "ĠTaylor": 6706,
  "ĠTwo": 6707,
  "ĠTuck": 6708,
  "ĠTri": 6709,
  "ĠToback": 6710,
  "ĠTo": 6711,
  "ĠStorytelling": 6712,
  "ĠStuart": 6713,
  "ĠSnipes": 6714,
  "ĠScott": 6715,
  "ĠSarandon": 6716,
  "ĠSoldiers": 6717,
  "ĠSl": 6718,
  "ĠSide": 6719,
  "ĠSalt": 6720,
  "ĠRoad": 6721,
  "ĠReno": 6722,
  "ĠRoman": 6723,
  "ĠRohmer": 6724,
  "ĠRitchie": 6725,
  "ĠRemember": 6726,
  "ĠRay": 6727,
  "ĠRand": 6728,
  "ĠProject": 6729,
  "ĠPinocchio": 6730,
  "ĠPlympton": 6731,
  "ĠParadiso": 6732,
  "ĠPalma": 6733,
  "ĠPa": 6734,
  "ĠNext": 6735,
  "ĠNap": 6736,
  "ĠMusic": 6737,
  "ĠMike": 6738,
  "ĠMiddle": 6739,
  "ĠMi": 6740,
  "ĠMex": 6741,
  "ĠMer": 6742,
  "ĠMat": 6743,
  "ĠMam": 6744,
  "ĠLife": 6745,
  "ĠLanes": 6746,
  "ĠLane": 6747,
  "ĠLady": 6748,
  "ĠKorea": 6749,
  "ĠKung": 6750,
  "ĠKenn": 6751,
  "ĠJoel": 6752,
  "ĠJessica": 6753,
  "ĠJones": 6754,
  "ĠJan": 6755,
  "ĠIrish": 6756,
  "ĠIce": 6757,
  "ĠHolm": 6758,
  "ĠHarry": 6759,
  "ĠHarris": 6760,
  "ĠHour": 6761,
  "ĠHitchcock": 6762,
  "ĠHis": 6763,
  "ĠHenry": 6764,
  "ĠHell": 6765,
  "ĠHave": 6766,
  "ĠHartley": 6767,
  "ĠHappy": 6768,
  "ĠGuys": 6769,
  "ĠGreene": 6770,
  "ĠGlass": 6771,
  "ĠGhost": 6772,
  "ĠFrida": 6773,
  "ĠFreeman": 6774,
  "ĠFrontal": 6775,
  "ĠFrom": 6776,
  "ĠFred": 6777,
  "ĠFour": 6778,
  "ĠFer": 6779,
  "ĠEastwood": 6780,
  "ĠEurope": 6781,
  "ĠEarnest": 6782,
  "ĠDuke": 6783,
  "ĠDogs": 6784,
  "ĠDeath": 6785,
  "ĠDahmer": 6786,
  "ĠDong": 6787,
  "ĠDo": 6788,
  "ĠDirty": 6789,
  "ĠDiesel": 6790,
  "ĠDie": 6791,
  "ĠDawson": 6792,
  "ĠDavis": 6793,
  "ĠClause": 6794,
  "ĠChou": 6795,
  "ĠChicago": 6796,
  "ĠChateau": 6797,
  "ĠConduct": 6798,
  "ĠColl": 6799,
  "ĠCirc": 6800,
  "ĠChe": 6801,
  "ĠCarm": 6802,
  "ĠCare": 6803,
  "ĠCannes": 6804,
  "ĠCaine": 6805,
  "ĠCa": 6806,
  "ĠBeast": 6807,
  "ĠBut": 6808,
  "ĠBu": 6809,
  "ĠBruckhe": 6810,
  "ĠBreak": 6811,
  "ĠBoy": 6812,
  "ĠBest": 6813,
  "ĠBard": 6814,
  "ĠArgentine": 6815,
  "ĠAnton": 6816,
  "ĠAngel": 6817,
  "ĠAnthony": 6818,
  "ĠAnne": 6819,
  "ĠAnimal": 6820,
  "ĠAnalyze": 6821,
  "ĠAdventures": 6822,
  "ĠAv": 6823,
  "ĠAustin": 6824,
  "ĠAfter": 6825,
  "ĠAcademy": 6826,
  "Ġ30": 6827,
  "Ġ197": 6828,
  "Ġ101": 6829,
  "Ġ13": 6830,
  "Ġ100": 6831,
  "ĠYou": 6832,
  "Ġ6": 6833,
  "Ã©l": 6834,
  "Ã¢": 6835,
  "Ã¢te": 6836,
  "Ã¢teau": 6837,
  "zpet": 6838,
  "zpetek": 6839,
  "zene": 6840,
  "zenegger": 6841,
  "zel": 6842,
  "yrote": 6843,
  "yrotechn": 6844,
  "ync": 6845,
  "yncratic": 6846,
  "yre": 6847,
  "yingly": 6848,
  "xton": 6849,
  "xim": 6850,
  "withstanding": 6851,
  "white": 6852,
  "warzenegger": 6853,
  "writers": 6854,
  "worth": 6855,
  "wes": 6856,
  "wash": 6857,
  "vili": 6858,
  "vigor": 6859,
  "verty": 6860,
  "ventional": 6861,
  "venile": 6862,
  "veler": 6863,
  "vokes": 6864,
  "vating": 6865,
  "vances": 6866,
  "van": 6867,
  "utty": 6868,
  "utting": 6869,
  "uts": 6870,
  "util": 6871,
  "ustic": 6872,
  "ushed": 6873,
  "urned": 6874,
  "uriously": 6875,
  "uries": 6876,
  "urves": 6877,
  "urch": 6878,
  "ungry": 6879,
  "undamentals": 6880,
  "undred": 6881,
  "unky": 6882,
  "unit": 6883,
  "umst": 6884,
  "ummer": 6885,
  "ulous": 6886,
  "uloid": 6887,
  "ules": 6888,
  "ulent": 6889,
  "uez": 6890,
  "uddle": 6891,
  "ubr": 6892,
  "uously": 6893,
  "under": 6894,
  "ule": 6895,
  "ught": 6896,
  "ueless": 6897,
  "uber": 6898,
  "through": 6899,
  "thought": 6900,
  "tei": 6901,
  "tech": 6902,
  "trip": 6903,
  "ties": 6904,
  "stract": 6905,
  "sting": 6906,
  "stage": 6907,
  "spoon": 6908,
  "sembled": 6909,
  "sea": 6910,
  "sciously": 6911,
  "suff": 6912,
  "spe": 6913,
  "somnia": 6914,
  "sing": 6915,
  "sided": 6916,
  "rumline": 6917,
  "ructive": 6918,
  "ruff": 6919,
  "rossroad": 6920,
  "rossroads": 6921,
  "ropol": 6922,
  "ropic": 6923,
  "roomfield": 6924,
  "romises": 6925,
  "roo": 6926,
  "rog": 6927,
  "roat": 6928,
  "ritical": 6929,
  "riffith": 6930,
  "rived": 6931,
  "rior": 6932,
  "rif": 6933,
  "rifice": 6934,
  "resses": 6935,
  "reading": 6936,
  "resh": 6937,
  "ref": 6938,
  "reed": 6939,
  "rayal": 6940,
  "raw": 6941,
  "raise": 6942,
  "raint": 6943,
  "rion": 6944,
  "rill": 6945,
  "rics": 6946,
  "rats": 6947,
  "rase": 6948,
  "rara": 6949,
  "qui": 6950,
  "quet": 6951,
  "quer": 6952,
  "ptuous": 6953,
  "ption": 6954,
  "produced": 6955,
  "porate": 6956,
  "pleaser": 6957,
  "phob": 6958,
  "pendence": 6959,
  "puff": 6960,
  "post": 6961,
  "pieces": 6962,
  "pic": 6963,
  "pass": 6964,
  "part": 6965,
  "pable": 6966,
  "oyce": 6967,
  "owerpuff": 6968,
  "owing": 6969,
  "ouses": 6970,
  "ouglas": 6971,
  "otion": 6972,
  "otically": 6973,
  "ostner": 6974,
  "ostly": 6975,
  "osca": 6976,
  "osyncratic": 6977,
  "orpion": 6978,
  "ornber": 6979,
  "ornberry": 6980,
  "ordid": 6981,
  "ordan": 6982,
  "ora": 6983,
  "oppola": 6984,
  "opher": 6985,
  "oonlight": 6986,
  "ooks": 6987,
  "onym": 6988,
  "ontaine": 6989,
  "ondry": 6990,
  "only": 6991,
  "oning": 6992,
  "onest": 6993,
  "ompany": 6994,
  "oleon": 6995,
  "olie": 6996,
  "oli": 6997,
  "olate": 6998,
  "okum": 6999,
  "ohy": 7000,
  "ofc": 7001,
  "ofcener": 7002,
  "odriguez": 7003,
  "odd": 7004,
  "ocra": 7005,
  "ocity": 7006,
  "oons": 7007,
  "oen": 7008,
  "oat": 7009,
  "ndo": 7010,
  "numbers": 7011,
  "now": 7012,
  "mpire": 7013,
  "minally": 7014,
  "mented": 7015,
  "meets": 7016,
  "mor": 7017,
  "makers": 7018,
  "maker": 7019,
  "ltra": 7020,
  "llen": 7021,
  "lett": 7022,
  "letis": 7023,
  "lear": 7024,
  "loud": 7025,
  "list": 7026,
  "lers": 7027,
  "kill": 7028,
  "jerker": 7029,
  "izard": 7030,
  "izab": 7031,
  "izabeth": 7032,
  "iyaz": 7033,
  "iyazaki": 7034,
  "ittered": 7035,
  "ittedly": 7036,
  "itherspoon": 7037,
  "itter": 7038,
  "ito": 7039,
  "itivity": 7040,
  "itc": 7041,
  "itations": 7042,
  "itage": 7043,
  "isted": 7044,
  "ission": 7045,
  "ismo": 7046,
  "ishment": 7047,
  "ison": 7048,
  "isi": 7049,
  "irts": 7050,
  "irteen": 7051,
  "irot": 7052,
  "irms": 7053,
  "irations": 7054,
  "ipid": 7055,
  "ionad": 7056,
  "ionados": 7057,
  "inson": 7058,
  "innear": 7059,
  "ingered": 7060,
  "inge": 7061,
  "inematic": 7062,
  "inderell": 7063,
  "inderella": 7064,
  "inian": 7065,
  "inent": 7066,
  "incher": 7067,
  "important": 7068,
  "imental": 7069,
  "imul": 7070,
  "imated": 7071,
  "ignific": 7072,
  "ighs": 7073,
  "iffle": 7074,
  "ifty": 7075,
  "ift": 7076,
  "ifkin": 7077,
  "iddish": 7078,
  "idow": 7079,
  "iders": 7080,
  "ichard": 7081,
  "iciently": 7082,
  "iccol": 7083,
  "iccoli": 7084,
  "ibson": 7085,
  "iane": 7086,
  "iri": 7087,
  "ients": 7088,
  "iens": 7089,
  "huang": 7090,
  "herish": 7091,
  "helsea": 7092,
  "heon": 7093,
  "hind": 7094,
  "hib": 7095,
  "hat": 7096,
  "han": 7097,
  "half": 7098,
  "grad": 7099,
  "gnettes": 7100,
  "gener": 7101,
  "gency": 7102,
  "formed": 7103,
  "ficionados": 7104,
  "ffic": 7105,
  "fly": 7106,
  "fisted": 7107,
  "filled": 7108,
  "fiction": 7109,
  "fem": 7110,
  "feminist": 7111,
  "fe": 7112,
  "fare": 7113,
  "etrating": 7114,
  "etent": 7115,
  "ession": 7116,
  "essend": 7117,
  "essenden": 7118,
  "esis": 7119,
  "errida": 7120,
  "erd": 7121,
  "epid": 7122,
  "ephen": 7123,
  "entury": 7124,
  "entimental": 7125,
  "ensed": 7126,
  "ennifer": 7127,
  "endes": 7128,
  "enice": 7129,
  "enced": 7130,
  "emorable": 7131,
  "emme": 7132,
  "ements": 7133,
  "elson": 7134,
  "ella": 7135,
  "elled": 7136,
  "elle": 7137,
  "elic": 7138,
  "ekerk": 7139,
  "edom": 7140,
  "edekerk": 7141,
  "edding": 7142,
  "eky": 7143,
  "eathers": 7144,
  "dunit": 7145,
  "dro": 7146,
  "downtown": 7147,
  "done": 7148,
  "don": 7149,
  "dom": 7150,
  "dem": 7151,
  "const": 7152,
  "cover": 7153,
  "cient": 7154,
  "cheek": 7155,
  "cends": 7156,
  "ceful": 7157,
  "cean": 7158,
  "cur": 7159,
  "cue": 7160,
  "core": 7161,
  "cam": 7162,
  "busters": 7163,
  "bitr": 7164,
  "belly": 7165,
  "buster": 7166,
  "bur": 7167,
  "bum": 7168,
  "brow": 7169,
  "bows": 7170,
  "bod": 7171,
  "bid": 7172,
  "bes": 7173,
  "based": 7174,
  "backs": 7175,
  "ayles": 7176,
  "ayas": 7177,
  "augh": 7178,
  "aturally": 7179,
  "atthew": 7180,
  "atholic": 7181,
  "ateral": 7182,
  "atric": 7183,
  "arter": 7184,
  "arlie": 7185,
  "arker": 7186,
  "arently": 7187,
  "aren": 7188,
  "arded": 7189,
  "around": 7190,
  "arious": 7191,
  "appiness": 7192,
  "appe": 7193,
  "apes": 7194,
  "antheon": 7195,
  "anth": 7196,
  "anter": 7197,
  "angled": 7198,
  "aneke": 7199,
  "aner": 7200,
  "anella": 7201,
  "ampanella": 7202,
  "amboyant": 7203,
  "amy": 7204,
  "amura": 7205,
  "ami": 7206,
  "amed": 7207,
  "allar": 7208,
  "alkovich": 7209,
  "aluable": 7210,
  "alph": 7211,
  "ald": 7212,
  "akingly": 7213,
  "akable": 7214,
  "ailor": 7215,
  "affirming": 7216,
  "ado": 7217,
  "accid": 7218,
  "abs": 7219,
  "ables": 7220,
  "abby": 7221,
  "aver": 7222,
  "Who": 7223,
  "Would": 7224,
  "Works": 7225,
  "Woody": 7226,
  "Witty": 7227,
  "Williams": 7228,
  "Unfolds": 7229,
  "Unlike": 7230,
  "Unless": 7231,
  "Trans": 7232,
  "Their": 7233,
  "Thanks": 7234,
  "Takes": 7235,
  "Take": 7236,
  "Still": 7237,
  "Solondz": 7238,
  "Simply": 7239,
  "Sheridan": 7240,
  "Should": 7241,
  "Seems": 7242,
  "Sadly": 7243,
  "Sw": 7244,
  "Surprisingly": 7245,
  "Sl": 7246,
  "Sex": 7247,
  "Se": 7248,
  "Return": 7249,
  "Reign": 7250,
  "Rom": 7251,
  "Other": 7252,
  "OO": 7253,
  "Nicole": 7254,
  "Neither": 7255,
  "Niro": 7256,
  "Nair": 7257,
  "Mostly": 7258,
  "Leigh": 7259,
  "Light": 7260,
  "Jones": 7261,
  "Imp": 7262,
  "IB": 7263,
  "God": 7264,
  "GI": 7265,
  "Features": 7266,
  "Fr": 7267,
  "Film": 7268,
  "Far": 7269,
  "Exc": 7270,
  "Evokes": 7271,
  "Ever": 7272,
  "Eleg": 7273,
  "Eight": 7274,
  "Each": 7275,
  "Definitely": 7276,
  "Dev": 7277,
  "Contrived": 7278,
  "Cons": 7279,
  "Comb": 7280,
  "Co": 7281,
  "Certain": 7282,
  "Capt": 7283,
  "Blue": 7284,
  "Broomfield": 7285,
  "Bro": 7286,
  "Bra": 7287,
  "Big": 7288,
  "Bad": 7289,
  "App": 7290,
  "Am": 7291,
  "40": 7292,
  "--": 7293,
  "Ġyawn": 7294,
  "Ġwooden": 7295,
  "Ġwoe": 7296,
  "Ġwitless": 7297,
  "Ġwickedly": 7298,
  "Ġwhodunit": 7299,
  "Ġwhenever": 7300,
  "Ġwholes": 7301,
  "Ġwhimsy": 7302,
  "Ġwhale": 7303,
  "Ġweirdly": 7304,
  "Ġweighty": 7305,
  "Ġwallet": 7306,
  "Ġwriters": 7307,
  "Ġwis": 7308,
  "Ġwet": 7309,
  "Ġwearing": 7310,
  "Ġvirtu": 7311,
  "Ġvignettes": 7312,
  "Ġversus": 7313,
  "Ġventure": 7314,
  "Ġvein": 7315,
  "Ġvaluable": 7316,
  "Ġvulner": 7317,
  "Ġvanity": 7318,
  "Ġvain": 7319,
  "Ġvac": 7320,
  "Ġuseless": 7321,
  "Ġupbeat": 7322,
  "Ġunsentimental": 7323,
  "Ġunsatisf": 7324,
  "Ġunrelent": 7325,
  "Ġuninteresting": 7326,
  "Ġuneasy": 7327,
  "Ġundermin": 7328,
  "Ġunderbelly": 7329,
  "Ġundoubtedly": 7330,
  "Ġundone": 7331,
  "Ġundert": 7332,
  "Ġunconventional": 7333,
  "Ġuncommonly": 7334,
  "Ġuncomfortably": 7335,
  "Ġunbearably": 7336,
  "Ġunbl": 7337,
  "Ġunm": 7338,
  "Ġunful": 7339,
  "Ġultra": 7340,
  "Ġtruthful": 7341,
  "Ġtriangle": 7342,
  "Ġtrashy": 7343,
  "Ġtranslation": 7344,
  "Ġtransformation": 7345,
  "Ġtrain": 7346,
  "Ġtricks": 7347,
  "Ġtosses": 7348,
  "Ġtortured": 7349,
  "Ġtook": 7350,
  "Ġtooth": 7351,
  "Ġtom": 7352,
  "Ġtoilet": 7353,
  "Ġtitles": 7354,
  "Ġthousands": 7355,
  "Ġtheory": 7356,
  "Ġthank": 7357,
  "Ġthrown": 7358,
  "Ġtexture": 7359,
  "Ġtediously": 7360,
  "Ġtechnically": 7361,
  "Ġtearjerker": 7362,
  "Ġtargeted": 7363,
  "Ġtreasure": 7364,
  "Ġties": 7365,
  "Ġtepid": 7366,
  "Ġtaut": 7367,
  "Ġtart": 7368,
  "Ġsymbolic": 7369,
  "Ġswear": 7370,
  "Ġsustains": 7371,
  "Ġsuspend": 7372,
  "Ġsurvive": 7373,
  "Ġsupremely": 7374,
  "Ġsumptuous": 7375,
  "Ġsuggests": 7376,
  "Ġsuffoc": 7377,
  "Ġsucked": 7378,
  "Ġsuccumbs": 7379,
  "Ġsubtitles": 7380,
  "Ġsubtly": 7381,
  "Ġsubtext": 7382,
  "Ġstylized": 7383,
  "Ġstructured": 7384,
  "Ġstretches": 7385,
  "Ġstorylines": 7386,
  "Ġstream": 7387,
  "Ġstops": 7388,
  "Ġstinker": 7389,
  "Ġstiff": 7390,
  "Ġstif": 7391,
  "Ġstick": 7392,
  "Ġsteal": 7393,
  "Ġstead": 7394,
  "Ġstation": 7395,
  "Ġstatic": 7396,
  "Ġstately": 7397,
  "Ġstate": 7398,
  "Ġsqueeze": 7399,
  "Ġsquarely": 7400,
  "Ġspecifically": 7401,
  "Ġspeaks": 7402,
  "Ġsport": 7403,
  "Ġspan": 7404,
  "Ġsolemn": 7405,
  "Ġsolutions": 7406,
  "Ġsoggy": 7407,
  "Ġsmooth": 7408,
  "Ġslightest": 7409,
  "Ġsinister": 7410,
  "Ġsignificant": 7411,
  "Ġsignpost": 7412,
  "Ġshowcases": 7413,
  "Ġshockingly": 7414,
  "Ġshaped": 7415,
  "Ġshadows": 7416,
  "Ġshrill": 7417,
  "Ġshout": 7418,
  "Ġshape": 7419,
  "Ġsermon": 7420,
  "Ġseparate": 7421,
  "Ġsensuality": 7422,
  "Ġsensibilities": 7423,
  "Ġsenses": 7424,
  "Ġsecret": 7425,
  "Ġseats": 7426,
  "Ġsearching": 7427,
  "Ġseal": 7428,
  "Ġsea": 7429,
  "Ġscripts": 7430,
  "Ġscratching": 7431,
  "Ġscores": 7432,
  "Ġscope": 7433,
  "Ġscient": 7434,
  "Ġsatisfies": 7435,
  "Ġsatisfact": 7436,
  "Ġsalv": 7437,
  "Ġsorrow": 7438,
  "Ġsordid": 7439,
  "Ġson": 7440,
  "Ġsisters": 7441,
  "Ġsaved": 7442,
  "Ġsand": 7443,
  "Ġsafe": 7444,
  "Ġroutines": 7445,
  "Ġromances": 7446,
  "Ġrolling": 7447,
  "Ġrollicking": 7448,
  "Ġroots": 7449,
  "Ġrob": 7450,
  "Ġriot": 7451,
  "Ġrevelation": 7452,
  "Ġrevealed": 7453,
  "Ġresourceful": 7454,
  "Ġresol": 7455,
  "Ġrescue": 7456,
  "Ġrepres": 7457,
  "Ġremotely": 7458,
  "Ġremembering": 7459,
  "Ġreminiscent": 7460,
  "Ġregardless": 7461,
  "Ġregret": 7462,
  "Ġrefuses": 7463,
  "Ġrecording": 7464,
  "Ġrecommended": 7465,
  "Ġrecovery": 7466,
  "Ġrecreat": 7467,
  "Ġrecon": 7468,
  "Ġready": 7469,
  "Ġrevolution": 7470,
  "Ġrevision": 7471,
  "Ġresemble": 7472,
  "Ġrerun": 7473,
  "Ġrein": 7474,
  "Ġreel": 7475,
  "Ġrece": 7476,
  "Ġreas": 7477,
  "Ġrambling": 7478,
  "Ġradical": 7479,
  "Ġraise": 7480,
  "Ġrain": 7481,
  "Ġris": 7482,
  "Ġrating": 7483,
  "Ġque": 7484,
  "Ġpuzzling": 7485,
  "Ġpuzzle": 7486,
  "Ġpushes": 7487,
  "Ġpunching": 7488,
  "Ġproperly": 7489,
  "Ġprofoundly": 7490,
  "Ġprofile": 7491,
  "Ġproduce": 7492,
  "Ġprocession": 7493,
  "Ġprofic": 7494,
  "Ġprincip": 7495,
  "Ġpresentation": 7496,
  "Ġprecisely": 7497,
  "Ġprefer": 7498,
  "Ġpostcard": 7499,
  "Ġpossibility": 7500,
  "Ġpossibilities": 7501,
  "Ġpositively": 7502,
  "Ġpolished": 7503,
  "Ġpoverty": 7504,
  "Ġpokes": 7505,
  "Ġplots": 7506,
  "Ġplotline": 7507,
  "Ġpleasurable": 7508,
  "Ġplight": 7509,
  "Ġpicked": 7510,
  "Ġphysical": 7511,
  "Ġphotography": 7512,
  "Ġphenomenal": 7513,
  "Ġphony": 7514,
  "Ġphones": 7515,
  "Ġperceptive": 7516,
  "Ġpenetrating": 7517,
  "Ġpayoff": 7518,
  "Ġpathos": 7519,
  "Ġpatient": 7520,
  "Ġparts": 7521,
  "Ġpartly": 7522,
  "Ġparade": 7523,
  "Ġpanor": 7524,
  "Ġpanache": 7525,
  "Ġpalpable": 7526,
  "Ġpush": 7527,
  "Ġpurs": 7528,
  "Ġpill": 7529,
  "Ġpantheon": 7530,
  "Ġoverwhelming": 7531,
  "Ġoverst": 7532,
  "Ġouting": 7533,
  "Ġourselves": 7534,
  "Ġoptim": 7535,
  "Ġopportunities": 7536,
  "Ġoppos": 7537,
  "Ġoffend": 7538,
  "Ġoccup": 7539,
  "Ġobscure": 7540,
  "Ġobligatory": 7541,
  "Ġobjective": 7542,
  "Ġought": 7543,
  "Ġoh": 7544,
  "Ġnuanced": 7545,
  "Ġnotable": 7546,
  "Ġnostalgia": 7547,
  "Ġnobody": 7548,
  "Ġnightmare": 7549,
  "Ġnewcomer": 7550,
  "Ġnews": 7551,
  "Ġneighborhood": 7552,
  "Ġnaturalistic": 7553,
  "Ġnarciss": 7554,
  "Ġnumbers": 7555,
  "Ġniche": 7556,
  "Ġnerv": 7557,
  "Ġnaught": 7558,
  "Ġnaturally": 7559,
  "Ġnames": 7560,
  "Ġnamed": 7561,
  "Ġmysterious": 7562,
  "Ġmyst": 7563,
  "Ġmushy": 7564,
  "Ġmultip": 7565,
  "Ġmovement": 7566,
  "Ġmotivations": 7567,
  "Ġmotivated": 7568,
  "Ġmorning": 7569,
  "Ġmorally": 7570,
  "Ġmonsters": 7571,
  "Ġmomentum": 7572,
  "Ġmoved": 7573,
  "Ġmoody": 7574,
  "Ġmisfire": 7575,
  "Ġmiscal": 7576,
  "Ġmisanth": 7577,
  "Ġmiracle": 7578,
  "Ġminute": 7579,
  "Ġmidnight": 7580,
  "Ġmemories": 7581,
  "Ġmelancholy": 7582,
  "Ġmedical": 7583,
  "Ġmedia": 7584,
  "Ġmeets": 7585,
  "Ġmarriage": 7586,
  "Ġmanaged": 7587,
  "Ġmagical": 7588,
  "Ġmadness": 7589,
  "Ġmug": 7590,
  "Ġmish": 7591,
  "Ġmile": 7592,
  "Ġlunacy": 7593,
  "Ġloads": 7594,
  "Ġloaded": 7595,
  "Ġloving": 7596,
  "Ġlovers": 7597,
  "Ġlose": 7598,
  "Ġlocal": 7599,
  "Ġlob": 7600,
  "Ġliterally": 7601,
  "Ġlisten": 7602,
  "Ġlighting": 7603,
  "Ġlifts": 7604,
  "Ġlifestyle": 7605,
  "Ġlibert": 7606,
  "Ġlip": 7607,
  "Ġlie": 7608,
  "Ġlessons": 7609,
  "Ġlegacy": 7610,
  "Ġlaughed": 7611,
  "Ġlanguorous": 7612,
  "Ġlandscape": 7613,
  "Ġlower": 7614,
  "Ġloop": 7615,
  "Ġlit": 7616,
  "Ġlater": 7617,
  "Ġlark": 7618,
  "Ġlad": 7619,
  "Ġknack": 7620,
  "Ġkiller": 7621,
  "Ġkicking": 7622,
  "Ġkick": 7623,
  "Ġjuvenile": 7624,
  "Ġjuicy": 7625,
  "Ġjournal": 7626,
  "Ġjealousy": 7627,
  "Ġjaw": 7628,
  "Ġjarring": 7629,
  "Ġisolation": 7630,
  "Ġironically": 7631,
  "Ġinvention": 7632,
  "Ġinvaluable": 7633,
  "Ġintol": 7634,
  "Ġinstincts": 7635,
  "Ġinstallment": 7636,
  "Ġinsuff": 7637,
  "Ġinsipid": 7638,
  "Ġinfuses": 7639,
  "Ġinfuri": 7640,
  "Ġinfidelity": 7641,
  "Ġinfant": 7642,
  "Ġinexplicably": 7643,
  "Ġinescapable": 7644,
  "Ġindulgent": 7645,
  "Ġindiffere": 7646,
  "Ġincredible": 7647,
  "Ġinconsistent": 7648,
  "Ġincompetent": 7649,
  "Ġincludes": 7650,
  "Ġincor": 7651,
  "Ġincess": 7652,
  "Ġinquis": 7653,
  "Ġinfect": 7654,
  "Ġimprovement": 7655,
  "Ġimprovised": 7656,
  "Ġimpressively": 7657,
  "Ġimpart": 7658,
  "Ġimmediately": 7659,
  "Ġillustrates": 7660,
  "Ġignored": 7661,
  "Ġidiosyncratic": 7662,
  "Ġhonor": 7663,
  "Ġhistrion": 7664,
  "Ġhilarity": 7665,
  "Ġhighlight": 7666,
  "Ġhighest": 7667,
  "Ġheartbreak": 7668,
  "Ġheads": 7669,
  "Ġhey": 7670,
  "Ġheaven": 7671,
  "Ġharmless": 7672,
  "Ġharder": 7673,
  "Ġhappening": 7674,
  "Ġhandful": 7675,
  "Ġhust": 7676,
  "Ġhundred": 7677,
  "Ġhole": 7678,
  "Ġhokum": 7679,
  "Ġhokey": 7680,
  "Ġhallmark": 7681,
  "Ġguts": 7682,
  "Ġguaranteed": 7683,
  "Ġgrac": 7684,
  "Ġgrating": 7685,
  "Ġgorgeously": 7686,
  "Ġgovern": 7687,
  "Ġgloriously": 7688,
  "Ġglaring": 7689,
  "Ġgeneration": 7690,
  "Ġgenerates": 7691,
  "Ġgoose": 7692,
  "Ġgimm": 7693,
  "Ġgigg": 7694,
  "Ġgest": 7695,
  "Ġfuzzy": 7696,
  "Ġfrozen": 7697,
  "Ġfreedom": 7698,
  "Ġfreak": 7699,
  "Ġfragile": 7700,
  "Ġfourth": 7701,
  "Ġformat": 7702,
  "Ġfolk": 7703,
  "Ġflourishes": 7704,
  "Ġfloor": 7705,
  "Ġflesh": 7706,
  "Ġflower": 7707,
  "Ġflimsy": 7708,
  "Ġflaccid": 7709,
  "Ġfewer": 7710,
  "Ġfeelings": 7711,
  "Ġfeet": 7712,
  "Ġfavors": 7713,
  "Ġfarc": 7714,
  "Ġfacet": 7715,
  "Ġfabric": 7716,
  "Ġfond": 7717,
  "Ġfits": 7718,
  "Ġfest": 7719,
  "Ġfathers": 7720,
  "Ġextrem": 7721,
  "Ġexplosions": 7722,
  "Ġexplores": 7723,
  "Ġexploit": 7724,
  "Ġexpressive": 7725,
  "Ġexpense": 7726,
  "Ġexisted": 7727,
  "Ġexcruciating": 7728,
  "Ġexcesses": 7729,
  "Ġexcels": 7730,
  "Ġexamines": 7731,
  "Ġexuber": 7732,
  "Ġexter": 7733,
  "Ġexha": 7734,
  "Ġeveryday": 7735,
  "Ġeventual": 7736,
  "Ġentry": 7737,
  "Ġenormously": 7738,
  "Ġenormous": 7739,
  "Ġenjoyment": 7740,
  "Ġenlight": 7741,
  "Ġemploy": 7742,
  "Ġemphasizes": 7743,
  "Ġemphasis": 7744,
  "Ġembraces": 7745,
  "Ġembarrassed": 7746,
  "Ġelic": 7747,
  "Ġeffortlessly": 7748,
  "Ġeffectively": 7749,
  "Ġease": 7750,
  "Ġeight": 7751,
  "Ġego": 7752,
  "Ġeerie": 7753,
  "Ġec": 7754,
  "Ġears": 7755,
  "Ġdumbed": 7756,
  "Ġdullest": 7757,
  "Ġdubious": 7758,
  "Ġdubbed": 7759,
  "Ġdrowned": 7760,
  "Ġdroll": 7761,
  "Ġdrivel": 7762,
  "Ġdocumentaries": 7763,
  "Ġdoze": 7764,
  "Ġdose": 7765,
  "Ġdoor": 7766,
  "Ġdistinguished": 7767,
  "Ġdistinctive": 7768,
  "Ġdistasteful": 7769,
  "Ġdisquieting": 7770,
  "Ġdishonest": 7771,
  "Ġdisguised": 7772,
  "Ġdiscuss": 7773,
  "Ġdiscern": 7774,
  "Ġdirectly": 7775,
  "Ġdirections": 7776,
  "Ġdifferences": 7777,
  "Ġdiverse": 7778,
  "Ġdestined": 7779,
  "Ġdeserved": 7780,
  "Ġdesired": 7781,
  "Ġdepra": 7782,
  "Ġdemons": 7783,
  "Ġdefinitive": 7784,
  "Ġdefies": 7785,
  "Ġdefe": 7786,
  "Ġdecade": 7787,
  "Ġdeals": 7788,
  "Ġdaytime": 7789,
  "Ġdarkness": 7790,
  "Ġdarker": 7791,
  "Ġdares": 7792,
  "Ġdamaged": 7793,
  "Ġdamage": 7794,
  "Ġdust": 7795,
  "Ġdude": 7796,
  "Ġdressed": 7797,
  "Ġdoll": 7798,
  "Ġdirty": 7799,
  "Ġdime": 7800,
  "Ġdaring": 7801,
  "Ġdangerous": 7802,
  "Ġdanger": 7803,
  "Ġcynicism": 7804,
  "Ġcuts": 7805,
  "Ġcritic": 7806,
  "Ġcrisis": 7807,
  "Ġcreature": 7808,
  "Ġcraw": 7809,
  "Ġcriminal": 7810,
  "Ġcostumes": 7811,
  "Ġcostume": 7812,
  "Ġcontrivances": 7813,
  "Ġcontribut": 7814,
  "Ġcontains": 7815,
  "Ġconstruction": 7816,
  "Ġconspiracy": 7817,
  "Ġconsistent": 7818,
  "Ġconsidering": 7819,
  "Ġconsum": 7820,
  "Ġconsolation": 7821,
  "Ġconfused": 7822,
  "Ġconfront": 7823,
  "Ġconfidence": 7824,
  "Ġconcent": 7825,
  "Ġconve": 7826,
  "Ġconsequences": 7827,
  "Ġcompromise": 7828,
  "Ġcomplaint": 7829,
  "Ġcompan": 7830,
  "Ġcommunic": 7831,
  "Ġcomedian": 7832,
  "Ġcombines": 7833,
  "Ġcomics": 7834,
  "Ġcollapses": 7835,
  "ĠclichÃ©d": 7836,
  "Ġcleverness": 7837,
  "Ġclaustrophob": 7838,
  "Ġclassics": 7839,
  "Ġclue": 7840,
  "Ġclash": 7841,
  "Ġcircumst": 7842,
  "Ġchew": 7843,
  "Ġcheese": 7844,
  "Ġcheer": 7845,
  "Ġcharge": 7846,
  "Ġchallenges": 7847,
  "Ġchoose": 7848,
  "Ġchoice": 7849,
  "Ġchiller": 7850,
  "Ġchamp": 7851,
  "Ġcelluloid": 7852,
  "Ġcasts": 7853,
  "Ġcartoonish": 7854,
  "Ġcaring": 7855,
  "Ġcapturing": 7856,
  "Ġcutes": 7857,
  "Ġcri": 7858,
  "Ġcram": 7859,
  "Ġcock": 7860,
  "Ġcobbled": 7861,
  "Ġcere": 7862,
  "Ġcable": 7863,
  "Ġbutt": 7864,
  "Ġbug": 7865,
  "Ġbreathtakingly": 7866,
  "Ġbreakthrough": 7867,
  "Ġbracing": 7868,
  "Ġboys": 7869,
  "Ġboredom": 7870,
  "Ġborders": 7871,
  "Ġbooks": 7872,
  "Ġbogs": 7873,
  "Ġboard": 7874,
  "Ġbloody": 7875,
  "Ġbleak": 7876,
  "Ġblatant": 7877,
  "Ġblues": 7878,
  "Ġblue": 7879,
  "Ġblown": 7880,
  "Ġbetrayal": 7881,
  "Ġbenefit": 7882,
  "Ġbegin": 7883,
  "Ġbew": 7884,
  "Ġbear": 7885,
  "Ġbasis": 7886,
  "Ġbalanced": 7887,
  "Ġbackstage": 7888,
  "Ġbow": 7889,
  "Ġbone": 7890,
  "Ġbond": 7891,
  "Ġbon": 7892,
  "Ġbath": 7893,
  "Ġbanter": 7894,
  "Ġbank": 7895,
  "Ġawkwardness": 7896,
  "Ġawkwardly": 7897,
  "Ġawfully": 7898,
  "Ġawak": 7899,
  "Ġavoids": 7900,
  "Ġaudacious": 7901,
  "Ġatmospher": 7902,
  "Ġathletes": 7903,
  "Ġatroc": 7904,
  "Ġastounding": 7905,
  "Ġassume": 7906,
  "Ġassa": 7907,
  "Ġaspirations": 7908,
  "Ġargue": 7909,
  "Ġarea": 7910,
  "Ġarty": 7911,
  "Ġarc": 7912,
  "Ġarbitr": 7913,
  "Ġappet": 7914,
  "Ġanyway": 7915,
  "Ġanomie": 7916,
  "Ġanimat": 7917,
  "Ġanimals": 7918,
  "Ġanime": 7919,
  "Ġanger": 7920,
  "Ġanch": 7921,
  "Ġamuse": 7922,
  "Ġamiable": 7923,
  "Ġalluring": 7924,
  "Ġalike": 7925,
  "Ġalert": 7926,
  "Ġalbum": 7927,
  "Ġagent": 7928,
  "Ġadmittedly": 7929,
  "Ġadequately": 7930,
  "Ġadequate": 7931,
  "Ġadded": 7932,
  "Ġadvice": 7933,
  "Ġaddict": 7934,
  "Ġactual": 7935,
  "Ġactions": 7936,
  "Ġaccurately": 7937,
  "Ġaccurate": 7938,
  "Ġacceptable": 7939,
  "Ġaccident": 7940,
  "Ġache": 7941,
  "Ġabsolute": 7942,
  "Ġabuse": 7943,
  "Ġabstract": 7944,
  "Ġapl": 7945,
  "Ġaficionados": 7946,
  "ĠYiddish": 7947,
  "ĠWalsh": 7948,
  "ĠWow": 7949,
  "ĠWork": 7950,
  "ĠWoman": 7951,
  "ĠWitherspoon": 7952,
  "ĠWendigo": 7953,
  "ĠTraveler": 7954,
  "ĠThornberry": 7955,
  "ĠTaymor": 7956,
  "ĠTw": 7957,
  "ĠTrek": 7958,
  "ĠTosca": 7959,
  "ĠTe": 7960,
  "ĠTarantino": 7961,
  "ĠTamb": 7962,
  "ĠSteve": 7963,
  "ĠStein": 7964,
  "ĠStealing": 7965,
  "ĠSpears": 7966,
  "ĠSpike": 7967,
  "ĠSorvino": 7968,
  "ĠSorority": 7969,
  "ĠSolaris": 7970,
  "ĠSmith": 7971,
  "ĠSiegel": 7972,
  "ĠShowgirls": 7973,
  "ĠShanghai": 7974,
  "ĠSchwarzenegger": 7975,
  "ĠScorpion": 7976,
  "ĠScooby": 7977,
  "ĠSalton": 7978,
  "ĠSy": 7979,
  "ĠSus": 7980,
  "ĠSund": 7981,
  "ĠSisterhood": 7982,
  "ĠSimone": 7983,
  "ĠSigns": 7984,
  "ĠSever": 7985,
  "ĠSer": 7986,
  "ĠSaving": 7987,
  "ĠSafe": 7988,
  "ĠRussell": 7989,
  "ĠRoberto": 7990,
  "ĠReign": 7991,
  "ĠRandall": 7992,
  "ĠRouge": 7993,
  "ĠRose": 7994,
  "ĠRom": 7995,
  "ĠRollerball": 7996,
  "ĠRing": 7997,
  "ĠRes": 7998,
  "ĠRamsay": 7999,
  "ĠRalph": 8000,
  "ĠQuiet": 8001,
  "ĠPlay": 8002,
  "ĠPlanet": 8003,
  "ĠPaxton": 8004,
  "ĠPry": 8005,
  "ĠPrivate": 8006,
  "ĠPraise": 8007,
  "ĠPowerpuff": 8008,
  "ĠPie": 8009,
  "ĠPau": 8010,
  "ĠPast": 8011,
  "ĠOlivi": 8012,
  "ĠNeil": 8013,
  "ĠNapoleon": 8014,
  "ĠNumbers": 8015,
  "ĠNature": 8016,
  "ĠNarc": 8017,
  "ĠNa": 8018,
  "ĠMexican": 8019,
  "ĠMerchant": 8020,
  "ĠMcGrath": 8021,
  "ĠMurder": 8022,
  "ĠMothman": 8023,
  "ĠMostly": 8024,
  "ĠMin": 8025,
  "ĠMiller": 8026,
  "ĠMile": 8027,
  "ĠMichel": 8028,
  "ĠMet": 8029,
  "ĠMary": 8030,
  "ĠMalkovich": 8031,
  "ĠMaid": 8032,
  "ĠLilo": 8033,
  "ĠLive": 8034,
  "ĠLi": 8035,
  "ĠLar": 8036,
  "ĠKorean": 8037,
  "ĠKissing": 8038,
  "ĠKiller": 8039,
  "ĠKapur": 8040,
  "ĠJuliet": 8041,
  "ĠJewish": 8042,
  "ĠJudd": 8043,
  "ĠJu": 8044,
  "ĠJordan": 8045,
  "ĠJerry": 8046,
  "ĠJennifer": 8047,
  "ĠJe": 8048,
  "ĠJane": 8049,
  "ĠJacqu": 8050,
  "ĠIsland": 8051,
  "ĠInter": 8052,
  "ĠIm": 8053,
  "ĠHunter": 8054,
  "ĠHaynes": 8055,
  "ĠHuppert": 8056,
  "ĠHugh": 8057,
  "ĠHouse": 8058,
  "ĠHanks": 8059,
  "ĠHan": 8060,
  "ĠHallmark": 8061,
  "ĠHal": 8062,
  "ĠGoldmember": 8063,
  "ĠGangs": 8064,
  "ĠGriffith": 8065,
  "ĠGrey": 8066,
  "ĠGreat": 8067,
  "ĠGot": 8068,
  "ĠGo": 8069,
  "ĠGibson": 8070,
  "ĠGhetto": 8071,
  "ĠFriend": 8072,
  "ĠFocus": 8073,
  "ĠFeathers": 8074,
  "ĠFar": 8075,
  "ĠFamily": 8076,
  "ĠEuropean": 8077,
  "ĠElizabeth": 8078,
  "ĠExt": 8079,
  "ĠEvelyn": 8080,
  "ĠEquilibrium": 8081,
  "ĠEn": 8082,
  "ĠEight": 8083,
  "ĠEcks": 8084,
  "ĠEarth": 8085,
  "ĠDuvall": 8086,
  "ĠDragonfly": 8087,
  "ĠDean": 8088,
  "ĠDeNiro": 8089,
  "ĠDanny": 8090,
  "ĠDana": 8091,
  "ĠDamage": 8092,
  "ĠDown": 8093,
  "ĠDi": 8094,
  "ĠDerrida": 8095,
  "ĠCrazy": 8096,
  "ĠCrudup": 8097,
  "ĠCrimes": 8098,
  "ĠConversations": 8099,
  "ĠClooney": 8100,
  "ĠClockstoppers": 8101,
  "ĠCircuit": 8102,
  "ĠCharles": 8103,
  "ĠChÃ¢teau": 8104,
  "ĠChick": 8105,
  "ĠCarmen": 8106,
  "ĠCurves": 8107,
  "ĠCu": 8108,
  "ĠCompany": 8109,
  "ĠCinema": 8110,
  "ĠCinderella": 8111,
  "ĠCarl": 8112,
  "ĠCallar": 8113,
  "ĠCal": 8114,
  "ĠCGI": 8115,
  "ĠBruckheimer": 8116,
  "ĠBritney": 8117,
  "ĠBrothers": 8118,
  "ĠBlood": 8119,
  "ĠBartleby": 8120,
  "ĠBallot": 8121,
  "ĠBallistic": 8122,
  "ĠBridge": 8123,
  "ĠBra": 8124,
  "ĠBourne": 8125,
  "ĠBody": 8126,
  "ĠBirthday": 8127,
  "ĠBible": 8128,
  "ĠBel": 8129,
  "ĠAvary": 8130,
  "ĠAssassin": 8131,
  "ĠAsian": 8132,
  "ĠAntwone": 8133,
  "ĠAnderson": 8134,
  "ĠAlf": 8135,
  "ĠAdams": 8136,
  "ĠAway": 8137,
  "ĠAward": 8138,
  "ĠAuto": 8139,
  "ĠAute": 8140,
  "ĠAlt": 8141,
  "ĠAlex": 8142,
  "ĠAh": 8143,
  "ĠAge": 8144,
  "Ġ88": 8145,
  "Ġ300": 8146,
  "Ġ1970": 8147,
  "Ġ193": 8148,
  "Ġid": 8149,
  "Ġ\\*\\*": 8150,
  "Ġ\\*": 8151,
  "Ġ#": 8152,
  "Ã±": 8153,
  "Ã±uel": 8154,
  "Ã¯": 8155,
  "Âł": 8156,
  "zzzz": 8157,
  "zing": 8158,
  "yssey": 8159,
  "yrotechnics": 8160,
  "your": 8161,
  "yne": 8162,
  "years": 8163,
  "xual": 8164,
  "xpect": 8165,
  "worthy": 8166,
  "wey": 8167,
  "week": 8168,
  "warding": 8169,
  "working": 8170,
  "wers": 8171,
  "wer": 8172,
  "wen": 8173,
  "wed": 8174,
  "water": 8175,
  "wai": 8176,
  "volving": 8177,
  "vishing": 8178,
  "visation": 8179,
  "vinc": 8180,
  "vincible": 8181,
  "vides": 8182,
  "vily": 8183,
  "vial": 8184,
  "vernier": 8185,
  "ventful": 8186,
  "vened": 8187,
  "veloping": 8188,
  "veled": 8189,
  "vre": 8190,
  "vors": 8191,
  "vo": 8192,
  "vils": 8193,
  "vasive": 8194,
  "vado": 8195,
  "vability": 8196,
  "uttering": 8197,
  "uteur": 8198,
  "ustralian": 8199,
  "ustralia": 8200,
  "usterity": 8201,
  "usts": 8202,
  "uston": 8203,
  "urdened": 8204,
  "urry": 8205,
  "urried": 8206,
  "urre": 8207,
  "urity": 8208,
  "uration": 8209,
  "ungent": 8210,
  "undane": 8211,
  "unning": 8212,
  "unior": 8213,
  "unge": 8214,
  "une": 8215,
  "umulative": 8216,
  "umentary": 8217,
  "umbling": 8218,
  "umult": 8219,
  "umination": 8220,
  "uments": 8221,
  "umas": 8222,
  "umacher": 8223,
  "ulsively": 8224,
  "ulls": 8225,
  "uller": 8226,
  "ulgence": 8227,
  "ulse": 8228,
  "uline": 8229,
  "ulence": 8230,
  "ulation": 8231,
  "uitous": 8232,
  "ugees": 8233,
  "uffy": 8234,
  "uendo": 8235,
  "udios": 8236,
  "udiard": 8237,
  "udy": 8238,
  "udity": 8239,
  "uctant": 8240,
  "uchi": 8241,
  "uccino": 8242,
  "ucin": 8243,
  "ucas": 8244,
  "ubrick": 8245,
  "ubbo": 8246,
  "uban": 8247,
  "uiling": 8248,
  "uil": 8249,
  "uated": 8250,
  "uasive": 8251,
  "thriller": 8252,
  "ths": 8253,
  "that": 8254,
  "tegr": 8255,
  "tÃ©": 8256,
  "twey": 8257,
  "turning": 8258,
  "tr": 8259,
  "tle": 8260,
  "tinent": 8261,
  "tick": 8262,
  "there": 8263,
  "takes": 8264,
  "symp": 8265,
  "sympathetic": 8266,
  "stonishing": 8267,
  "step": 8268,
  "stac": 8269,
  "stacles": 8270,
  "spective": 8271,
  "soon": 8272,
  "soever": 8273,
  "shot": 8274,
  "seeking": 8275,
  "seat": 8276,
  "searching": 8277,
  "search": 8278,
  "sque": 8279,
  "spl": 8280,
  "some": 8281,
  "smart": 8282,
  "sized": 8283,
  "siders": 8284,
  "set": 8285,
  "serious": 8286,
  "satisf": 8287,
  "ruffy": 8288,
  "ructed": 8289,
  "ruous": 8290,
  "ruly": 8291,
  "ruce": 8292,
  "rub": 8293,
  "ropolis": 8294,
  "ropes": 8295,
  "rooge": 8296,
  "ronistic": 8297,
  "rocod": 8298,
  "rocodile": 8299,
  "rism": 8300,
  "risly": 8301,
  "risk": 8302,
  "ripper": 8303,
  "rightly": 8304,
  "riven": 8305,
  "rient": 8306,
  "retentious": 8307,
  "retation": 8308,
  "ressingly": 8309,
  "renchant": 8310,
  "rehension": 8311,
  "regard": 8312,
  "realized": 8313,
  "readth": 8314,
  "reve": 8315,
  "rep": 8316,
  "rels": 8317,
  "reets": 8318,
  "reck": 8319,
  "rec": 8320,
  "recating": 8321,
  "rease": 8322,
  "raphed": 8323,
  "rangers": 8324,
  "raqui": 8325,
  "rand": 8326,
  "rah": 8327,
  "rader": 8328,
  "runk": 8329,
  "rs": 8330,
  "rint": 8331,
  "rime": 8332,
  "rict": 8333,
  "rates": 8334,
  "queness": 8335,
  "ptic": 8336,
  "pted": 8337,
  "producer": 8338,
  "ppled": 8339,
  "ppingly": 8340,
  "pleasing": 8341,
  "playing": 8342,
  "ploe": 8343,
  "plies": 8344,
  "phaz": 8345,
  "phazard": 8346,
  "peror": 8347,
  "pering": 8348,
  "pole": 8349,
  "pisi": 8350,
  "packed": 8351,
  "owered": 8352,
  "ovan": 8353,
  "outher": 8354,
  "outhern": 8355,
  "outhed": 8356,
  "ousness": 8357,
  "ousing": 8358,
  "ourse": 8359,
  "oufl": 8360,
  "otees": 8361,
  "otted": 8362,
  "otte": 8363,
  "otland": 8364,
  "oti": 8365,
  "otesque": 8366,
  "ossibly": 8367,
  "ospital": 8368,
  "osexual": 8369,
  "oser": 8370,
  "osen": 8371,
  "osedly": 8372,
  "ortug": 8373,
  "ortedly": 8374,
  "ortance": 8375,
  "ormly": 8376,
  "ording": 8377,
  "orter": 8378,
  "orid": 8379,
  "orial": 8380,
  "org": 8381,
  "oral": 8382,
  "opath": 8383,
  "opathic": 8384,
  "oos": 8385,
  "onymous": 8386,
  "ongruous": 8387,
  "onely": 8388,
  "onditional": 8389,
  "onous": 8390,
  "onious": 8391,
  "omps": 8392,
  "omercial": 8393,
  "ombie": 8394,
  "omy": 8395,
  "omed": 8396,
  "omas": 8397,
  "ollter": 8398,
  "olst": 8399,
  "olf": 8400,
  "olent": 8401,
  "ogyny": 8402,
  "ographer": 8403,
  "ogged": 8404,
  "ogen": 8405,
  "oepp": 8406,
  "odox": 8407,
  "oddy": 8408,
  "ocl": 8409,
  "oclastic": 8410,
  "ociated": 8411,
  "ocation": 8412,
  "obiographical": 8413,
  "oib": 8414,
  "oibles": 8415,
  "ntil": 8416,
  "nowled": 8417,
  "nesday": 8418,
  "ndisp": 8419,
  "ndisputed": 8420,
  "nanig": 8421,
  "nanigans": 8422,
  "number": 8423,
  "noon": 8424,
  "ningly": 8425,
  "ni": 8426,
  "nered": 8427,
  "nel": 8428,
  "nalism": 8429,
  "moving": 8430,
  "minable": 8431,
  "mering": 8432,
  "mention": 8433,
  "meates": 8434,
  "meaning": 8435,
  "marine": 8436,
  "manship": 8437,
  "muller": 8438,
  "mperor": 8439,
  "mouthed": 8440,
  "mond": 8441,
  "mits": 8442,
  "minsky": 8443,
  "lowic": 8444,
  "lowicz": 8445,
  "loving": 8446,
  "lem": 8447,
  "lein": 8448,
  "leep": 8449,
  "leck": 8450,
  "leander": 8451,
  "looper": 8452,
  "logged": 8453,
  "liness": 8454,
  "lim": 8455,
  "lest": 8456,
  "lay": 8457,
  "lantic": 8458,
  "lam": 8459,
  "laim": 8460,
  "lad": 8461,
  "know": 8462,
  "khov": 8463,
  "kip": 8464,
  "joke": 8465,
  "jes": 8466,
  "ivable": 8467,
  "itzler": 8468,
  "itchen": 8469,
  "itler": 8470,
  "itial": 8471,
  "itating": 8472,
  "isterous": 8473,
  "isms": 8474,
  "iscovery": 8475,
  "isions": 8476,
  "isingly": 8477,
  "isenstein": 8478,
  "isc": 8479,
  "irds": 8480,
  "irling": 8481,
  "irk": 8482,
  "ipaul": 8483,
  "inspiring": 8484,
  "inoche": 8485,
  "inducing": 8486,
  "integr": 8487,
  "inner": 8488,
  "inion": 8489,
  "ini": 8490,
  "infl": 8491,
  "inarily": 8492,
  "inally": 8493,
  "inable": 8494,
  "imonious": 8495,
  "imming": 8496,
  "imed": 8497,
  "illiam": 8498,
  "ilot": 8499,
  "ilk": 8500,
  "ilated": 8501,
  "igned": 8502,
  "iggs": 8503,
  "iguchi": 8504,
  "igree": 8505,
  "igmatic": 8506,
  "igible": 8507,
  "iformly": 8508,
  "iercing": 8509,
  "iennes": 8510,
  "iency": 8511,
  "ielinsky": 8512,
  "iewers": 8513,
  "iend": 8514,
  "idget": 8515,
  "idedly": 8516,
  "iculously": 8517,
  "ickenlooper": 8518,
  "iceless": 8519,
  "icable": 8520,
  "iaries": 8521,
  "iw": 8522,
  "ivers": 8523,
  "iver": 8524,
  "ius": 8525,
  "ipped": 8526,
  "ios": 8527,
  "ij": 8528,
  "iber": 8529,
  "hetoric": 8530,
  "hetically": 8531,
  "herry": 8532,
  "hecies": 8533,
  "hapsod": 8534,
  "holds": 8535,
  "hod": 8536,
  "hard": 8537,
  "guided": 8538,
  "goers": 8539,
  "glor": 8540,
  "gligible": 8541,
  "generated": 8542,
  "garita": 8543,
  "gue": 8544,
  "gen": 8545,
  "gasm": 8546,
  "gap": 8547,
  "gaplex": 8548,
  "game": 8549,
  "ga": 8550,
  "formative": 8551,
  "ffleck": 8552,
  "fs": 8553,
  "front": 8554,
  "fell": 8555,
  "feld": 8556,
  "fall": 8557,
  "eyjes": 8558,
  "ewitt": 8559,
  "ettel": 8560,
  "ettelbe": 8561,
  "ettelbeck": 8562,
  "ettany": 8563,
  "etween": 8564,
  "etrable": 8565,
  "etime": 8566,
  "ete": 8567,
  "estinian": 8568,
  "ester": 8569,
  "esteem": 8570,
  "esson": 8571,
  "essim": 8572,
  "esley": 8573,
  "ertmuller": 8574,
  "ertime": 8575,
  "erdition": 8576,
  "erred": 8577,
  "erking": 8578,
  "erily": 8579,
  "erile": 8580,
  "eral": 8581,
  "erably": 8582,
  "eport": 8583,
  "eped": 8584,
  "enth": 8585,
  "ente": 8586,
  "enetrable": 8587,
  "emento": 8588,
  "eming": 8589,
  "emic": 8590,
  "emesis": 8591,
  "ellington": 8592,
  "ellingly": 8593,
  "eline": 8594,
  "effer": 8595,
  "eeks": 8596,
  "ecuted": 8597,
  "ecret": 8598,
  "ecent": 8599,
  "early": 8600,
  "ealand": 8601,
  "ev": 8602,
  "eit": 8603,
  "earth": 8604,
  "droppingly": 8605,
  "donistic": 8606,
  "dictment": 8607,
  "deprecating": 8608,
  "def": 8609,
  "dry": 8610,
  "dream": 8611,
  "discovery": 8612,
  "dash": 8613,
  "current": 8614,
  "cultural": 8615,
  "ctions": 8616,
  "consciously": 8617,
  "connect": 8618,
  "concept": 8619,
  "compan": 8620,
  "comings": 8621,
  "cknowled": 8622,
  "chnitzler": 8623,
  "cherfig": 8624,
  "charged": 8625,
  "character": 8626,
  "child": 8627,
  "chi": 8628,
  "chard": 8629,
  "change": 8630,
  "cely": 8631,
  "ccer": 8632,
  "camera": 8633,
  "creen": 8634,
  "cons": 8635,
  "cles": 8636,
  "city": 8637,
  "cast": 8638,
  "camp": 8639,
  "button": 8640,
  "bral": 8641,
  "bodied": 8642,
  "blood": 8643,
  "beit": 8644,
  "bull": 8645,
  "bro": 8646,
  "bra": 8647,
  "bop": 8648,
  "bone": 8649,
  "biz": 8650,
  "bang": 8651,
  "baked": 8652,
  "azzy": 8653,
  "ayami": 8654,
  "axploitation": 8655,
  "axed": 8656,
  "away": 8657,
  "avish": 8658,
  "ausible": 8659,
  "aunt": 8660,
  "aughters": 8661,
  "audable": 8662,
  "attling": 8663,
  "attage": 8664,
  "atherine": 8665,
  "ateboard": 8666,
  "atchable": 8667,
  "atus": 8668,
  "atre": 8669,
  "athing": 8670,
  "astro": 8671,
  "astically": 8672,
  "asteless": 8673,
  "assuming": 8674,
  "ashvili": 8675,
  "ashiguchi": 8676,
  "asculine": 8677,
  "asper": 8678,
  "asma": 8679,
  "asing": 8680,
  "asily": 8681,
  "asi": 8682,
  "arrelly": 8683,
  "arpenter": 8684,
  "arner": 8685,
  "armingly": 8686,
  "arlotte": 8687,
  "arks": 8688,
  "arents": 8689,
  "ardot": 8690,
  "ardonic": 8691,
  "arde": 8692,
  "aron": 8693,
  "arning": 8694,
  "arling": 8695,
  "arg": 8696,
  "arcia": 8697,
  "aptation": 8698,
  "apra": 8699,
  "aplin": 8700,
  "anza": 8701,
  "anoia": 8702,
  "anklowicz": 8703,
  "anek": 8704,
  "anda": 8705,
  "anky": 8706,
  "anic": 8707,
  "amic": 8708,
  "amber": 8709,
  "alyt": 8710,
  "allucin": 8711,
  "alter": 8712,
  "alestinian": 8713,
  "ailing": 8714,
  "aiian": 8715,
  "aggeringly": 8716,
  "aggage": 8717,
  "aging": 8718,
  "agi": 8719,
  "aggy": 8720,
  "agged": 8721,
  "aganda": 8722,
  "afka": 8723,
  "adyac": 8724,
  "addle": 8725,
  "added": 8726,
  "adway": 8727,
  "advert": 8728,
  "adpole": 8729,
  "aded": 8730,
  "acky": 8731,
  "ackles": 8732,
  "ackers": 8733,
  "achtwey": 8734,
  "achronistic": 8735,
  "acle": 8736,
  "acab": 8737,
  "acabre": 8738,
  "abot": 8739,
  "aboo": 8740,
  "aaaa": 8741,
  "avily": 8742,
  "avernier": 8743,
  "average": 8744,
  "aj": 8745,
  "ait": 8746,
  "aise": 8747,
  "aghan": 8748,
  "aeffer": 8749,
  "ae": 8750,
  "Whenever": 8751,
  "Wonder": 8752,
  "Viewers": 8753,
  "Uneven": 8754,
  "Twenty": 8755,
  "Then": 8756,
  "Thoroughly": 8757,
  "Terrific": 8758,
  "Tsai": 8759,
  "Try": 8760,
  "Tries": 8761,
  "Together": 8762,
  "Talk": 8763,
  "Stealing": 8764,
  "Stale": 8765,
  "Shyamalan": 8766,
  "Shot": 8767,
  "Seagal": 8768,
  "Spect": 8769,
  "Sor": 8770,
  "Sometimes": 8771,
  "Something": 8772,
  "Sm": 8773,
  "Skip": 8774,
  "Secret": 8775,
  "Scherfig": 8776,
  "Sayles": 8777,
  "Really": 8778,
  "Russ": 8779,
  "Rock": 8780,
  "Rich": 8781,
  "Res": 8782,
  "Real": 8783,
  "Rather": 8784,
  "Ramsay": 8785,
  "Provides": 8786,
  "Puts": 8787,
  "Paul": 8788,
  "Part": 8789,
  "Overall": 8790,
  "Oh": 8791,
  "Odd": 8792,
  "Ob": 8793,
  "Nicks": 8794,
  "Ms": 8795,
  "Mor": 8796,
  "Mo": 8797,
  "Miyazaki": 8798,
  "Miller": 8799,
  "Meyjes": 8800,
  "Met": 8801,
  "Many": 8802,
  "Mann": 8803,
  "Love": 8804,
  "Little": 8805,
  "Laugh": 8806,
  "Kinnear": 8807,
  "Kay": 8808,
  "Kapur": 8809,
  "Jackson": 8810,
  "IA": 8811,
  "Hor": 8812,
  "Her": 8813,
  "Hashiguchi": 8814,
  "Half": 8815,
  "Gooding": 8816,
  "Godard": 8817,
  "Grant": 8818,
  "Gra": 8819,
  "Gets": 8820,
  "Gener": 8821,
  "Frank": 8822,
  "Form": 8823,
  "Forget": 8824,
  "Filled": 8825,
  "Fessenden": 8826,
  "Fans": 8827,
  "Family": 8828,
  "Everyone": 8829,
  "Enough": 8830,
  "Enigma": 8831,
  "Ext": 8832,
  "Ent": 8833,
  "El": 8834,
  "Earnest": 8835,
  "Directed": 8836,
  "Delivers": 8837,
  "Deep": 8838,
  "Death": 8839,
  "Dog": 8840,
  "Dist": 8841,
  "Davis": 8842,
  "DS": 8843,
  "Contains": 8844,
  "Confessions": 8845,
  "Combines": 8846,
  "Comple": 8847,
  "Cho": 8848,
  "Certainly": 8849,
  "Coll": 8850,
  "Cold": 8851,
  "Cinematic": 8852,
  "Car": 8853,
  "Call": 8854,
  "Brosnan": 8855,
  "Brings": 8856,
  "Boasts": 8857,
  "Beautiful": 8858,
  "Before": 8859,
  "Been": 8860,
  "Becomes": 8861,
  "Because": 8862,
  "Brit": 8863,
  "Birthday": 8864,
  "Best": 8865,
  "Apparently": 8866,
  "Allen": 8867,
  "Almost": 8868,
  "Adaptation": 8869,
  "Adam": 8870,
  "Astonishing": 8871,
  "Ass": 8872,
  "Art": 8873,
  "Amid": 8874,
  "Aff": 8875,
  "Abs": 8876,
  "90": 8877,
  "13": 8878,
  "10": 8879,
  "Ġzombie": 8880,
  "Ġzeal": 8881,
  "Ġyouthful": 8882,
  "Ġworkplace": 8883,
  "Ġworry": 8884,
  "Ġwondrous": 8885,
  "Ġwisdom": 8886,
  "Ġwillingness": 8887,
  "Ġwholesome": 8888,
  "Ġwhatsoever": 8889,
  "Ġwhiny": 8890,
  "Ġweakness": 8891,
  "Ġweighs": 8892,
  "Ġweeks": 8893,
  "Ġwaterlogged": 8894,
  "Ġwastes": 8895,
  "Ġwars": 8896,
  "Ġwarmed": 8897,
  "Ġwarfare": 8898,
  "Ġwallop": 8899,
  "Ġwalking": 8900,
  "Ġwaves": 8901,
  "Ġwrest": 8902,
  "Ġwon": 8903,
  "Ġwist": 8904,
  "Ġwishing": 8905,
  "Ġwedding": 8906,
  "Ġwave": 8907,
  "Ġwat": 8908,
  "Ġvisible": 8909,
  "Ġvirtues": 8910,
  "Ġvillains": 8911,
  "Ġvir": 8912,
  "Ġvibe": 8913,
  "Ġvia": 8914,
  "Ġvaliantly": 8915,
  "Ġvoy": 8916,
  "Ġvoices": 8917,
  "Ġurgency": 8918,
  "Ġupdating": 8919,
  "Ġupper": 8920,
  "Ġunmemorable": 8921,
  "Ġuniquely": 8922,
  "Ġunintentional": 8923,
  "Ġuninvolving": 8924,
  "Ġuniverse": 8925,
  "Ġunfulfilling": 8926,
  "Ġunforgettable": 8927,
  "Ġunfl": 8928,
  "Ġunexplain": 8929,
  "Ġuneventful": 8930,
  "Ġundercuts": 8931,
  "Ġunderlying": 8932,
  "Ġundercurrent": 8933,
  "Ġunders": 8934,
  "Ġunconditional": 8935,
  "Ġunblinking": 8936,
  "Ġunsympathetic": 8937,
  "Ġunmention": 8938,
  "Ġunless": 8939,
  "Ġunleas": 8940,
  "Ġunknown": 8941,
  "Ġuniformly": 8942,
  "Ġunassuming": 8943,
  "Ġunable": 8944,
  "Ġuh": 8945,
  "Ġtwisting": 8946,
  "Ġtwink": 8947,
  "Ġtwenty": 8948,
  "Ġturgid": 8949,
  "Ġtuned": 8950,
  "Ġtrees": 8951,
  "Ġtransparent": 8952,
  "Ġtransg": 8953,
  "Ġtransforms": 8954,
  "Ġtragically": 8955,
  "Ġtrapped": 8956,
  "Ġtrap": 8957,
  "Ġtruck": 8958,
  "Ġtowards": 8959,
  "Ġtorture": 8960,
  "Ġtomorrow": 8961,
  "Ġtolerance": 8962,
  "Ġtown": 8963,
  "Ġtimid": 8964,
  "Ġthrowing": 8965,
  "Ġthrowback": 8966,
  "Ġthrilling": 8967,
  "Ġthousand": 8968,
  "Ġthinly": 8969,
  "Ġthematically": 8970,
  "Ġtheories": 8971,
  "Ġthankfully": 8972,
  "Ġthumbs": 8973,
  "Ġthirty": 8974,
  "Ġtestimony": 8975,
  "Ġterrorism": 8976,
  "Ġtempting": 8977,
  "Ġtelegraphed": 8978,
  "Ġtechnique": 8979,
  "Ġteachers": 8980,
  "Ġtea": 8981,
  "Ġtackling": 8982,
  "Ġtumult": 8983,
  "Ġtropes": 8984,
  "Ġtrenchant": 8985,
  "Ġtorn": 8986,
  "Ġtor": 8987,
  "Ġtones": 8988,
  "Ġton": 8989,
  "Ġtiss": 8990,
  "Ġtensions": 8991,
  "Ġtense": 8992,
  "Ġtem": 8993,
  "Ġtel": 8994,
  "Ġtax": 8995,
  "Ġtattered": 8996,
  "Ġtasteless": 8997,
  "Ġtask": 8998,
  "Ġtaps": 8999,
  "Ġtapping": 9000,
  "Ġtailor": 9001,
  "Ġtable": 9002,
  "Ġsympath": 9003,
  "Ġsymbol": 9004,
  "Ġsweat": 9005,
  "Ġswinging": 9006,
  "Ġswim": 9007,
  "Ġsurvivors": 9008,
  "Ġsurvival": 9009,
  "Ġsurrounded": 9010,
  "Ġsurprised": 9011,
  "Ġsurre": 9012,
  "Ġsupport": 9013,
  "Ġsuperficiality": 9014,
  "Ġsuperbly": 9015,
  "Ġsummertime": 9016,
  "Ġsuitably": 9017,
  "Ġsuffocating": 9018,
  "Ġsuffer": 9019,
  "Ġsucks": 9020,
  "Ġsucceeded": 9021,
  "Ġsuccumb": 9022,
  "Ġsuburban": 9023,
  "Ġsubmarine": 9024,
  "Ġsuits": 9025,
  "Ġsuitable": 9026,
  "Ġsugar": 9027,
  "Ġstyles": 9028,
  "Ġstudent": 9029,
  "Ġstruggling": 9030,
  "Ġstruggles": 9031,
  "Ġstrongly": 9032,
  "Ġstrongest": 9033,
  "Ġstronger": 9034,
  "Ġstroke": 9035,
  "Ġstrip": 9036,
  "Ġstretched": 9037,
  "Ġstretch": 9038,
  "Ġstrangeness": 9039,
  "Ġstrands": 9040,
  "Ġstrains": 9041,
  "Ġstrained": 9042,
  "Ġstoryt": 9043,
  "Ġstereotypical": 9044,
  "Ġsteeped": 9045,
  "Ġsteals": 9046,
  "Ġstarting": 9047,
  "Ġstoop": 9048,
  "Ġsting": 9049,
  "Ġstimul": 9050,
  "Ġstark": 9051,
  "Ġstages": 9052,
  "Ġstag": 9053,
  "Ġspotlight": 9054,
  "Ġspontaneity": 9055,
  "Ġsplash": 9056,
  "Ġspirited": 9057,
  "Ġspectacularly": 9058,
  "Ġspecimen": 9059,
  "Ġspecific": 9060,
  "Ġspends": 9061,
  "Ġspeculation": 9062,
  "Ġsprightly": 9063,
  "Ġspots": 9064,
  "Ġspins": 9065,
  "Ġspiff": 9066,
  "Ġspider": 9067,
  "Ġspiced": 9068,
  "Ġspice": 9069,
  "Ġspi": 9070,
  "Ġspaces": 9071,
  "Ġsources": 9072,
  "Ġsoccer": 9073,
  "Ġsoars": 9074,
  "Ġsneaks": 9075,
  "Ġsnow": 9076,
  "Ġsnoo": 9077,
  "Ġsnap": 9078,
  "Ġsmoother": 9079,
  "Ġsmash": 9080,
  "Ġsmack": 9081,
  "Ġslipper": 9082,
  "Ġslapdash": 9083,
  "Ġslopp": 9084,
  "Ġslog": 9085,
  "Ġslam": 9086,
  "Ġskills": 9087,
  "Ġskillful": 9088,
  "Ġskateboard": 9089,
  "Ġshortcomings": 9090,
  "Ġshenanigans": 9091,
  "Ġshell": 9092,
  "Ġshadowy": 9093,
  "Ġshri": 9094,
  "Ġshower": 9095,
  "Ġshorter": 9096,
  "Ġshop": 9097,
  "Ġshoddy": 9098,
  "Ġshining": 9099,
  "Ġsettle": 9100,
  "Ġsentence": 9101,
  "Ġsensitivity": 9102,
  "Ġsensibility": 9103,
  "Ġseeming": 9104,
  "Ġseeks": 9105,
  "Ġsecondhand": 9106,
  "Ġsecrets": 9107,
  "Ġselection": 9108,
  "Ġsegment": 9109,
  "Ġseas": 9110,
  "Ġsearing": 9111,
  "Ġseams": 9112,
  "Ġscripting": 9113,
  "Ġscrewball": 9114,
  "Ġscreens": 9115,
  "Ġschmaltzy": 9116,
  "Ġschmaltz": 9117,
  "Ġschlock": 9118,
  "Ġscenic": 9119,
  "Ġscares": 9120,
  "Ġscruffy": 9121,
  "Ġscrap": 9122,
  "Ġscathing": 9123,
  "Ġscand": 9124,
  "Ġsavage": 9125,
  "Ġsatisfactory": 9126,
  "Ġsanctimony": 9127,
  "Ġsanctimonious": 9128,
  "Ġsadd": 9129,
  "Ġsacrificing": 9130,
  "Ġsacrifice": 9131,
  "Ġsons": 9132,
  "Ġsky": 9133,
  "Ġsits": 9134,
  "Ġsib": 9135,
  "Ġsessions": 9136,
  "Ġsays": 9137,
  "Ġsaving": 9138,
  "Ġsaves": 9139,
  "Ġsardonic": 9140,
  "Ġsabot": 9141,
  "Ġruined": 9142,
  "Ġrocket": 9143,
  "Ġrobust": 9144,
  "Ġridiculousness": 9145,
  "Ġripe": 9146,
  "Ġrigid": 9147,
  "Ġrewarded": 9148,
  "Ġrevelations": 9149,
  "Ġretal": 9150,
  "Ġretains": 9151,
  "Ġresponsibility": 9152,
  "Ġrespectable": 9153,
  "Ġresonate": 9154,
  "Ġresembles": 9155,
  "Ġreserved": 9156,
  "Ġrequire": 9157,
  "Ġrepetition": 9158,
  "Ġrepeatedly": 9159,
  "Ġreplete": 9160,
  "Ġrepellent": 9161,
  "Ġreminding": 9162,
  "Ġreminded": 9163,
  "Ġreligious": 9164,
  "Ġrelentless": 9165,
  "Ġreluctant": 9166,
  "Ġreliable": 9167,
  "Ġrelaxed": 9168,
  "Ġrelative": 9169,
  "Ġrelate": 9170,
  "Ġrejected": 9171,
  "Ġregarding": 9172,
  "Ġrefugees": 9173,
  "Ġreflection": 9174,
  "Ġreduces": 9175,
  "Ġreduced": 9176,
  "Ġredeeming": 9177,
  "Ġrecycling": 9178,
  "Ġrecognize": 9179,
  "Ġrecogniz": 9180,
  "Ġrecipe": 9181,
  "Ġreasons": 9182,
  "Ġrealistically": 9183,
  "Ġrealizing": 9184,
  "Ġreaching": 9185,
  "Ġrev": 9186,
  "Ġresearch": 9187,
  "Ġrelying": 9188,
  "Ġrely": 9189,
  "Ġreck": 9190,
  "Ġreceived": 9191,
  "Ġreached": 9192,
  "Ġraunchy": 9193,
  "Ġradiant": 9194,
  "Ġradar": 9195,
  "Ġravishing": 9196,
  "Ġrapt": 9197,
  "Ġraises": 9198,
  "Ġrac": 9199,
  "Ġrushed": 9200,
  "Ġrising": 9201,
  "Ġrings": 9202,
  "Ġring": 9203,
  "Ġrhetoric": 9204,
  "Ġrhapsod": 9205,
  "Ġrat": 9206,
  "Ġrans": 9207,
  "Ġquieter": 9208,
  "Ġqualities": 9209,
  "Ġquasi": 9210,
  "Ġquarter": 9211,
  "Ġputting": 9212,
  "Ġpushed": 9213,
  "Ġpurely": 9214,
  "Ġpunct": 9215,
  "Ġpulpy": 9216,
  "Ġpulse": 9217,
  "Ġpupp": 9218,
  "Ġpuerile": 9219,
  "Ġpsychopathic": 9220,
  "Ġpsychologically": 9221,
  "Ġpsyched": 9222,
  "Ġpsyche": 9223,
  "Ġprovided": 9224,
  "Ġprotagonists": 9225,
  "Ġprotect": 9226,
  "Ġpropaganda": 9227,
  "Ġpromisingly": 9228,
  "Ġpromises": 9229,
  "Ġprojects": 9230,
  "Ġprogram": 9231,
  "Ġprofessionals": 9232,
  "Ġprofane": 9233,
  "Ġproductions": 9234,
  "Ġproducer": 9235,
  "Ġprobing": 9236,
  "Ġprose": 9237,
  "Ġproced": 9238,
  "Ġprincess": 9239,
  "Ġprimitive": 9240,
  "Ġprimary": 9241,
  "Ġpressed": 9242,
  "Ġpredictability": 9243,
  "Ġpresc": 9244,
  "Ġpregn": 9245,
  "Ġpractice": 9246,
  "Ġprint": 9247,
  "Ġprime": 9248,
  "Ġpowerfully": 9249,
  "Ġpointed": 9250,
  "Ġposter": 9251,
  "Ġpool": 9252,
  "Ġpleasantly": 9253,
  "Ġplayer": 9254,
  "Ġplus": 9255,
  "Ġpluck": 9256,
  "Ġplanet": 9257,
  "Ġpitfalls": 9258,
  "Ġpitched": 9259,
  "Ġpileup": 9260,
  "Ġphrase": 9261,
  "Ġphone": 9262,
  "Ġphon": 9263,
  "Ġpervasive": 9264,
  "Ġpertinent": 9265,
  "Ġperpet": 9266,
  "Ġpermeates": 9267,
  "Ġpedigree": 9268,
  "Ġpeak": 9269,
  "Ġpassions": 9270,
  "Ġpassing": 9271,
  "Ġpasses": 9272,
  "Ġpassages": 9273,
  "Ġparticipants": 9274,
  "Ġparanoia": 9275,
  "Ġparan": 9276,
  "Ġpanoramic": 9277,
  "Ġpairing": 9278,
  "Ġpackage": 9279,
  "Ġpyrotechnics": 9280,
  "Ġpunk": 9281,
  "Ġpungent": 9282,
  "Ġprivate": 9283,
  "Ġprism": 9284,
  "Ġpride": 9285,
  "Ġpra": 9286,
  "Ġpoll": 9287,
  "Ġple": 9288,
  "Ġpink": 9289,
  "Ġpin": 9290,
  "Ġpiercing": 9291,
  "Ġpian": 9292,
  "Ġpet": 9293,
  "Ġpessim": 9294,
  "Ġpadded": 9295,
  "Ġpad": 9296,
  "Ġovertly": 9297,
  "Ġoverrun": 9298,
  "Ġouttakes": 9299,
  "Ġoutsiders": 9300,
  "Ġoutrage": 9301,
  "Ġouter": 9302,
  "Ġoutd": 9303,
  "Ġoutcome": 9304,
  "Ġorganic": 9305,
  "Ġorder": 9306,
  "Ġopinion": 9307,
  "Ġopens": 9308,
  "Ġodyssey": 9309,
  "Ġoccur": 9310,
  "Ġobsessive": 9311,
  "Ġobsessions": 9312,
  "Ġobser": 9313,
  "Ġobjectivity": 9314,
  "Ġowes": 9315,
  "Ġovere": 9316,
  "Ġnumbing": 9317,
  "Ġnuance": 9318,
  "Ġnotwithstanding": 9319,
  "Ġnotorious": 9320,
  "Ġnotes": 9321,
  "Ġnormally": 9322,
  "Ġnonstop": 9323,
  "Ġnose": 9324,
  "Ġnetwork": 9325,
  "Ġnervy": 9326,
  "Ġnerves": 9327,
  "Ġneedlessly": 9328,
  "Ġnegligible": 9329,
  "Ġnaughty": 9330,
  "Ġnarratively": 9331,
  "Ġnarrator": 9332,
  "Ġnarcissism": 9333,
  "Ġnaive": 9334,
  "Ġnutty": 9335,
  "Ġnin": 9336,
  "Ġnifty": 9337,
  "Ġnic": 9338,
  "Ġnary": 9339,
  "Ġnails": 9340,
  "Ġnail": 9341,
  "Ġmythic": 9342,
  "Ġmysteries": 9343,
  "Ġmulti": 9344,
  "Ġmoviegoing": 9345,
  "Ġmountain": 9346,
  "Ġmotions": 9347,
  "Ġmoronic": 9348,
  "Ġmorbid": 9349,
  "Ġmonotonous": 9350,
  "Ġmonument": 9351,
  "Ġmode": 9352,
  "Ġmob": 9353,
  "Ġmisses": 9354,
  "Ġmisanthropic": 9355,
  "Ġmisogyny": 9356,
  "Ġmisguided": 9357,
  "Ġmiserable": 9358,
  "Ġmillion": 9359,
  "Ġmidway": 9360,
  "Ġmetaphorical": 9361,
  "Ġmetaphors": 9362,
  "Ġmethod": 9363,
  "Ġmessy": 9364,
  "Ġmerits": 9365,
  "Ġmember": 9366,
  "Ġmedium": 9367,
  "Ġmeditative": 9368,
  "Ġmegaplex": 9369,
  "Ġmeet": 9370,
  "Ġmeant": 9371,
  "Ġmeal": 9372,
  "Ġmassive": 9373,
  "Ġmarvelously": 9374,
  "Ġmanipulation": 9375,
  "Ġmanners": 9376,
  "Ġmalaise": 9377,
  "Ġmakeup": 9378,
  "Ġmaintaining": 9379,
  "Ġmaintain": 9380,
  "Ġmachismo": 9381,
  "Ġmaxim": 9382,
  "Ġmundane": 9383,
  "Ġmuddle": 9384,
  "Ġmour": 9385,
  "Ġmired": 9386,
  "Ġmaker": 9387,
  "Ġmadd": 9388,
  "Ġmacabre": 9389,
  "Ġlowbrow": 9390,
  "Ġlosers": 9391,
  "Ġloosely": 9392,
  "Ġlocales": 9393,
  "Ġlobby": 9394,
  "Ġliterate": 9395,
  "Ġlimits": 9396,
  "Ġlimitations": 9397,
  "Ġlightly": 9398,
  "Ġliberation": 9399,
  "Ġliberating": 9400,
  "Ġletdown": 9401,
  "Ġlesser": 9402,
  "Ġlegendary": 9403,
  "Ġlegal": 9404,
  "Ġleading": 9405,
  "Ġleavened": 9406,
  "Ġleth": 9407,
  "Ġleather": 9408,
  "Ġlearning": 9409,
  "Ġlean": 9410,
  "Ġlayered": 9411,
  "Ġlaughably": 9412,
  "Ġlandscapes": 9413,
  "Ġlandmark": 9414,
  "Ġluster": 9415,
  "Ġlittered": 9416,
  "Ġlaz": 9417,
  "Ġlavish": 9418,
  "Ġlaudable": 9419,
  "Ġlapses": 9420,
  "Ġlady": 9421,
  "Ġkept": 9422,
  "Ġkeen": 9423,
  "Ġkits": 9424,
  "Ġkitchen": 9425,
  "Ġkin": 9426,
  "Ġkilled": 9427,
  "Ġkicks": 9428,
  "Ġjoyless": 9429,
  "Ġjournalism": 9430,
  "Ġjolts": 9431,
  "Ġjolt": 9432,
  "Ġjunior": 9433,
  "Ġjumps": 9434,
  "Ġjell": 9435,
  "Ġjazzy": 9436,
  "Ġital": 9437,
  "Ġissue": 9438,
  "Ġirrelevant": 9439,
  "Ġinvolve": 9440,
  "Ġinviting": 9441,
  "Ġintroduction": 9442,
  "Ġintolerable": 9443,
  "Ġinterpretation": 9444,
  "Ġinterviews": 9445,
  "Ġinteraction": 9446,
  "Ġintentionally": 9447,
  "Ġintensely": 9448,
  "Ġintelligently": 9449,
  "Ġintact": 9450,
  "Ġinsultingly": 9451,
  "Ġinstance": 9452,
  "Ġinspires": 9453,
  "Ġinsecure": 9454,
  "Ġinsurance": 9455,
  "Ġinsistent": 9456,
  "Ġinsignific": 9457,
  "Ġinquisitive": 9458,
  "Ġinnovative": 9459,
  "Ġinnovation": 9460,
  "Ġinnocent": 9461,
  "Ġinnuendo": 9462,
  "Ġingred": 9463,
  "Ġinfuriating": 9464,
  "Ġinfluenced": 9465,
  "Ġinfluence": 9466,
  "Ġinfectious": 9467,
  "Ġinfantile": 9468,
  "Ġinfomercial": 9469,
  "Ġinexplicable": 9470,
  "Ġineptly": 9471,
  "Ġindifference": 9472,
  "Ġindul": 9473,
  "Ġincoherence": 9474,
  "Ġinclination": 9475,
  "Ġincessant": 9476,
  "Ġincongruous": 9477,
  "Ġincident": 9478,
  "Ġinj": 9479,
  "Ġinitial": 9480,
  "Ġinformation": 9481,
  "Ġindu": 9482,
  "Ġindictment": 9483,
  "Ġimprovisation": 9484,
  "Ġimpressions": 9485,
  "Ġimpersonal": 9486,
  "Ġimpenetrable": 9487,
  "Ġimmediacy": 9488,
  "Ġimmers": 9489,
  "Ġimmature": 9490,
  "Ġimmac": 9491,
  "Ġimb": 9492,
  "Ġilluminating": 9493,
  "Ġillness": 9494,
  "Ġignore": 9495,
  "Ġidiots": 9496,
  "Ġidiotic": 9497,
  "Ġidealism": 9498,
  "Ġiconoclastic": 9499,
  "Ġhypoc": 9500,
  "Ġhumanly": 9501,
  "Ġhumans": 9502,
  "Ġhorribly": 9503,
  "Ġhorrors": 9504,
  "Ġhopefully": 9505,
  "Ġhopes": 9506,
  "Ġhomosexual": 9507,
  "Ġhistrionics": 9508,
  "Ġhistorically": 9509,
  "Ġhilariously": 9510,
  "Ġhigher": 9511,
  "Ġhideously": 9512,
  "Ġheroic": 9513,
  "Ġheritage": 9514,
  "Ġhelped": 9515,
  "Ġhealth": 9516,
  "Ġheady": 9517,
  "Ġheaded": 9518,
  "Ġheights": 9519,
  "Ġheight": 9520,
  "Ġhedonistic": 9521,
  "Ġheavily": 9522,
  "Ġheated": 9523,
  "Ġheat": 9524,
  "Ġhappiness": 9525,
  "Ġhandsomely": 9526,
  "Ġhandling": 9527,
  "Ġhammy": 9528,
  "Ġhaphazard": 9529,
  "Ġhurt": 9530,
  "Ġho": 9531,
  "Ġhint": 9532,
  "Ġhidden": 9533,
  "Ġhates": 9534,
  "Ġhang": 9535,
  "Ġhallucin": 9536,
  "Ġguarantee": 9537,
  "Ġgroan": 9538,
  "Ġgreatness": 9539,
  "Ġgreater": 9540,
  "Ġgratuitous": 9541,
  "Ġgraceless": 9542,
  "Ġgravity": 9543,
  "Ġgrotesque": 9544,
  "Ġgrim": 9545,
  "Ġgrate": 9546,
  "Ġgoofball": 9547,
  "Ġglorified": 9548,
  "Ġglimpses": 9549,
  "Ġglorious": 9550,
  "Ġglob": 9551,
  "Ġgifts": 9552,
  "Ġgenres": 9553,
  "Ġgenius": 9554,
  "Ġgeared": 9555,
  "Ġgrisly": 9556,
  "Ġgrew": 9557,
  "Ġgreen": 9558,
  "Ġglee": 9559,
  "Ġgel": 9560,
  "Ġgave": 9561,
  "Ġgasp": 9562,
  "Ġgam": 9563,
  "Ġfunction": 9564,
  "Ġfrustratingly": 9565,
  "Ġfrequent": 9566,
  "Ġfreight": 9567,
  "Ġformal": 9568,
  "Ġforemost": 9569,
  "Ġforeign": 9570,
  "Ġforcefully": 9571,
  "Ġforth": 9572,
  "Ġfollowed": 9573,
  "Ġflashbacks": 9574,
  "Ġflorid": 9575,
  "Ġflashes": 9576,
  "Ġflame": 9577,
  "Ġflamboyant": 9578,
  "Ġflailing": 9579,
  "Ġflag": 9580,
  "Ġfilming": 9581,
  "Ġfearless": 9582,
  "Ġfeces": 9583,
  "Ġfatal": 9584,
  "Ġfascinate": 9585,
  "Ġfascination": 9586,
  "Ġfarcical": 9587,
  "Ġfalling": 9588,
  "Ġfallen": 9589,
  "Ġfailing": 9590,
  "Ġfault": 9591,
  "Ġfailed": 9592,
  "Ġfaces": 9593,
  "Ġfuss": 9594,
  "Ġfuriously": 9595,
  "Ġfru": 9596,
  "Ġfren": 9597,
  "Ġfolly": 9598,
  "Ġfoibles": 9599,
  "Ġfocused": 9600,
  "Ġfocus": 9601,
  "Ġfiring": 9602,
  "Ġfires": 9603,
  "Ġfiend": 9604,
  "Ġfield": 9605,
  "Ġfet": 9606,
  "Ġfarts": 9607,
  "Ġfaced": 9608,
  "Ġextravaganza": 9609,
  "Ġextravagant": 9610,
  "Ġextraordinarily": 9611,
  "Ġexterior": 9612,
  "Ġextent": 9613,
  "Ġexplosion": 9614,
  "Ġexploiting": 9615,
  "Ġexploring": 9616,
  "Ġexpertly": 9617,
  "Ġexpert": 9618,
  "Ġexperienced": 9619,
  "Ġexpects": 9620,
  "Ġexpecting": 9621,
  "Ġexpos": 9622,
  "Ġexecut": 9623,
  "Ġexception": 9624,
  "Ġexcited": 9625,
  "Ġexit": 9626,
  "Ġexists": 9627,
  "Ġexasper": 9628,
  "Ġexal": 9629,
  "Ġevident": 9630,
  "Ġevidence": 9631,
  "Ġeverywhere": 9632,
  "Ġestablishes": 9633,
  "Ġestablished": 9634,
  "Ġescapist": 9635,
  "Ġescaped": 9636,
  "Ġepip": 9637,
  "Ġenvironmental": 9638,
  "Ġentertainingly": 9639,
  "Ġentertained": 9640,
  "Ġentr": 9641,
  "Ġenters": 9642,
  "Ġenjoys": 9643,
  "Ġenjoyably": 9644,
  "Ġenhances": 9645,
  "Ġengagingly": 9646,
  "Ġenerg": 9647,
  "Ġendeav": 9648,
  "Ġenduring": 9649,
  "Ġended": 9650,
  "Ġencount": 9651,
  "Ġenigmatic": 9652,
  "Ġenchant": 9653,
  "Ġemptiness": 9654,
  "Ġemploys": 9655,
  "Ġembrace": 9656,
  "Ġelsewhere": 9657,
  "Ġeloquently": 9658,
  "Ġelevates": 9659,
  "Ġelegantly": 9660,
  "Ġelegance": 9661,
  "Ġelevate": 9662,
  "Ġelusive": 9663,
  "Ġeducation": 9664,
  "Ġedits": 9665,
  "Ġedges": 9666,
  "Ġevol": 9667,
  "Ġetern": 9668,
  "Ġeg": 9669,
  "Ġech": 9670,
  "Ġdynamics": 9671,
  "Ġdutiful": 9672,
  "Ġdrowns": 9673,
  "Ġdriven": 9674,
  "Ġdreck": 9675,
  "Ġdragons": 9676,
  "Ġdrink": 9677,
  "Ġdownward": 9678,
  "Ġdopey": 9679,
  "Ġdozen": 9680,
  "Ġdisturbing": 9681,
  "Ġdisturb": 9682,
  "Ġdistinguish": 9683,
  "Ġdistant": 9684,
  "Ġdisgusting": 9685,
  "Ġdisappointingly": 9686,
  "Ġdisregard": 9687,
  "Ġdisplays": 9688,
  "Ġdism": 9689,
  "Ġdisintegr": 9690,
  "Ġdiscipl": 9691,
  "Ġdimension": 9692,
  "Ġdigs": 9693,
  "Ġdevelops": 9694,
  "Ġdevelopments": 9695,
  "Ġdetermine": 9696,
  "Ġdetract": 9697,
  "Ġdetective": 9698,
  "Ġdetached": 9699,
  "Ġdestruction": 9700,
  "Ġderived": 9701,
  "Ġdepths": 9702,
  "Ġdepraved": 9703,
  "Ġdeparture": 9704,
  "Ġdepartment": 9705,
  "Ġdepression": 9706,
  "Ġdepressed": 9707,
  "Ġdenying": 9708,
  "Ġdenied": 9709,
  "Ġdemonstrating": 9710,
  "Ġdemonstrate": 9711,
  "Ġdemograph": 9712,
  "Ġdemocra": 9713,
  "Ġdefinition": 9714,
  "Ġdefeated": 9715,
  "Ġdeepest": 9716,
  "Ġdeceptions": 9717,
  "Ġdeception": 9718,
  "Ġdecidedly": 9719,
  "Ġdecided": 9720,
  "Ġdebate": 9721,
  "Ġdevolves": 9722,
  "Ġdegrad": 9723,
  "Ġdarkly": 9724,
  "Ġdamning": 9725,
  "Ġduration": 9726,
  "Ġdual": 9727,
  "Ġdu": 9728,
  "Ġdowntown": 9729,
  "Ġdol": 9730,
  "Ġdiv": 9731,
  "Ġded": 9732,
  "Ġdawn": 9733,
  "Ġdaughters": 9734,
  "Ġdarned": 9735,
  "Ġcutesy": 9736,
  "Ġcuteness": 9737,
  "Ġcurt": 9738,
  "Ġcrossover": 9739,
  "Ġcritique": 9740,
  "Ġcriticism": 9741,
  "Ġcritical": 9742,
  "Ġcrippled": 9743,
  "Ġcredited": 9744,
  "Ġcrew": 9745,
  "Ġcrafts": 9746,
  "Ġcrackle": 9747,
  "Ġcrushing": 9748,
  "Ġcourt": 9749,
  "Ġcourageous": 9750,
  "Ġcorrupt": 9751,
  "Ġconventions": 9752,
  "Ġconveying": 9753,
  "Ġcontinuity": 9754,
  "Ġcontemplation": 9755,
  "Ġcontest": 9756,
  "Ġconstantly": 9757,
  "Ġconnection": 9758,
  "Ġconjures": 9759,
  "Ġconditioning": 9760,
  "Ġcondensed": 9761,
  "Ġconcoct": 9762,
  "Ġconvol": 9763,
  "Ġcomplexities": 9764,
  "Ġcompetition": 9765,
  "Ġcompanion": 9766,
  "Ġcomprehension": 9767,
  "Ġcomposition": 9768,
  "Ġcomposed": 9769,
  "Ġcompared": 9770,
  "Ġcommunal": 9771,
  "Ġcommercialism": 9772,
  "Ġcombust": 9773,
  "Ġcombat": 9774,
  "Ġcompl": 9775,
  "Ġcoma": 9776,
  "Ġcollectively": 9777,
  "Ġcollaboration": 9778,
  "Ġcollision": 9779,
  "Ġcohesive": 9780,
  "Ġcovers": 9781,
  "Ġclosely": 9782,
  "Ġclosing": 9783,
  "Ġclaustrophobic": 9784,
  "Ġclassical": 9785,
  "Ġclunky": 9786,
  "Ġclueless": 9787,
  "Ġclaim": 9788,
  "Ġclad": 9789,
  "Ġcivil": 9790,
  "Ġcircumstances": 9791,
  "Ġchuckles": 9792,
  "Ġchuckle": 9793,
  "Ġchildlike": 9794,
  "Ġchest": 9795,
  "Ġcheeky": 9796,
  "Ġcharacterization": 9797,
  "Ġcharacteristic": 9798,
  "Ġcharged": 9799,
  "Ġchaos": 9800,
  "Ġchurch": 9801,
  "Ġchron": 9802,
  "Ġchosen": 9803,
  "Ġchoo": 9804,
  "Ġchances": 9805,
  "Ġcerebral": 9806,
  "Ġcenter": 9807,
  "Ġcelebrity": 9808,
  "Ġcartoons": 9809,
  "Ġcarrying": 9810,
  "Ġcaric": 9811,
  "Ġcapital": 9812,
  "Ġcapability": 9813,
  "Ġcanon": 9814,
  "Ġcanny": 9815,
  "Ġcann": 9816,
  "Ġcampy": 9817,
  "Ġcamoufl": 9818,
  "Ġcalm": 9819,
  "Ġcalib": 9820,
  "Ġcup": 9821,
  "Ġcumulative": 9822,
  "Ġcath": 9823,
  "Ġcatching": 9824,
  "Ġcars": 9825,
  "Ġcarn": 9826,
  "Ġcad": 9827,
  "Ġbursts": 9828,
  "Ġbuzz": 9829,
  "Ġbuck": 9830,
  "Ġbrilliance": 9831,
  "Ġbrightly": 9832,
  "Ġbrio": 9833,
  "Ġbreathes": 9834,
  "Ġbravery": 9835,
  "Ġbrains": 9836,
  "Ġbrus": 9837,
  "Ġbrother": 9838,
  "Ġboun": 9839,
  "Ġboost": 9840,
  "Ġboobs": 9841,
  "Ġbombastic": 9842,
  "Ġboldly": 9843,
  "Ġbogus": 9844,
  "Ġbogged": 9845,
  "Ġbodily": 9846,
  "Ġbodice": 9847,
  "Ġboom": 9848,
  "Ġboils": 9849,
  "Ġboat": 9850,
  "Ġboasts": 9851,
  "Ġbloods": 9852,
  "Ġblockbusters": 9853,
  "Ġblockbuster": 9854,
  "Ġblandness": 9855,
  "Ġbluster": 9856,
  "Ġblind": 9857,
  "Ġbiography": 9858,
  "Ġbelieving": 9859,
  "Ġbeguiling": 9860,
  "Ġbeings": 9861,
  "Ġbef": 9862,
  "Ġbeer": 9863,
  "Ġbeats": 9864,
  "Ġbearing": 9865,
  "Ġbeach": 9866,
  "Ġbaffled": 9867,
  "Ġburn": 9868,
  "Ġbump": 9869,
  "Ġbreadth": 9870,
  "Ġborrows": 9871,
  "Ġborn": 9872,
  "Ġbio": 9873,
  "Ġbarrel": 9874,
  "Ġbare": 9875,
  "Ġbaggage": 9876,
  "Ġbaby": 9877,
  "Ġbab": 9878,
  "Ġawards": 9879,
  "Ġawakening": 9880,
  "Ġaware": 9881,
  "Ġavant": 9882,
  "Ġauthor": 9883,
  "Ġautop": 9884,
  "Ġautom": 9885,
  "Ġaudacity": 9886,
  "Ġastute": 9887,
  "Ġastron": 9888,
  "Ġassault": 9889,
  "Ġassociated": 9890,
  "Ġassassin": 9891,
  "Ġassass": 9892,
  "Ġassembled": 9893,
  "Ġartistry": 9894,
  "Ġarticulate": 9895,
  "Ġartsy": 9896,
  "Ġartful": 9897,
  "Ġarresting": 9898,
  "Ġarguments": 9899,
  "Ġarbitrary": 9900,
  "Ġarist": 9901,
  "Ġappreciated": 9902,
  "Ġappeals": 9903,
  "Ġapply": 9904,
  "Ġanywhere": 9905,
  "Ġanimatronic": 9906,
  "Ġanimal": 9907,
  "Ġanguish": 9908,
  "Ġangry": 9909,
  "Ġangle": 9910,
  "Ġancient": 9911,
  "Ġanarch": 9912,
  "Ġanachronistic": 9913,
  "Ġambiguity": 9914,
  "Ġamid": 9915,
  "Ġamazingly": 9916,
  "Ġallowing": 9917,
  "Ġallowed": 9918,
  "Ġallusions": 9919,
  "Ġaliens": 9920,
  "Ġalbeit": 9921,
  "Ġairless": 9922,
  "Ġaimlessly": 9923,
  "Ġaggressively": 9924,
  "Ġagend": 9925,
  "Ġaged": 9926,
  "Ġaffected": 9927,
  "Ġafford": 9928,
  "Ġaffirming": 9929,
  "Ġaesthetic": 9930,
  "Ġadvertised": 9931,
  "Ġadolesc": 9932,
  "Ġadmirably": 9933,
  "Ġadmission": 9934,
  "Ġadding": 9935,
  "Ġadv": 9936,
  "Ġadage": 9937,
  "Ġactiv": 9938,
  "Ġaccomplish": 9939,
  "Ġaccepting": 9940,
  "Ġaccumul": 9941,
  "Ġacqu": 9942,
  "Ġacid": 9943,
  "Ġaccompan": 9944,
  "Ġabsurdities": 9945,
  "Ġabsurdist": 9946,
  "Ġabund": 9947,
  "Ġably": 9948,
  "Ġauteur": 9949,
  "Ġausterity": 9950,
  "Ġai": 9951,
  "Ġacknowled": 9952,
  "Ġ\\*\\*\\*": 9953,
  "ĠZealand": 9954,
  "ĠYour": 9955,
  "ĠYard": 9956,
  "ĠWillis": 9957,
  "ĠWilco": 9958,
  "ĠWelsh": 9959,
  "ĠWednesday": 9960,
  "ĠWeight": 9961,
  "ĠWalter": 9962,
  "ĠWood": 9963,
  "ĠWonder": 9964,
  "ĠWollter": 9965,
  "ĠWife": 9966,
  "ĠWesley": 9967,
  "ĠWertmuller": 9968,
  "ĠWere": 9969,
  "ĠWeeks": 9970,
  "ĠWas": 9971,
  "ĠWant": 9972,
  "ĠWalt": 9973,
  "ĠVietnamese": 9974,
  "ĠVenice": 9975,
  "ĠVe": 9976,
  "ĠUnited": 9977,
  "ĠUndisputed": 9978,
  "ĠTunis": 9979,
  "ĠThornberrys": 9980,
  "ĠTheatre": 9981,
  "ĠThomas": 9982,
  "ĠTeacher": 9983,
  "ĠTsai": 9984,
  "ĠTreasure": 9985,
  "ĠTout": 9986,
  "ĠTodd": 9987,
  "ĠTest": 9988,
  "ĠTavernier": 9989,
  "ĠTake": 9990,
  "ĠSwimfan": 9991,
  "ĠSweetest": 9992,
  "ĠSusan": 9993,
  "ĠSundance": 9994,
  "ĠStudios": 9995,
  "ĠStrangers": 9996,
  "ĠStitch": 9997,
  "ĠStephen": 9998,
  "ĠStates": 9999
}